{"idx_to_token": {"0": "[PAD]", "1": "[UNK]", "2": "\uff0c", "3": "\u4e86", "4": "\u3002", "5": "\uff01", "6": "\u6211", "7": "/", "8": " ", "9": "[", "10": "]", "11": "\u662f", "12": "#", "13": "\u4f60", "14": "\u90fd", "15": "\u5728", "16": ":", "17": "@", "18": "?", "19": "\u4e0d", "20": "\u5c31", "21": "\u2026", "22": "\u4eba", "23": "\u3001", "24": "\uff1f", "25": "\u4e5f", "26": "\u6709", "27": "\u597d", "28": "\u8981", "29": "\u81ea\u5df1", "30": "\u52a0\u6cb9", "31": "\u548c", "32": "\u6b66\u6c49", "33": "\u554a", "34": "\u8fd8", "35": "\u6211\u4eec", "36": "\u8bf4", "37": "\u4e00\u4e2a", "38": "\u8fd9", "39": "\u53bb", "40": "\u60f3", "41": "\u5230", "42": "\u6ca1\u6709", "43": "\u53c8", "44": "\u88ab", "45": "\u5fc3", "46": "\u4ec0\u4e48", "47": "\u4f1a", "48": "\u771f\u7684", "49": "\u5f88", "50": "\u7ed9", "51": "\u4ed6", "52": "\u201c", "53": "\u770b", "54": "\u75ab\u60c5", "55": "\uff1a", "56": "\u80fd", "57": "\u6ca1", "58": "\u8ba9", "59": "\u81f4\u656c", "60": "\u5c31\u662f", "61": "\u80ba\u708e", "62": "\u4eca\u5929", "63": "\u5403", "64": "\u73b0\u5728", "65": "\u591a", "66": "\u5927\u5bb6", "67": ".", "68": "\u533b\u62a4\u4eba\u5458", "69": "\u4e00\u8d77", "70": "\u4e0a", "71": "\u7740", "72": "\u77e5\u9053", "73": "\u8fd9\u4e2a", "74": "\u65b0\u578b", "75": "\u628a", "76": "\u5bf9", "77": "\u505a", "78": "\u4f60\u4eec", "79": "\u600e\u4e48", "80": "\u65f6\u5019", "81": "\u8fd8\u662f", "82": "\u53ef\u4ee5", "83": "\u201d", "84": "\u6765", "85": "\u8fd9\u4e48", "86": "\u4e0d\u662f", "87": "\u4e2a", "88": "\u5e73\u5b89", "89": "\u4e3a", "90": "\u4e0d\u8981", "91": "\u592a", "92": "\u6cea", "93": "\u5979", "94": "\u5e0c\u671b", "95": "\u4e00", "96": "\u5e74", "97": "\u5f97", "98": "\u7b49", "99": "\u8fc7", "100": "\u6700", "101": "\u4e0d\u80fd", "102": "\u8fd9\u6837", "103": "\u53e3\u7f69", "104": "\uff08", "105": "\uff5e", "106": "\u518d", "107": "\uff1b", "108": "\u5df2\u7ecf", "109": "-", "110": "\uff09", "111": "\u611f\u89c9", "112": "\u624d", "113": "\u559c\u6b22", "114": "\u6708", "115": "\u4e00\u5b9a", "116": "\u5927", "117": "\u4e2d", "118": "\u89c9\u5f97", "119": "\u4f46", "120": "\u7231", "121": "\u524d\u7ebf", "122": "\u4e00\u76f4", "123": "\u8ddf", "124": "\u90a3\u4e48", "125": "\u90a3", "126": "\u771f\u662f", "127": "\u56e0\u4e3a", "128": "\u770b\u5230", "129": "t", "130": "cn", "131": "\u4ece", "132": "http", "133": "\u4e0e", "134": "~", "135": "\u4e3a\u4ec0\u4e48", "136": "\u613f", "137": "\u4e48", "138": "\u786e\u8bca", "139": "\u7528", "140": "\u5bb3\u6015", "141": "\u91cc", "142": "1", "143": "\u51a0\u72b6\u75c5\u6bd2", "144": "\u4f8b", "145": "\u8c01", "146": "\u5c0f", "147": "\u8fd8\u6709", "148": "!", "149": "\u5411", "150": "\u4eec", "151": "\u522b\u4eba", "152": "\u6b7b", "153": "\u540e", "154": "\u4e8b", "155": "\u5f00\u59cb", "156": "\u4e0d\u4f1a", "157": "\u2014", "158": "\u4ed6\u4eec", "159": "\u4e2d\u56fd", "160": "\u5065\u5eb7", "161": "\u800c", "162": "\u53d1\u73b0", "163": "\u5566", "164": "\u8d77\u6765", "165": "\u8d70", "166": "\u5f00\u5fc3", "167": "\u4e00\u5929", "168": "\u75c5\u4f8b", "169": "\u4f46\u662f", "170": ",", "171": "\u8fd9\u79cd", "172": "\u4e1c\u897f", "173": "\u5de5\u4f5c", "174": "\u4e0b", "175": "\u5374", "176": "\u4e70", "177": "\u66f4", "178": "\u903c", "179": "\u771f", "180": "\u51fa\u6765", "181": "\u65f6\u95f4", "182": "\u300b", "183": "\u300a", "184": "_", "185": "\u00b7", "186": "\u8f9b\u82e6", "187": "\u5c45\u7136", "188": "\u4fdd\u62a4", "189": "\u65e5", "190": "\u5982\u679c", "191": "\u6bcf\u5929", "192": "\u65f6", "193": "\u7136\u540e", "194": "\u5b8c", "195": "\u53ef\u6015", "196": "\u4e00\u6837", "197": "\u751f\u6d3b", "198": "\u6240\u6709", "199": "\u4e00\u4e0b", "200": "\u53ea", "201": "\u4e8b\u60c5", "202": "\u533b\u9662", "203": "\u5fc3\u60c5", "204": "\u4e0d\u60f3", "205": "\u670b\u53cb", "206": "\u8fd9\u573a", "207": "\u6bd4", "208": "\u5988", "209": "2", "210": "\u3010", "211": "\u50cf", "212": "\u597d\u597d", "213": "\u53ef", "214": "\u7761", "215": "\u5b83", "216": "\"", "217": "\u5168\u56fd", "218": "\u5feb", "219": "\u6234", "220": "\u665a\u4e0a", "221": "\u4ee5\u540e", "222": "\u5f88\u591a", "223": "\u5e76", "224": "\u611f\u67d3", "225": "\u6700\u8fd1", "226": "\u6253\u8d62", "227": "\u3011", "228": "\u7ed3\u679c", "229": "\u8bf7", "230": "\u5f53", "231": "3", "232": "\u70b9", "233": "\u5fae\u535a", "234": "\u7a81\u7136", "235": "\u627e", "236": "\u4e16\u754c", "237": "\u53ef\u80fd", "238": "\u660e\u5929", "239": "\u4e00\u6b21", "240": "\u6240\u4ee5", "241": "\u5e94\u8be5", "242": "\u7adf\u7136", "243": "\u4e0d\u597d", "244": "\u53ef\u662f", "245": "\u53ea\u662f", "246": "\u90a3\u4e2a", "247": "\u5730", "248": "\u54ed", "249": "\u9700\u8981", "250": "\u7761\u89c9", "251": "\u5929", "252": "\u7279\u522b", "253": "\u50bb", "254": "\u6253", "255": "\u533b\u751f", "256": "\u505a\u597d", "257": "\u4e00\u70b9", "258": "\u624b\u673a", "259": "\u9632\u62a4", "260": "\u4e00\u7ebf", "261": "\u6700\u540e", "262": "\u53eb", "263": "\u5e26", "264": "...", "265": "\u8be5", "266": "\u53ea\u6709", "267": "\u5730\u65b9", "268": "\u5b9d\u5b9d", "269": "\u51fa\u95e8", "270": "\u56de\u5bb6", "271": "\u75c5\u6bd2", "272": "\u554a\u554a\u554a", "273": "\u95ee\u9898", "274": "\u8fd9\u4e9b", "275": "\u5fc3\u91cc", "276": "\u6709\u4eba", "277": "\u5c06", "278": "\u5176\u5b9e", "279": "\u90a3\u4e9b", "280": "\u56de\u6765", "281": "\u65b0", "282": "\u4e24\u4e2a", "283": "##", "284": "\u7ec8\u4e8e", "285": "\u5c0f\u65f6", "286": "\u5b69\u5b50", "287": "\u542c", "288": "\u8d5e", "289": "(", "290": "\u8fd8\u8981", "291": "\u4ee5\u4e3a", "292": "\u8fc7\u53bb", "293": "\u95ee", "294": ")", "295": "\u51fa", "296": "\u8dd1", "297": "\u6709\u70b9", "298": "\u60ca\u6050", "299": "\u4e00\u5207", "300": "\u4e3a\u4e86", "301": "\u52aa\u529b", "302": "\u5df2", "303": "\u5565", "304": "\u867d\u7136", "305": "\u54c8\u54c8\u54c8", "306": "\u9632\u75ab", "307": "\u5404\u79cd", "308": "\u603b\u662f", "309": "\u6bcf\u6b21", "310": "\u6ce8\u610f", "311": "\u522b", "312": "\u91cd\u8981", "313": "\u8ba8\u538c", "314": "\u5e78\u798f", "315": "\u611f\u8c22", "316": "\u94b1", "317": "10", "318": "\u5fae\u7b11", "319": "\u53f7", "320": "\u8fd9\u662f", "321": "\u662f\u4e0d\u662f", "322": "\u524d", "323": "\u65e9\u4e0a", "324": "\u5988\u5988", "325": "\u6218", "326": "\u76f8\u4fe1", "327": "\u62ff", "328": "\u4ee5", "329": "\u6216", "330": "\u5c81", "331": "\u51fa\u73b0", "332": "\u8fde", "333": "\u72d7", "334": "\u6050\u6016", "335": "4", "336": "5", "337": "\u60c5\u51b5", "338": "\u6709\u4e9b", "339": "\u9632\u63a7", "340": "\u5199", "341": "\u7b2c\u4e00\u6b21", "342": "\u54e6", "343": "\u6628\u5929", "344": "\u665a\u5b89", "345": "\u6c38\u8fdc", "346": "\u770b\u770b", "347": "\u60a3\u8005", "348": "\u539f\u6765", "349": "\u4e00\u79cd", "350": "good", "351": "\u9694\u79bb", "352": "\u6211\u8981", "353": "\u76f4\u63a5", "354": "\u73a9", "355": "\u6015", "356": "\u5230\u5e95", "357": "\u8fd9\u6b21", "358": "\u7b80\u76f4", "359": "\u51e0\u5929", "360": "\u4e0d\u5230", "361": "\u5929\u5929", "362": "\u611f\u5192", "363": "\u56fd\u5bb6", "364": "\u544a\u8bc9", "365": "\u5b66\u6821", "366": "\u4e0a\u73ed", "367": "\u653f\u5e9c", "368": "\u5c01\u57ce", "369": "\u4e00\u4e9b", "370": "\u4e4b\u524d", "371": "\u6e56\u5317", "372": "\u4e4b", "373": "\u8bdd", "374": "\u8eab\u8fb9", "375": "\u53ea\u80fd", "376": "\u8c22\u8c22", "377": "\u4e0d\u8fc7", "378": "\u561b", "379": "\u4eba\u751f", "380": "\u6218\u6597", "381": "\u6bcf", "382": "6", "383": "\u516c\u53f8", "384": "\u4e4b\u540e", "385": "\u4e8e", "386": "\u5317\u4eac", "387": "11", "388": "\u5c3c\u739b", "389": "\u5141\u60b2", "390": "\u591a\u5c11", "391": "\u4eba\u6c11", "392": "\u597d\u50cf", "393": "\u975e\u5e38", "394": "\u5bb6", "395": "\u4e0a\u6d77", "396": "\u8279", "397": "\u60b2\u4f24", "398": "\u8001\u5e08", "399": "\u6050\u60e7", "400": "\u6240\u6709\u4eba", "401": "\u7761\u4e0d\u7740", "402": "\u51c6\u5907", "403": "\u8d8a\u6765\u8d8a", "404": "\u62cd", "405": "\u8521", "406": "\u6bcf\u4e2a", "407": "\u60f3\u8981", "408": "\u91ce\u5473", "409": "\u4ee5\u524d", "410": "\u7535\u8bdd", "411": "\u65e0", "412": "\u8bb0\u5f97", "413": "\u53ef\u7231", "414": "\u51e0\u4e2a", "415": "\u7b11", "416": "\u4e00\u53e5", "417": "\u770b\u7740", "418": "\u633a", "419": "\u53d1\u751f", "420": "\u5feb\u9012", "421": "\u8bf4\u8bdd", "422": "\u89c6\u9891", "423": "\u8dea", "424": "TFBOYS", "425": "\u7d2f", "426": "\u5bb6\u91cc", "427": "\u8001", "428": "\u5f90\u5764", "429": "\u4e0d\u4e86", "430": "\u4e25\u91cd", "431": "\u800c\u4e14", "432": "\u7ad9", "433": "\u65e5\u5b50", "434": "\u5e73\u5e73\u5b89\u5b89", "435": "\u00a0", "436": "\u7ee7\u7eed", "437": "\u5403\u996d", "438": "\u5fc5\u987b", "439": "9", "440": "\u8d8a", "441": "12", "442": "\u5c11\u5e74", "443": "\u603b", "444": "\u624d\u80fd", "445": "\u65b0\u95fb", "446": "\u5367\u69fd", "447": "\u4fe1\u606f", "448": "\u5bb6\u4eba", "449": "\u9047\u5230", "450": "\u672c\u6765", "451": "\u7684\u8bdd", "452": "\u51fa\u53bb", "453": "\u6210", "454": "\u6b7b\u4ea1", "455": "\u61c2", "456": "\u751f\u6c14", "457": "\u82f1\u96c4", "458": "\u63aa\u65bd", "459": "7", "460": "\u53d1", "461": "\u4f1f\u5927", "462": "\u7535\u5f71", "463": "\u6574\u4e2a", "464": "\u5f00", "465": "\u8fd9\u91cc", "466": "\u9009\u62e9", "467": "\u4f5c\u63d6", "468": "\u641e", "469": "\u9ad8", "470": "\u5c0f\u5fc3", "471": "\u8fdb\u884c", "472": "\u54ea", "473": "\u62f3\u5934", "474": "\u65e0\u6cd5", "475": "\u96be\u8fc7", "476": "\u6210\u4e3a", "477": "\u4e2a\u4eba", "478": "8", "479": "\u4e0d\u7528", "480": "\u76ee\u524d", "481": "\u751f\u547d", "482": "\u652f\u6301", "483": "\u6050\u614c", "484": "\u521a", "485": "\u5176\u4ed6", "486": "\u773c\u775b", "487": "\u5982\u6b64", "488": "\u9760", "489": "\u75af", "490": "\u957f", "491": "\u6700\u597d", "492": "\u5bb9\u6613", "493": "\u6628\u665a", "494": "\u8def", "495": "\u4f5c\u4e3a", "496": "\u53ca", "497": "\u54d2", "498": "\u7f8e\u597d", "499": "20", "500": "\u4e00\u5e74", "501": "\u5750", "502": "\u4e0d\u6562", "503": "\u966a", "504": "\u660e\u660e", "505": "\u68a6", "506": "\u793e\u4f1a", "507": "\u5feb\u4e50", "508": "\u4e0d\u884c", "509": "\u56de", "510": "\u5fd9", "511": "\u5413", "512": "\u9189", "513": "\u559d", "514": "\u6839\u672c", "515": "\u5982\u4f55", "516": "\u6731\u4e00\u9f99", "517": "\u5b8c\u5168", "518": "\u54c8\u54c8", "519": "\u4f20\u64ad", "520": "\u8863\u670d", "521": "\u89c1", "522": "\u53d8\u6210", "523": "X", "524": "\u7269\u8d44", "525": "\u9a82", "526": "\u5bf9\u4e8e", "527": "\u597d\u591a", "528": "\u738b\u4e00\u535a", "529": "\u9886\u5bfc", "530": "\u518d\u4e5f", "531": "\u7531", "532": "\u591f", "533": "24", "534": "\u521a\u521a", "535": "\u4e0b\u5348", "536": "\u54ce", "537": "\u60f3\u5230", "538": "\u5e72", "539": "\u5931\u671b", "540": "\u57ce\u5e02", "541": "\u5973\u4eba", "542": "\u5410", "543": "\u8f6c\u53d1", "544": "\u60f3\u60f3", "545": "\u6837\u5b50", "546": "\u8fc7\u5e74", "547": "\u53d1\u5c55", "548": "\u4efb\u4f55", "549": "\u8eab\u4f53", "550": "\u9001", "551": "\u540c\u65f6", "552": "\u75bc", "553": "\ud83d\ude02", "554": "\u6d88\u606f", "555": "DAYTOY", "556": "\u55b5", "557": "\u795d\u798f", "558": "\u5185", "559": "\u6076\u5fc3", "560": "\u8d77", "561": "\u53ea\u8981", "562": "\u5f71\u54cd", "563": "\u6389", "564": "17", "565": "\u6253\u7535\u8bdd", "566": "\u5c31\u8981", "567": "\u54ea\u91cc", "568": "\u82b1", "569": "\u7b80\u5355", "570": "\u7396", "571": "\u63a5\u53d7", "572": "\u6216\u8005", "573": "\u63a7\u5236", "574": "\u5de5\u4f5c\u8005", "575": "\u800c\u662f", "576": "\u96be\u9053", "577": "\u6240", "578": "\u7167\u7247", "579": "\u672c", "580": "\u56e2\u8096\u6218", "581": "\u672a\u6765", "582": "\u8981\u6c42", "583": "\u600e\u4e48\u529e", "584": "\u5669\u68a6", "585": "\u7537\u4eba", "586": "\u96be\u53d7", "587": "\u8d85\u7ea7", "588": "\u51ac\u5929", "589": "\u5728\u5bb6", "590": "\u7167\u987e", "591": "\u5176", "592": "\u80fd\u529b", "593": "\u4eba\u5bb6", "594": "UNIQ", "595": "\u5c11", "596": "\u4eca\u665a", "597": "\u5de5\u4f5c\u5ba4", "598": "\u540c\u5b66", "599": "\u4eca\u5e74", "600": "\u4e0b\u53bb", "601": "\u7ed3\u675f", "602": "\u795d", "603": "\u4e22", "604": "\u5185\u5fc3", "605": "\u5b89\u5168", "606": "\u624b", "607": "\u91cd\u89c6", "608": "\u5b66\u4e60", "609": "\u4e0d\u591f", "610": "\u5927\u5b66", "611": "\u53d1\u70ed", "612": "\u5e2e", "613": "\u5f97\u5230", "614": "\u5c31\u7b97", "615": "\u5206\u949f", "616": "\u4e2d\u5348", "617": "\u51b3\u5b9a", "618": "\u8005", "619": "\u7b2c\u4e00", "620": "\u4e0d\u8ba9", "621": "\u5413\u6b7b", "622": "\u5148", "623": "\u4f4f", "624": "\u8fc7\u6765", "625": "\u79bb\u5f00", "626": "\u6012", "627": "\u660e\u767d", "628": "\u6709\u65f6\u5019", "629": "\u8001\u5b50", "630": "\u5413\u4eba", "631": "\u80fd\u591f", "632": "15", "633": "\u9b3c", "634": "\u7f8e\u56fd", "635": "\u8d76\u7d27", "636": "\u4e5f\u8bb8", "637": "\u62c5\u5fc3", "638": "\u5931\u7720", "639": "\u4e0d\u7ba1", "640": "\u91cc\u9762", "641": "\u65e9", "642": "\u770b\u89c1", "643": "\u7a7f", "644": "\u9762\u5bf9", "645": "\u6b63\u5e38", "646": "\u7814\u7a76", "647": "\u529e\u6cd5", "648": "\u4f5c\u4e1a", "649": "\u771f\u5fc3", "650": "\u751f\u65e5\u5feb\u4e50", "651": "\u7537", "652": "\u5e72\u561b", "653": "\u7406\u89e3", "654": "\u5dee", "655": "\u8138", "656": "\u90a3\u79cd", "657": "\u7136\u800c", "658": "\u9664\u4e86", "659": "\u5f53\u65f6", "660": "\u62dc\u62dc", "661": "\u4ee5\u53ca", "662": "\u662f\u56e0\u4e3a", "663": "\u5b9e\u5728", "664": "\u54b1\u4eec", "665": "\u4e00\u53ea", "666": "\u4e24\u5929", "667": "\u6211\u4f1a", "668": "\u5475\u5475", "669": "\u901a\u8fc7", "670": "\u4e00\u4ef6", "671": "\u533b\u7597", "672": "\u8ba4\u8bc6", "673": "\u644a\u624b", "674": "\u5509", "675": "\u8bb2", "676": "\u652f\u63f4", "677": "\u9632\u5fa1\u6218", "678": "SARS", "679": "\u4eba\u5458", "680": "\u751f\u65e5", "681": "\u75c5\u4eba", "682": "\u6700\u5927", "683": "\u80af\u5b9a", "684": "\u70ed", "685": "\u4e3b\u8981", "686": "\u6570\u636e", "687": "\u5b57", "688": "\u653e", "689": "\u56de\u5230", "690": "\u5982", "691": "\u7ec4\u7ec7", "692": "\u5b66\u751f", "693": "\u8f66", "694": "\u5206", "695": "\u5168\u90e8", "696": "\u533b\u62a4", "697": "\u611f\u53d7", "698": "\u6362", "699": "2020", "700": "\u6210\u529f", "701": "\u5b8c\u6210", "702": "\u6e29\u6696", "703": "\u5176\u4e2d", "704": "\u997f", "705": "\u54e5\u54e5", "706": "\u4e0b\u96e8", "707": "\u653e\u5f03", "708": "\u53d1\u5e03", "709": "\u5f04", "710": "\u65b0\u589e", "711": "\u8d85\u8bdd", "712": "\u5bf9\u4e0d\u8d77", "713": "\u5b9d\u8d1d", "714": "\u6545\u4e8b", "715": "\u7ecf\u5386", "716": "\u613f\u610f", "717": "\u751a\u81f3", "718": "\u6c42", "719": "\u6625\u8282", "720": "\u75c5", "721": "\u53ef\u601c", "722": "\u975e\u5178", "723": "\u81ea\u6211", "724": "\u6c14\u6b7b\u6211\u4e86", "725": "\u575a\u6301", "726": "\u4f20\u67d3", "727": "\u949f\u5357\u5c71", "728": "\u6bd4\u8f83", "729": "\u7761\u7740", "730": "\u6cbb\u7597", "731": "\u65b9\u5f0f", "732": "\ud83d\ude2d", "733": "\u60c5\u7eea", "734": "\u8bc4\u8bba", "735": "\u6e56\u5317\u7701", "736": "\u4e4b\u95f4", "737": "\u8868\u793a", "738": "\u60a8", "739": "\u5b58\u5728", "740": "\u5973", "741": "\u51b7", "742": "\u542c\u5230", "743": "\u548b", "744": "\u8003\u8bd5", "745": "\u540e\u6765", "746": "\u6c14", "747": "\u80fd\u91cf", "748": "\u9884\u9632", "749": "\u59d0\u59d0", "750": "\u6765\u81ea", "751": "\u4f7f\u7528", "752": "\u513f\u5b50", "753": "\u8212\u670d", "754": "\u4e0d\u540c", "755": "\u6025", "756": "\u60f3\u8d77", "757": "\u6ce8\u610f\u5b89\u5168", "758": "\u771f\u6b63", "759": "\u6d3b\u52a8", "760": "\u4f24\u5fc3", "761": "\u4e00\u7ea7", "762": "\u54c8\u54c8\u54c8\u54c8", "763": "\u6297\u51fb", "764": "\u7238\u7238", "765": "\u7236\u6bcd", "766": "\u8d77\u5e8a", "767": "\u4f11\u606f", "768": "\u75c7\u72b6", "769": "\u4e0d\u9519", "770": "\u773c\u6cea", "771": "\u65e9\u5b89", "772": "\u66fe\u7ecf", "773": "\u6709\u6ca1\u6709", "774": "\u611f\u52a8", "775": "\u540c", "776": "\u5efa\u8bae", "777": "\u6b63", "778": "\u7231\u60c5", "779": "\u5feb\u70b9", "780": "\u4ed6\u5988\u7684", "781": "\u5e02\u573a", "782": "\u54cd\u5e94", "783": "\ufe0f", "784": "\u4e00\u6761", "785": "\u63d0\u9192", "786": "\u6cb3\u5357", "787": "\u4e13\u5bb6", "788": "\u91ce\u751f\u52a8\u7269", "789": "\u52e4\u6d17\u624b", "790": "\u5fd8", "791": "\u8001\u516c", "792": "\u9192\u6765", "793": "\u6c14\u6b7b", "794": "\u5fc3\u75bc", "795": "\u58f0\u97f3", "796": "\u4ed8\u51fa", "797": "\u6162\u6162", "798": "\u5b89\u5fbd", "799": "\u62b1\u62b1", "800": "\u597d\u5403", "801": "\u63a5\u89e6", "802": "\u539f\u56e0", "803": "\u90a3\u6837", "804": "\u5173\u4e8e", "805": "\u8def\u4e0a", "806": "\u4e00\u8fb9", "807": "\u5ba3\u4f20", "808": "\u7ed3\u5a5a", "809": "\u4e00\u4e2a\u6708", "810": "\u6211\u5bb6", "811": "\u540d\u5b57", "812": "\u5237", "813": "\u53d8", "814": "\u597d\u770b", "815": "30", "816": "\u5355\u4f4d", "817": "\u4e00\u822c", "818": "\u73cd\u60dc", "819": "\u592a\u9633", "820": "\u786e\u5b9e", "821": "\u7535\u8111", "822": "\u5fd8\u8bb0", "823": "\u8d1f\u8d23", "824": "\u5173\u7cfb", "825": "\u6625\u665a", "826": "\u533b\u52a1\u4eba\u5458", "827": "\u54b3\u55fd", "828": "\u7ba1\u7406", "829": "\u8fd8\u597d", "830": "\u53ca\u65f6", "831": "\u96be", "832": "\u751f\u75c5", "833": "\u56fd\u5185", "834": "\u4e0d\u518d", "835": "\u72b6\u6001", "836": "\u4e0b\u6765", "837": "\u5e2e\u52a9", "838": "\u679c\u7136", "839": "\u670d\u52a1", "840": "\u6539\u53d8", "841": "\u70e6", "842": "\u4e0d\u77e5", "843": "\u6253\u5f00", "844": "\u4e00\u573a", "845": "\u5173\u6ce8", "846": "\u5bbf\u820d", "847": "\u75db\u82e6", "848": "\u600e\u6837", "849": "\u6536\u5230", "850": "\u6709\u4e2a", "851": "\u6b63\u5728", "852": "\u7279", "853": "\u5934\u53d1", "854": "\u7ea6", "855": "\u54ea\u4e2a", "856": "\u4f01\u4e1a", "857": "\u56fe", "858": "\u5148\u751f", "859": "\u4e13\u4e1a", "860": "\u732b", "861": "\u76f8\u5173", "862": "\u9ed1", "863": "\u8f6c", "864": "\u4f30\u8ba1", "865": "\u8fdb", "866": "\u5356", "867": "\u9879\u76ee", "868": "\u5012", "869": "\u9519", "870": "\u996d", "871": "\u8981\u662f", "872": "\u540c\u4e8b", "873": "\u545c\u545c", "874": "\u4eba\u7c7b", "875": "\u8ba4\u771f", "876": "\u671f\u5f85", "877": "\u7cfb\u7edf", "878": "\u56de\u53bb", "879": "\u9192", "880": "\u751f", "881": "\u7cbe\u795e", "882": "\u8eab\u4e0a", "883": "\u4f7f", "884": "\u7d27\u5f20", "885": "\u7206\u53d1", "886": "\u5916\u9762", "887": "\u5c0f\u65f6\u5019", "888": "\u70e6\u6b7b", "889": "\u627e\u5230", "890": "\u7edd\u5bf9", "891": "\u4e86\u89e3", "892": "\u6ca1\u60f3\u5230", "893": "\u57fa\u672c", "894": "\u671f\u95f4", "895": "\u5d29\u6e83", "896": "\u4e45", "897": "\u6765\u8bf4", "898": "\u6559\u80b2", "899": "\u503c\u5f97", "900": "\u540d", "901": "\u9632\u8303", "902": "\u4e0b\u73ed", "903": "\u62a5\u544a", "904": "\u62b1", "905": "18", "906": "\u574f", "907": "\u5f80", "908": "\u62e5\u6709", "909": "\u5783\u573e", "910": "\u55ef", "911": "\u5395\u6240", "912": "\u66fe", "913": "\u884c\u4e3a", "914": "\u611f\u60c5", "915": "\u8fdb\u5165", "916": "\u6709\u6548", "917": "\u633a\u4f4f", "918": "\u4e00\u7fa4", "919": "\u59d4\u5c48", "920": "\u5b66\u4f1a", "921": "\u662f\u5426", "922": "22", "923": "\u4e8b\u4ef6", "924": "\u670b\u53cb\u5708", "925": "\u4ece\u6765", "926": "\u8054\u7cfb", "927": "\u65b9\u6cd5", "928": "\u81f3", "929": "\u9996\u4f8b", "930": "\u5c71\u4e1c", "931": "\u6c34", "932": "\u738b\u4fca\u51ef", "933": "\u771f\u60f3", "934": "\u6280\u672f", "935": "\u5927\u6982", "936": "\u957f\u5927", "937": "\u5b98\u65b9", "938": "\u53cc\u5341", "939": "\u77ac\u95f4", "940": "\u6ca1\u4e8b", "941": "\u96ea", "942": "\u9002\u5408", "943": "\u5389\u5bb3", "944": "+", "945": "\u62c9", "946": "\u66f4\u597d", "947": "\u53cd\u5e94", "948": "\u4e2d\u5fc3", "949": "\u4f20\u4eba", "950": "\u6d3b", "951": "\u63d0\u4f9b", "952": "\u4e09\u4e2a", "953": "\u4e0a\u8bfe", "954": "\u4e3a\u5565", "955": "\u7ec4\u5408", "956": "\u8eba", "957": "23", "958": "\u538b\u529b", "959": "\u5bf9\u65b9", "960": "\u75db", "961": "\u8282\u594f", "962": "\u5934", "963": "\u542c\u8bf4", "964": "\u66f4\u65b0", "965": "\u4e0d\u5982", "966": "\u52a0\u73ed", "967": "\u70e6\u8e81", "968": "\u778e", "969": "\u534a\u591c", "970": "\u6839\u636e", "971": "\u611f\u5230", "972": "\u5206\u4eab", "973": "\u9762\u524d", "974": "\u5730\u94c1", "975": "\u62a5\u9053", "976": "\u53d6\u6d88", "977": "\u5973\u751f", "978": "\u5904\u7406", "979": "\u8111\u5b50", "980": "\u97e9\u56fd", "981": "\u6e05\u695a", "982": "\u7238\u5988", "983": "\u4e00\u5f20", "984": "\u4eba\u4eec", "985": "\u6211\u5988", "986": "\u542f\u52a8", "987": "\u8bdd\u7b52", "988": "\u673a\u4f1a", "989": "\u966a\u4f34", "990": "\u4e60\u60ef", "991": "\u4f24\u5bb3", "992": "\u91cd\u70b9", "993": "\u5931\u53bb", "994": "\u65e5\u672c", "995": "21", "996": "\u4e09", "997": "\u884c", "998": "\u534a\u4e2a", "999": "14", "1000": "\u6b66\u6c49\u5e02", "1001": "\u4e0d\u505c", "1002": "\u610f\u8bc6", "1003": "\u81ea\u7136", "1004": "\u8096\u6218", "1005": "\u5927\u7237", "1006": "\u5404\u4f4d", "1007": "\u9a82\u4eba", "1008": "\u4e8c", "1009": "\u5e7f\u4e1c", "1010": "\u4e8e\u662f", "1011": "\u5de5\u8d44", "1012": "\u65c1\u8fb9", "1013": "\u4ed6\u4eba", "1014": "\u5e7f\u5dde", "1015": "\u53d1\u70e7", "1016": "\u5f52\u6765", "1017": "\u786e\u5b9a", "1018": "\u4e00\u5806", "1019": "\u4e0b\u96ea", "1020": "\u601d\u8003", "1021": "\u9ad8\u5174", "1022": "\u4e0d\u65ad", "1023": "\u53d8\u5f97", "1024": "\u9999\u6e2f", "1025": "\u529b\u91cf", "1026": "\u4e00\u4f4d", "1027": "\u4e01\u9999", "1028": "\u53e6", "1029": "\u56fd\u9645", "1030": "\u68c0\u67e5", "1031": "\u8981\u6b7b", "1032": "\u8bfe", "1033": "\u5dee\u70b9", "1034": "\u5373\u4f7f", "1035": "\u5404", "1036": "\u5bb6\u5ead", "1037": "\u529e\u516c\u5ba4", "1038": "\u725b", "1039": "\u597d\u4e45", "1040": "\u8870", "1041": "\u901a\u77e5", "1042": "\u2192", "1043": "\u75be\u75c5", "1044": "\u5ea6\u8fc7", "1045": "\u7834", "1046": "\u5927\u534a\u591c", "1047": "\u62d2\u7edd", "1048": "\u533a", "1049": "\u4fdd\u6301", "1050": "\u81ea", "1051": "\u8282\u76ee", "1052": "\u552f\u4e00", "1053": "\u751f\u4ea7", "1054": "\u8ba4\u4e3a", "1055": "\u6bd5\u4e1a", "1056": "\u4ee3\u8868", "1057": "\u591a\u4e48", "1058": "\u602a", "1059": "\u4e00\u4f1a", "1060": "\u5446", "1061": "\u534e\u6668", "1062": "\u8d39\u89e3", "1063": "\u5730\u533a", "1064": "\u4f4e", "1065": "\u56e0", "1066": "\u54fc", "1067": "\u7b2c\u4e00\u7ebf", "1068": "\u9c9c\u82b1", "1069": "\u5b87", "1070": "\u6eda", "1071": "\u73b0\u5b9e", "1072": "\u8bf4\u597d", "1073": "\u90e8\u5206", "1074": "\u6587\u5316", "1075": "\u666e\u901a", "1076": "\u6293", "1077": "\u6b21", "1078": "\u4e00\u751f", "1079": "\u8fc7\u7a0b", "1080": "\u8089", "1081": "\u8ba1\u5212", "1082": "\u70ca", "1083": "\u4e8b\u513f", "1084": "\u79bb", "1085": "\u70b8", "1086": "100", "1087": "TM", "1088": "\u5b66", "1089": "\u5219", "1090": "\u5e73\u65f6", "1091": "\u52a0", "1092": "\u4e4b\u4e00", "1093": "\u4e00\u8def", "1094": "\u771f\u5b9e", "1095": "\u67d0", "1096": "\u9633\u5149", "1097": "\u522b\u7684", "1098": "\u521a\u624d", "1099": "\u7f51\u7edc", "1100": "\u6562", "1101": "\u963f", "1102": "\u5f53\u5e74", "1103": "\u597d\u4e0d\u5bb9\u6613", "1104": "\u88c5", "1105": "\u9047\u89c1", "1106": "\u5bfc\u81f4", "1107": "\u5173\u952e", "1108": "\u53c2\u52a0", "1109": "\u90e8\u95e8", "1110": "\u56de\u590d", "1111": "\u90a3\u91cc", "1112": "\u7b97", "1113": "\u5143", "1114": "\u5973\u5b69", "1115": "25", "1116": "\u4e0d\u7136", "1117": "\u4f9d\u7136", "1118": "\u5c5e\u4e8e", "1119": "yu", "1120": "\u4e00\u8f88\u5b50", "1121": "\u4e00\u4efd", "1122": "\u4ea7\u54c1", "1123": "\u56e0\u6b64", "1124": "\u7535\u89c6\u5267", "1125": "\u6ca1\u4ec0\u4e48", "1126": "\u767d\u8863\u5929\u4f7f", "1127": "\u5fc3\u4e2d", "1128": "\u7b2c", "1129": "\u8001\u677f", "1130": "\u641c", "1131": "\u5305\u62ec", "1132": "\u6709\u5173", "1133": "\u4e66", "1134": "\u3000", "1135": "\u4e07", "1136": "\u505a\u5230", "1137": "\u60f3\u8c61", "1138": "\u4eac\u4e1c", "1139": "\u6309", "1140": "\u4e00\u5927\u65e9", "1141": "\u5b89\u6170", "1142": "\u6bd5\u7adf", "1143": "\u6700\u7ec8", "1144": "\u89e3\u51b3", "1145": "\u5b64\u72ec", "1146": "\u53cd\u6b63", "1147": "\u98de\u673a", "1148": "\u79d2", "1149": "\u4e0d\u4ec5", "1150": "\u5065\u5065\u5eb7\u5eb7", "1151": "\u4e0d\u723d", "1152": "\u563b\u563b", "1153": "\u7531\u4e8e", "1154": "\u9a6c\u4e0a", "1155": "......", "1156": "\u5173\u5fc3", "1157": "\u5c24\u5176", "1158": "\u56fe\u7247", "1159": "\u6700\u65b0", "1160": "\u81f3\u5c11", "1161": "\u65e9\u70b9", "1162": "\u6e38\u620f", "1163": "\u518d\u6b21", "1164": "\u65c5\u6e38", "1165": "\ud83d\ude4f", "1166": "\u6d17", "1167": "doge", "1168": "\u800c\u5df2", "1169": "\u4f4d\u7f6e", "1170": "\u5185\u5bb9", "1171": "\u975e", "1172": "\u5404\u5730", "1173": "\u8868\u73b0", "1174": "\u767d\u6761", "1175": "\u5386\u53f2", "1176": "\u5979\u4eec", "1177": "\u813e\u6c14", "1178": "\u73af\u5883", "1179": "\u516c\u4ea4", "1180": "\u5a92\u4f53", "1181": "\u8d31", "1182": "13", "1183": "\u4f3c\u7684", "1184": "\u603b\u6709", "1185": "\u68a6\u60f3", "1186": "\u8bb8\u591a", "1187": "\u5e26\u6765", "1188": "\u6548\u679c", "1189": "\u5fc5\u8981", "1190": "\u80d6", "1191": "\u5c11\u5973", "1192": "\u6d88\u5931", "1193": "\u817f", "1194": "\u5931\u8d25", "1195": "\u91cd\u65b0", "1196": "\u6709\u79cd", "1197": "\u540e\u9762", "1198": "\u89c1\u5230", "1199": "\u7ecf\u5e38", "1200": "\ud83d\ude21", "1201": "\u65f6\u4ee3", "1202": "\u558a", "1203": "\u660e\u663e", "1204": "\u672a", "1205": "\u95f9", "1206": "\u7f8e\u4e3d", "1207": "\u95e8", "1208": "\u73b0\u573a", "1209": "\u63d0\u524d", "1210": "\u5f00\u8f66", "1211": "\u51cf\u5c11", "1212": "\u7701", "1213": "\u6613", "1214": "\u5916\u51fa", "1215": "\u603b\u4f1a", "1216": "|", "1217": "\u7ffb", "1218": "\u79d1\u5b66", "1219": "\u4fe9", "1220": "\u9662\u58eb", "1221": "\u5e74\u8f7b", "1222": "\u300e", "1223": "\u540e\u6094", "1224": "\u9ebb\u75f9", "1225": "\u5e8a\u4e0a", "1226": "\u7c73", "1227": "\u8bbe\u8ba1", "1228": "\u5e76\u4e14", "1229": "\u4e9b", "1230": "\u809a\u5b50", "1231": "\u64cd", "1232": "\u53d7", "1233": "\u7279\u6b8a", "1234": "\u8fdc", "1235": "\u300f", "1236": "\u53f8\u673a", "1237": "\u60f3\u7740", "1238": "\u5973\u513f", "1239": "\u8003\u8651", "1240": "\u62a5", "1241": "\u8001\u5a18", "1242": "\u5f7b\u5e95", "1243": "\u8fd1", "1244": "\u68a6\u89c1", "1245": "\u6218\u6218\u5162\u5162", "1246": "\u7a7a\u95f4", "1247": "\u753b", "1248": "\u610f\u601d", "1249": "'", "1250": "\u5168", "1251": "\u5747", "1252": "\u7b97\u4e86", "1253": "\u73ed", "1254": "\u5371\u9669", "1255": "\u5145\u6ee1", "1256": "\u5e78\u8fd0", "1257": "\u5b9e\u73b0", "1258": "\u89e3\u91ca", "1259": "\u65e0\u804a", "1260": "\u5fcd", "1261": "\u5988\u86cb", "1262": "\u5f88\u5927", "1263": "\u6293\u72c2", "1264": "\u79f0", "1265": "\u8349\u6ce5\u9a6c", "1266": "\u610f\u4e49", "1267": "\u8fdb\u53bb", "1268": "\u8bb0\u8005", "1269": "\u4e00\u770b", "1270": "\u96e8", "1271": "\u5de6\u53f3", "1272": "16", "1273": "\u6216\u8bb8", "1274": "\u5634", "1275": "\u5b9e\u65f6", "1276": "\u4f20\u67d3\u75c5", "1277": "\u5f85", "1278": "\u4fbf", "1279": "\u8d44\u6e90", "1280": "\u5c0f\u4f19\u4f34", "1281": "\u770b\u6765", "1282": "\u7ecf\u6d4e", "1283": "\u7591\u4f3c", "1284": "\u4f17\u5fd7\u6210\u57ce", "1285": "\u6210\u957f", "1286": "....", "1287": "\u591a\u5e74", "1288": "\u56de\u5fc6", "1289": "\u8df3", "1290": "\u91cd\u5e86", "1291": "\u5fc3\u7406", "1292": "\u5343\u4e07", "1293": "\u8001\u5a46", "1294": "\u5b8c\u7f8e", "1295": "\u5976\u5976", "1296": "\u8ddf\u7740", "1297": "\u9ebb\u70e6", "1298": "\u4e00\u904d", "1299": "\u6c42\u6c42", "1300": "\u9053", "1301": "\u65e0\u8bba", "1302": "\u66f4\u52a0", "1303": "\u54ea\u6015", "1304": "\u5c4e", "1305": "\u5168\u4e16\u754c", "1306": "\u88c1\u5224", "1307": "\u67d0\u4e9b", "1308": "\u9ebb\u9ebb", "1309": "\u62dc\u6258", "1310": "\u5154\u5b50", "1311": "\u5730\u56fe", "1312": "2015", "1313": "\u5168\u662f", "1314": "\u63a5", "1315": "\u7d20\u8d28", "1316": "\u7279\u4e48", "1317": "\u4e0b\u6b21", "1318": "\u65f6\u523b", "1319": "\u5f20", "1320": "\u60f3\u6cd5", "1321": "\u53e3", "1322": "\u589e\u52a0", "1323": "\u4eb2\u7231", "1324": "40", "1325": "\u4eba\u7fa4", "1326": "\u6d59\u6c5f", "1327": "\u536b\u751f", "1328": "\u5b83\u4eec", "1329": "\u6bd4\u8d5b", "1330": "\u670d", "1331": "\u8e22", "1332": "\u5077", "1333": "\u6559\u6388", "1334": "\u7a7a\u6c14\u8d28\u91cf", "1335": "\u4e00\u540d", "1336": "\u8fde\u7eed", "1337": "\u53bb\u5e74", "1338": "\u65e9\u6668", "1339": "\u5efa\u8bbe", "1340": "\u78b0\u5230", "1341": "\u4f5c\u7528", "1342": "\u5f53\u521d", "1343": "\u53d7\u4e0d\u4e86", "1344": "\u6709\u65f6", "1345": "\u5fcd\u4e0d\u4f4f", "1346": "\u5b89\u6392", "1347": "\u6000\u7591", "1348": "\u6c5f\u82cf", "1349": "\u907f\u514d", "1350": "\u9655\u897f", "1351": "\u59d1\u5a18", "1352": "\u7626", "1353": "\u5c3d\u91cf", "1354": "\u4e14", "1355": "\u5373", "1356": "\u5177\u6709", "1357": "\u7591\u95ee", "1358": "A", "1359": "\u5230\u5904", "1360": "\u8d85", "1361": "\u6e23", "1362": "\u575a\u5f3a", "1363": "\u5750\u5728", "1364": "\u81ed", "1365": "\u8bb0\u4f4f", "1366": "\u6b63\u786e", "1367": "\u5f15\u8d77", "1368": "\u505c", "1369": "\u5403\u60ca", "1370": "\u64e6", "1371": "\u7b49\u5230", "1372": "\u5e02\u6c11", "1373": "\u5c0f\u5b69", "1374": "\u5343\u73ba", "1375": "\u7f51\u53cb", "1376": "\u6d88\u6bd2", "1377": "\u6211\u7231\u4f60", "1378": "\u83ab\u540d", "1379": "\u597d\u5f00\u5fc3", "1380": "\u804a\u5929", "1381": "\u51e0\u5e74", "1382": "\u7f8e", "1383": "\u65f6\u671f", "1384": "\u5c0f\u533a", "1385": "\u963f\u59e8", "1386": "\u5e02", "1387": "\u901a\u62a5", "1388": "\u661f\u671f", "1389": "\u5757", "1390": "\u901f\u5ea6", "1391": "\u60f9", "1392": "\u6211\u7238", "1393": "\u611f\u6069", "1394": "\u54c7", "1395": "\u4ee5\u4e0a", "1396": "\u5904", "1397": "\u4fc4\u7f57\u65af", "1398": "\u51cc\u6668", "1399": "\u7b49\u5f85", "1400": "\u7ecf\u8fc7", "1401": "\u786e\u8ba4", "1402": "\u7d2f\u8ba1", "1403": "\u536b\u5065\u59d4", "1404": "\u4e0d\u6015", "1405": "\u811a", "1406": "\u51ed", "1407": "\u597d\u6d88\u606f", "1408": "\u5236\u9020", "1409": "\u6ca1\u7528", "1410": "\u5ba2\u6237", "1411": "\u6655", "1412": "\u611f", "1413": "\u79ef\u6781", "1414": "\u534a\u5929", "1415": "\u54d4", "1416": "\u505a\u68a6", "1417": "\u71ac\u591c", "1418": "\u5e94", "1419": "\u5168\u7403", "1420": "\u6539", "1421": "\u4ea7\u751f", "1422": "\u5229\u7528", "1423": "\u665a", "1424": "\u4e71", "1425": "\u5f3a", "1426": "19", "1427": "\u673a\u573a", "1428": ";", "1429": "\u75c5\u60c5", "1430": "\u706b", "1431": "\u7206", "1432": "\u9ed8\u9ed8", "1433": "\u4e00\u6b65", "1434": "\u5947\u8469", "1435": "\u81ea\u7531", "1436": "\u65f6\u5149", "1437": "\u7537\u670b\u53cb", "1438": "\u53cc", "1439": "\u53d7\u5230", "1440": "\u8721\u70db", "1441": "\u7948\u7977", "1442": "\u6240\u8c13", "1443": "\u8759\u8760", "1444": "\u5012\u9709", "1445": "\u63d0\u9ad8", "1446": "\u6df1\u591c", "1447": "\u540c\u6837", "1448": "\u53e6\u5916", "1449": "\u7b2c\u4e00\u4e2a", "1450": "\u6001\u5ea6", "1451": "\u9020\u8c23", "1452": "\u8f83", "1453": "\u4f3c\u4e4e", "1454": "\u53d8\u5316", "1455": "\u5473\u9053", "1456": "\u614c", "1457": "\u6bdb", "1458": "\u4e0d\u89c1", "1459": "\u793c\u7269", "1460": "\u97f3\u4e50", "1461": "\u600e\u4e48\u6837", "1462": "\u65e2\u7136", "1463": "\u4eca\u65e5", "1464": "\u5947\u602a", "1465": "\u4e00\u9897", "1466": "\u8fbe\u5230", "1467": "\u5269\u4e0b", "1468": "\u6254", "1469": "\u5584\u826f", "1470": "\u738b", "1471": "\u623f\u95f4", "1472": "\u884c\u52a8", "1473": "\u5ea6", "1474": "\u9020\u6210", "1475": "\u5168\u5bb6", "1476": "\u6302", "1477": "\u7528\u6237", "1478": "\u6d77\u5357", "1479": "\u9f3b", "1480": "\u5982\u4eca", "1481": "\u6027", "1482": "\u62a2", "1483": "\u505a\u51fa", "1484": "\u968f\u4fbf", "1485": "\u6c57", "1486": "\u4e2d\u592e", "1487": "\u77ed\u4fe1", "1488": "\u8ffd", "1489": "\u5de5\u4f5c\u4eba\u5458", "1490": "\u6295\u7968", "1491": "\u514d\u8d39", "1492": "\u592e\u89c6", "1493": "\u82f1\u8bed", "1494": "1000", "1495": "\u5f7c\u6b64", "1496": "\u53ea\u60f3", "1497": "\u8ddd\u79bb", "1498": "\u7ea0\u7ed3", "1499": "\u7838", "1500": "\u8981\u4e48", "1501": "\u5bdd\u5ba4", "1502": "50", "1503": "\u6e29\u67d4", "1504": "\u6f02\u4eae", "1505": "\u6a21\u5f0f", "1506": "\u80cc", "1507": "\u5bb6\u957f", "1508": "\u77e5\u8bc6", "1509": "\u4e56\u4e56", "1510": "\u6570\u5b57", "1511": "\u533b\u7528", "1512": "\u83ab\u540d\u5176\u5999", "1513": "\u83dc", "1514": "\u65b9\u9762", "1515": "\u6298\u78e8", "1516": "\u547d", "1517": "\u5c0a\u91cd", "1518": "\u8c08", "1519": "\u4e00\u90e8", "1520": "*", "1521": "\u52a8\u6001", "1522": "\u8138\u4e0a", "1523": "\u6fc0\u52a8", "1524": "\u5357\u65b9", "1525": "\u594b\u6597", "1526": "\u51e0\u4e4e", "1527": "\u8bba\u6587", "1528": "\u8bb0\u5f55", "1529": "\u4f69\u5170", "1530": "\u4e00\u5468", "1531": "\u4e00\u628a", "1532": "\u732a", "1533": "\u6df1\u5733", "1534": "\u8bc1\u660e", "1535": "\u653e\u5728", "1536": "\u4e3b\u52a8", "1537": "\u649e", "1538": "\u5b89\u9759", "1539": "\u4ef7\u683c", "1540": "\u54af", "1541": "\u663e\u793a", "1542": "\u51b2", "1543": "\u6ca1\u6cd5", "1544": "\u55e8", "1545": "\u82f1\u56fd", "1546": "\u50cf\u662f", "1547": "\u68d2", "1548": "\u89c4\u5b9a", "1549": "\u5435", "1550": "\u7a7a\u6c14", "1551": "\u53d6\u73b0", "1552": "\u6551\u6cbb", "1553": "\u5e74\u9f84", "1554": "\u5168\u6587", "1555": "\u513f", "1556": "\u56f0\u96be", "1557": "\u767d", "1558": "\u4e11", "1559": "\u6454", "1560": "\u9752\u6625", "1561": "\u5efa\u7acb", "1562": "\u8bb0\u5fc6", "1563": "\u5361", "1564": "\u53c2\u4e0e", "1565": "\u4e2d\u95f4", "1566": "\u5582", "1567": "\u7406\u7531", "1568": "\u795e\u7ecf\u75c5", "1569": "\u89c9", "1570": "\u5751", "1571": "\u526f", "1572": "\u62bd", "1573": "\u4e0d\u8981\u8138", "1574": "\u7ecf\u9a8c", "1575": "\u4e24", "1576": "\u68d2\u68d2", "1577": "\u4ecd", "1578": "\u9694\u58c1", "1579": "\u597d\u70e6", "1580": "\u6536\u62fe", "1581": "\u7ecf", "1582": "\u6d41\u91cf", "1583": "\u6218\u80dc", "1584": "\u524d\u9762", "1585": "\u4fe1\u7528\u5361", "1586": "\u6c34\u5e73", "1587": "\u4e0d\u53bb", "1588": "\u65b0\u51a0", "1589": "\u4f18\u79c0", "1590": "\u52b3\u8d44", "1591": "\u6696", "1592": "\u4e0d\u53ef", "1593": "\u4fe1\u4efb", "1594": "\u56f0", "1595": "\u8001\u4eba", "1596": "\u6d41\u611f", "1597": "\u6ef4", "1598": "\u65e9\u65e5", "1599": "\u9000", "1600": "\u6cb3\u5317", "1601": "..", "1602": "\u53ef\u60dc", "1603": "\u868a\u5b50", "1604": "\u6ca1\u89c1", "1605": "\u6b4c", "1606": "\u6050\u6016\u7247", "1607": "\u5ba4\u53cb", "1608": "\u82e5", "1609": "\u61c2\u5f97", "1610": "\u795e\u5947", "1611": "\u5f3a\u5927", "1612": "\u5173", "1613": "\u987a\u5229", "1614": "\u89c2\u5bdf", "1615": "\u53d1\u51fa", "1616": "\u8d34", "1617": "\u793e\u533a", "1618": "\u516c\u91cc", "1619": "\u5171\u540c", "1620": "\u6ee1\u8db3", "1621": "\u76f4\u64ad", "1622": "\u5c81\u6708", "1623": "\u52c7\u6562", "1624": "\u65e9\u8d77", "1625": "\u4f4d\u4e8e", "1626": "\u6d17\u6fa1", "1627": "\u51cf\u80a5", "1628": "\u7ea2", "1629": "\u4f5c", "1630": "\u4fdd\u8bc1", "1631": "\u52a0\u5165", "1632": "\u7231\u5fc3", "1633": "\u5929\u6d25", "1634": "\u65e9\u9910", "1635": "\u4e0d\u5c11", "1636": "\u4e00\u676f", "1637": "\u5927\u90e8\u5206", "1638": "\u4eba\u6027", "1639": "\u8868\u8fbe", "1640": "\u7167", "1641": "\u7537\u751f", "1642": "\u5305", "1643": "\u4e00\u7247", "1644": "\u52a8", "1645": "\u5835", "1646": "\u5b89\u5fc3", "1647": "\u6350\u6b3e", "1648": "\u653f\u7b56", "1649": "\u767d\u5929", "1650": "\u6298\u817e", "1651": "\ud83d\udcaa", "1652": "\u64cd\u4f5c", "1653": "\u4e0d\u5f97", "1654": "\u513f\u7ae5", "1655": "\u5bb3", "1656": "\u4ecb\u7ecd", "1657": "\u7535\u89c6", "1658": "\u52a8\u7269", "1659": "\u56db\u4e2a", "1660": "\u9762", "1661": "\u4f9d\u65e7", "1662": "\u674e\u6613\u5cf0", "1663": "\u5047", "1664": "\u90e8", "1665": "\u9152\u7cbe", "1666": "\u6073\u8bf7", "1667": "\u56db\u5e74", "1668": "\u6210\u7acb", "1669": "\u65e0\u8bed", "1670": "\u5e2e\u5fd9", "1671": "\u9a97", "1672": "\u5168\u8eab", "1673": "\u76ee\u6807", "1674": "\u65b9\u5411", "1675": "\u4e5f\u597d", "1676": "\u529f\u80fd", "1677": "\u5916", "1678": "\u5514", "1679": "\u4e00\u58f0", "1680": "\u8fbe", "1681": "\u6740", "1682": "\u8001\u5988", "1683": "\u6218\u4e89", "1684": "\u300d", "1685": "\u6bcf\u5e74", "1686": "\u4e0a\u6b21", "1687": "\u5973\u6027", "1688": "\u6316", "1689": "\u8c23\u8a00", "1690": "\u54ac", "1691": "\u9519\u8fc7", "1692": "\u5fc3\u6709\u4f59\u60b8", "1693": "\u6162", "1694": "\u7f51\u4e0a", "1695": "\u6210\u719f", "1696": "\u6027\u683c", "1697": "\u770b\u8fc7", "1698": "\u7559\u4e0b", "1699": "\u56de\u5934", "1700": "\u9e21", "1701": "\u8eb2", "1702": "\u516c\u5f00", "1703": "\u5fc3\u6001", "1704": "\u5662", "1705": "\u7237\u7237", "1706": "\u6ca1\u4eba", "1707": "\u63a8\u8350", "1708": "\u7ebf", "1709": "\u7206\u70b8", "1710": "\u4e00\u534a", "1711": "\u60f3\u5ff5", "1712": "\u56fe\u4e66\u9986", "1713": "\u80cc\u540e", "1714": "\u22ef", "1715": "\u5468", "1716": "\u8c22\u8c22\u4f60\u4eec", "1717": "\u4eba\u6c11\u65e5\u62a5", "1718": "\u6d3b\u7740", "1719": "\u4e3b\u4efb", "1720": "\u6211\u80fd", "1721": "\u8bf4\u660e", "1722": "\u51fa\u884c", "1723": "\u5360", "1724": "\u6761\u4ef6", "1725": "\u75af\u72c2", "1726": "\u2019", "1727": "\u6cd5\u5f8b", "1728": "\u594b\u6218", "1729": "\u4e0d\u5f97\u4e0d", "1730": "\u4eba\u5fc3", "1731": "\u65e2", "1732": "\u6574\u5929", "1733": "\u8d75\u4e3d\u9896", "1734": "\u795e", "1735": "\u8d23\u4efb", "1736": "0", "1737": "\u8868\u60c5", "1738": "\u6b3a\u8d1f", "1739": "\u8fa3", "1740": "\u8d1f", "1741": "\u59cb\u7ec8", "1742": "\u4e09\u5929", "1743": "\u623f\u5b50", "1744": "\u5450", "1745": "\u9ad8\u901f", "1746": "\u8054\u76df", "1747": "\u7a0b\u5ea6", "1748": "\u6682\u65f6", "1749": "\u4ee5\u6765", "1750": "\u5341\u5206", "1751": "\u975e\u8981", "1752": "TMD", "1753": "\u70e6\u607c", "1754": "\u6b64", "1755": "\u98de", "1756": "\u6bd4\u5982", "1757": "\u6dd8\u5b9d", "1758": "\u4eba\u53e3", "1759": "\u53d7\u4f24", "1760": "\u706b\u8f66", "1761": "\u5fc3\u597d", "1762": "\u4efb\u52a1", "1763": "\u4e0a\u5348", "1764": "\u59b9\u59b9", "1765": "\u6324", "1766": "\u5e73\u53f0", "1767": "\u519c\u6751", "1768": "\u5c01", "1769": "\u82e6", "1770": "\u56ed", "1771": "\u4eba\u6570", "1772": "\u660e\u661f", "1773": "\u4eab\u53d7", "1774": "\u7f8e\u7f8e", "1775": "\u4e0a\u9762", "1776": "\u67d0\u4eba", "1777": "\u6ee1\u6ee1\u7684", "1778": "\u5496\u5561", "1779": "\u5f53\u7136", "1780": "\u8d31\u4eba", "1781": "\u636e", "1782": "\u516c\u4ea4\u8f66", "1783": "\u6587\u7ae0", "1784": "\u591a\u4eba", "1785": "\u95e8\u53e3", "1786": "\u52a0\u5f3a", "1787": "\u4e0d\u5fc5", "1788": "\u62d6", "1789": "\u4e2d\u5b66", "1790": "\u7fa1\u6155", "1791": "\u4e00\u5bb6", "1792": "\u6d6a\u8d39", "1793": "\u9ad8\u4e2d", "1794": "\u54c8", "1795": "\u6068", "1796": "\u65b0\u5e74", "1797": "\u6234\u597d", "1798": "\u611f\u67d3\u8005", "1799": "\ud83d\ude14", "1800": "\u8fb9", "1801": "\u68a6\u5230", "1802": "\u5bc6\u96c6", "1803": "\u53d8\u6001", "1804": "\u8003", "1805": "\u4e24\u6b21", "1806": "\u7b97\u662f", "1807": "\u4e00\u6bb5", "1808": "\u4e1c", "1809": "\u7ba1", "1810": "\u5408\u4f5c", "1811": "B", "1812": "\u65c5\u884c", "1813": "\u5bb3\u7f9e", "1814": "\u767e\u5ea6", "1815": "\u5c31\u8bca", "1816": "\u5e74\u524d", "1817": "\u5dee\u4e0d\u591a", "1818": "\u4ef6", "1819": "90", "1820": "\u8d85\u8fc7", "1821": "\u4fdd\u969c", "1822": "\u4e3a\u4f55", "1823": "\u524d\u884c", "1824": "\u53cd\u800c", "1825": "\u8fd8\u4f1a", "1826": "\u4f53\u4f1a", "1827": "\u9707\u60ca", "1828": "\u91c7\u7528", "1829": "\u5b9d", "1830": "\u95f4", "1831": "\u541b", "1832": "\u8d28\u91cf", "1833": "\u7ecf\u8425", "1834": "\u9ed1\u6697", "1835": "\u5c1d\u8bd5", "1836": "\u9644\u8fd1", "1837": "\u65e0\u5948", "1838": "\u9876", "1839": "\u56f4\u89c2", "1840": "\u7528\u4e8e", "1841": "\u7591\u4f3c\u75c5\u4f8b", "1842": "\u5468\u4e8c", "1843": "\u7ed3\u5c40", "1844": "\u76f4\u5230", "1845": "\u5927\u4eba", "1846": "\u5144\u5f1f", "1847": "\u8db3\u591f", "1848": "\u8bfb\u4e66", "1849": "\u591a\u4e45", "1850": "\u505a\u4e8b", "1851": "\u716e", "1852": "tm", "1853": "\u5e97", "1854": "\u5e7f\u544a", "1855": "\ud83d\udd25", "1856": "\u805a\u96c6", "1857": "\u5c31\u533b", "1858": "\u539f\u8c05", "1859": "\u5f62\u6210", "1860": "\u518d\u89c1", "1861": "\u4ee5\u4e0b", "1862": "\u8fdc\u79bb", "1863": "\u9632\u6cbb", "1864": "\u4e00\u70b9\u70b9", "1865": "\u897f", "1866": "\u90a3\u5929", "1867": "\u79d1\u666e", "1868": "\u7740\u6025", "1869": "\u7c89", "1870": "\u653e\u4e0b", "1871": "\u5bf9\u8c61", "1872": "\u5f88\u5feb", "1873": "\u6062\u590d", "1874": "\u7f51", "1875": "\u5fae", "1876": "\u5ba3\u5e03", "1877": "\u559d\u9152", "1878": "\u754f\u60e7", "1879": "\u636e\u8bf4", "1880": "\u5934\u75bc", "1881": "\u4e0d\u6b62", "1882": "\u53ea\u4f1a", "1883": "\u8001\u662f", "1884": "\u5317\u65b9", "1885": "\u529d", "1886": "\u70c2", "1887": "\u9e21\u86cb", "1888": "\u6807\u51c6", "1889": "\u65e9\u5c31", "1890": "\u5435\u67b6", "1891": "\u5c3d\u5feb", "1892": "\u7c89\u4e1d", "1893": "\u7238", "1894": "\u7fa4\u4f17", "1895": "\u5929\u4f51", "1896": "\u7528\u6765", "1897": "\u516c\u76ca", "1898": "\u4e3e\u529e", "1899": "\u62dc\u5e74", "1900": "\u5bc6\u5207\u63a5\u89e6", "1901": "\u6536\u6cbb", "1902": "\u4e8b\u5b9e", "1903": "\u68a6\u91cc", "1904": "\u516c\u4f17", "1905": "\u4e0d\u8be5", "1906": "\u4e00\u5927", "1907": "\u7adf", "1908": "\u6210\u90fd", "1909": "\u6559\u5ba4", "1910": "\u5206\u6790", "1911": "\u60ca\u5446", "1912": "\u59b9\u5b50", "1913": "\u529b", "1914": "\u50ac", "1915": "\u798f\u5efa", "1916": "\u65e0\u529b", "1917": "\u5988\u5440", "1918": "\u5ffd\u7136", "1919": "\u820d\u4e0d\u5f97", "1920": "\u4e0d\u5403", "1921": "\u9e2d", "1922": "=", "1923": "\u8fc7\u5f97", "1924": "\u68c0\u6d4b", "1925": "\u2764", "1926": "\u60ca\u8bb6", "1927": "\u4f24", "1928": "\u5ba2\u670d", "1929": "\u91cd\u5927", "1930": "\u719f\u6089", "1931": "\u9c7c", "1932": "\u4f1e", "1933": "\u6b20", "1934": "\u4e0b\u96e8\u5929", "1935": "\u8036", "1936": "\u7edd\u671b", "1937": "\u7b49\u7b49", "1938": "\u95e8\u8bca", "1939": "\u5458\u5de5", "1940": "\u4f60\u597d", "1941": "\u836f", "1942": "\u5e74\u7eaa", "1943": "\u592a\u591a", "1944": "\u79cd", "1945": "\u4e00\u5230", "1946": "\u5531", "1947": "\u671b", "1948": "\u6307\u6570", "1949": "\u9152", "1950": "\u56de\u7b54", "1951": "\u4efb\u6027", "1952": "\u547c\u5438", "1953": "\u4e00\u5757", "1954": "\u571f", "1955": "\u516c\u5e03", "1956": "\u526a", "1957": "\u8d5a", "1958": "\u5220", "1959": "\u8349", "1960": "\u6b64\u523b", "1961": "\u5624", "1962": "\u86ee", "1963": "\u6c11\u4f17", "1964": "\u4e2d\u533b", "1965": "\u8f9f\u8c23", "1966": "\u4e00\u6025", "1967": "\u4e24\u5e74", "1968": "\u88ab\u5b50", "1969": "\u7968", "1970": "\u5435\u9192", "1971": "\ud83d\udc36", "1972": "\u5fc3\u9178", "1973": "\u5e74\u8f7b\u4eba", "1974": "\u81ea\u52a8", "1975": "\u81ea\u79c1", "1976": "\u4e00\u4e2a\u4e2a", "1977": "\u5a46\u5a46", "1978": "\u5c0f\u670b\u53cb", "1979": "\u300c", "1980": "\u7acb\u9a6c", "1981": "\u5f53\u5730", "1982": "C", "1983": "\u98df\u7269", "1984": "\u6b64\u6b21", "1985": "\u7792\u62a5", "1986": "zf", "1987": "\u8bbe\u5907", "1988": "\u8c03\u67e5", "1989": "\u8fd0\u52a8", "1990": "\u7537\u795e", "1991": "\u62cd\u7167", "1992": "\u6536", "1993": "\u5468\u56f4", "1994": "\u770b\u4e0d\u5230", "1995": "\u6309\u7167", "1996": "\u6765\u770b", "1997": "\u8fd9\u8f88\u5b50", "1998": "\u500d", "1999": "\u9006", "2000": "\u516c\u5171\u536b\u751f", "2001": "\u8fd0\u6c14", "2002": "\u613f\u671b", "2003": "\u4e00\u8eab", "2004": "\u57f9\u8bad", "2005": "\u4eb2", "2006": "\u5b50", "2007": "\u4f5c\u54c1", "2008": "\u8bdd\u9898", "2009": "\u8c31", "2010": "\u6e05\u9192", "2011": "\u81ea\u4ece", "2012": "\u82f9\u679c", "2013": "\u5927\u53d4", "2014": "\u627e\u4e2a", "2015": "\u4eb2\u621a", "2016": "\u4e00\u7897", "2017": "\u6e05\u6670", "2018": "\u52c7\u6c14", "2019": "\u6e56\u5357", "2020": "500", "2021": "\u65b0\u5e74\u5feb\u4e50", "2022": "\u65a4", "2023": "\u697c\u4e0b", "2024": "\u6548\u7387", "2025": "\u4e00\u773c", "2026": "\u57fa\u7840", "2027": "\u547c\u5401", "2028": "\u4fdd\u4f51", "2029": "\u601d\u60f3", "2030": "\u8111\u888b", "2031": "\u5230\u4f4d", "2032": "\u91cd\u75c7", "2033": "\u6700\u9ad8", "2034": "\u699c", "2035": "\u8fd9\u4f4d", "2036": "\u6124\u6012", "2037": "\u8bed", "2038": "\u73b0\u8c61", "2039": "\u5c3d", "2040": "\u591a\u6b21", "2041": "\u62a4\u58eb", "2042": "\u4eba\u624d", "2043": "\u4eca\u65e9", "2044": "\u94f6\u884c", "2045": "\u4e00\u4f1a\u513f", "2046": "\u653e\u5fc3", "2047": "\u4ec0\u4e48\u6837", "2048": "\u6301\u7eed", "2049": "\u5173\u95ed", "2050": "\u51f8\u51f8", "2051": "\u4efb", "2052": "\u4e00\u987f", "2053": "\u529e", "2054": "\u7cdf\u7cd5", "2055": "\u539f\u672c", "2056": "\u98ce\u9669", "2057": ".....", "2058": "\u53d1\u8868", "2059": "\u72af", "2060": "\u5730\u4e0a", "2061": "\u5fb7\u56fd", "2062": "\u71ac", "2063": "\u5f0f", "2064": "\u534a", "2065": "\u6750\u6599", "2066": "\u4e00\u65e6", "2067": "\u7a81\u53d1", "2068": "\u8bc5\u5492", "2069": "2003", "2070": "\u51e0\u6b21", "2071": "\u8fd9\u4e48\u4e45", "2072": "\u592a\u597d\u4e86", "2073": "\u79fb\u52a8", "2074": "\u6495", "2075": "\u9152\u5e97", "2076": "\u968f\u7740", "2077": "\u989c\u8272", "2078": "\u6765\u6e90", "2079": "\u771f\u4ed6\u5988", "2080": "\u672c\u4e8b", "2081": "\u676d\u5dde", "2082": "\u7559", "2083": "\u5168\u9762", "2084": "\u4e70\u4e2a", "2085": "\u9f13\u638c", "2086": "\u6f5c\u4f0f\u671f", "2087": "\u5e7f\u897f", "2088": "\u770b\u4e66", "2089": "\u5feb\u8981", "2090": "\u770b\u8d77\u6765", "2091": "\u5c71\u897f", "2092": "\u773c\u795e", "2093": "\u5f00\u4f1a", "2094": "\u4e0b\u9762", "2095": "\u672a\u77e5", "2096": "\u660e\u5e74", "2097": "\u5dee\u8bc4", "2098": "\u86cb", "2099": "\u7092", "2100": "\u8e29", "2101": "\u88ab\u7a9d", "2102": "\u5973\u5b50", "2103": "\u5b66\u9662", "2104": "\u9762\u79ef", "2105": "\u56db\u5ddd", "2106": "\u6e29\u5ea6", "2107": "\u4f60\u5bb6", "2108": "N95", "2109": "\u9690\u7792", "2110": "\u54df", "2111": "\u5e74\u4ee3", "2112": "\u4eff\u4f5b", "2113": "\u8822", "2114": "\u8fd9\u624d", "2115": "\u6ca1\u9519", "2116": "\u6b63\u5f0f", "2117": "\u4e0d\u613f", "2118": "\u517b", "2119": "\u70b9\u8d5e", "2120": "\u62c5\u60ca\u53d7\u6015", "2121": "\u5e94\u6025", "2122": "\u6559\u7ec3", "2123": "\u8e6d", "2124": "\u65e5\u5e38", "2125": "\u53bb\u8fc7", "2126": "\u6768\u6d0b", "2127": "\u653e\u5047", "2128": "\u653e\u5165", "2129": "\u4fe1", "2130": "\u957f\u8f88", "2131": "\u8d21\u732e", "2132": "\u6625\u8fd0", "2133": "\u9664\u5915", "2134": "\u751f\u7269", "2135": "\u59bb\u5b50", "2136": "\u4e92\u76f8", "2137": "\u751c", "2138": "\u7ea7", "2139": "\u5374\u662f", "2140": "\u4e0a\u5b66", "2141": "\u6751", "2142": "\u6253\u55b7\u568f", "2143": "\u7f51\u7ad9", "2144": "\u627f\u53d7", "2145": "\u7cbe\u5f69", "2146": "\u51b2\u52a8", "2147": "\u8bf7\u95ee", "2148": "\u5b9e\u9a8c", "2149": "\u697c\u4e0a", "2150": "\u5c0f\u5b66", "2151": "\u6740\u4eba", "2152": "\u5177\u4f53", "2153": "\u957f\u5f97", "2154": "\u4eba\u7269", "2155": "\u9f3b\u5b50", "2156": "\u5141\u8bb8", "2157": "\u6beb\u65e0", "2158": "\u707e\u96be", "2159": "\u6536\u83b7", "2160": "\u81ea\u89c9", "2161": "\u5927\u4e8b", "2162": "\u7b54\u6848", "2163": "\u505a\u4eba", "2164": "\u4e00\u53e3", "2165": "\u8001\u9f20", "2166": "\u8d70\u8def", "2167": "\u78b0", "2168": "\u90c1\u95f7", "2169": "\u8d62", "2170": "\u6709\u75c5", "2171": "\u9547", "2172": "\u5468\u672b", "2173": "\u86cb\u7cd5", "2174": "\u8ba8\u8bba", "2175": "\u53bf", "2176": "\u4ecd\u7136", "2177": "\u2018", "2178": "\u53f0\u6e7e", "2179": "\u6284", "2180": "\u5076\u5c14", "2181": "\u7761\u7720", "2182": "\u6307", "2183": "\u7f3a\u53e3", "2184": "\u8fdf\u5230", "2185": "\u65e0\u6bd4", "2186": "\u504f\u504f", "2187": "\u5241", "2188": "\u79c0", "2189": "\u8bf4\u51fa", "2190": "\u6709\u7528", "2191": "\u89c4\u6a21", "2192": "\u622a\u81f3", "2193": "\u884c\u8005", "2194": "\u4e00\u4f8b", "2195": "\u597d\u4e0d\u597d", "2196": "\u9053\u7406", "2197": "\u4e00\u4e0b\u5b50", "2198": "\u6652", "2199": "\u52a0\u4e0a", "2200": "\u5224\u65ad", "2201": "\u66f4\u662f", "2202": "\u591c\u665a", "2203": "\u6211\u6015", "2204": "\u8eab\u4f53\u5065\u5eb7", "2205": "\u4ee4\u4eba", "2206": "\ud83d\ude12", "2207": "\u901a\u98ce", "2208": "\u597d\u4e45\u6ca1", "2209": "\u8bed\u8a00", "2210": "\u62b1\u6028", "2211": "\u6295\u8d44", "2212": "\u53f0", "2213": "\u7b2c\u4e00\u540d", "2214": "\u4e0d\u4f4f", "2215": "\u63a5\u7740", "2216": "\u5355\u7eaf", "2217": "\u8c03\u6574", "2218": "\u5373\u53ef", "2219": "\u9605\u8bfb", "2220": "\u9a6c", "2221": "\u8d44\u6599", "2222": "\u957f\u6c99", "2223": "\u5575", "2224": "\u7c91", "2225": "\u542c\u8bdd", "2226": "\u4f20\u8c23", "2227": "\u80c3", "2228": "\u7a33\u5b9a", "2229": "\u91cd", "2230": "\u4ef7\u503c", "2231": "\u56fd\u52a1\u9662", "2232": "\u4e09\u5e74", "2233": "\u7ed3\u6784", "2234": "\u8fd9\u6761", "2235": "\u590d\u6742", "2236": "\u8def\u8fc7", "2237": "\u5f31", "2238": "\u901b", "2239": "\u8303\u56f4", "2240": "\u59b9", "2241": "\u914d\u5408", "2242": "\u661f\u661f", "2243": "\u60ca\u559c", "2244": "\u4e16\u4e0a", "2245": "\u8d85\u5e02", "2246": "\u667a\u5546", "2247": "\u820d\u53cb", "2248": "\u5954", "2249": "\u98ce", "2250": "\u5c0f\u8bf4", "2251": "\u7a7a\u8c03", "2252": "\u8865", "2253": "\u56de\u4e0d\u53bb", "2254": "03", "2255": "\u4e2d\u534e", "2256": "\u804c\u4e1a", "2257": "\u4e16\u7eaa", "2258": "\u89d2\u8272", "2259": "\u5174\u594b", "2260": "\u5927\u54e5", "2261": "\u573a\u666f", "2262": "\u81ea\u8eab", "2263": "\u70e6\u70e6", "2264": "\u63a5\u4e0b\u6765", "2265": "\u4f1a\u5458", "2266": "\u660e", "2267": "\u56fd", "2268": "\u4ea6", "2269": "\u9a97\u5b50", "2270": "\u5355\u8eab", "2271": "\u53ef\u6076", "2272": "\u514b", "2273": "\u81ea\u4fe1", "2274": "\u4f20\u7edf", "2275": "60", "2276": "\u4ffa", "2277": "\u77ed", "2278": "\u6765\u5230", "2279": "\u5410\u69fd", "2280": "\u53ea\u597d", "2281": "\u5e38\u5e38", "2282": "\u5e72\u51c0", "2283": "\u6e90", "2284": "\u6709\u610f\u601d", "2285": "\u6587\u5b57", "2286": "\u5929\u4e0b", "2287": "\u59d0", "2288": "\u6628\u5929\u665a\u4e0a", "2289": "\u6109\u5feb", "2290": "\u52a8\u529b", "2291": "\u5bf9\u9762", "2292": "\u4e2b", "2293": "\u5fc3\u75db", "2294": "\u604b\u7231", "2295": "\u5341\u5e74", "2296": "\u6bc1", "2297": "\u722c", "2298": "\u805a\u4f1a", "2299": "\u8f6f\u4ef6", "2300": "\u9519\u8bef", "2301": "\u624b\u672f", "2302": "\u6700\u521d", "2303": "\u6d77\u9c9c", "2304": "\u65e5\u8bb0", "2305": "\u9996\u9875", "2306": "\u8fd9\u8fb9", "2307": "\u6253\u6b7b", "2308": "\u4e1c\u5317", "2309": "\u51e1", "2310": "\u968f\u65f6", "2311": "\u773c", "2312": "\u5feb\u901f", "2313": "\u5439", "2314": "\u7edf\u4e00", "2315": "\u5267\u60c5", "2316": "\u6ee1\u610f", "2317": "\u5e94\u5bf9", "2318": "\u4e00\u8138", "2319": "\u7956\u56fd", "2320": "\u7f8e\u7684", "2321": "\u8d2d\u4e70", "2322": "\u5927\u5e74\u4e09\u5341", "2323": "\u7ea2\u5341\u5b57", "2324": "\u603b\u7ed3", "2325": "\u65b9\u4fbf", "2326": "\u6559", "2327": "\u7528\u5fc3", "2328": "\u6307\u5bfc", "2329": "\u5927\u578b", "2330": "\u4f1a\u8bae", "2331": "\u4f53\u9a8c", "2332": "\u9996\u5148", "2333": "\u534a\u5e74", "2334": "\u7206\u7c97", "2335": "\u77eb\u60c5", "2336": "\u5634\u5df4", "2337": "\u8fd9\u4ef6", "2338": "\u7126\u8651", "2339": "\u8fc5\u901f", "2340": "\u60ca\u9192", "2341": "\u9017", "2342": "\u673a\u6784", "2343": "\u9ad8\u94c1", "2344": "\ud83d\ude31", "2345": "\u86cb\u767d\u8d28", "2346": "\u51fa\u751f", "2347": "\u5728\u4e8e", "2348": "\u6696\u6c14", "2349": "\u591a\u591a", "2350": "\u5fae\u4fe1", "2351": "\u90a3\u8fb9", "2352": "\u672c\u4e66", "2353": "\u5f1f\u5f1f", "2354": "\u7d27\u6025", "2355": "\u7ed9\u529b", "2356": "\u6350\u8d60", "2357": "\u4e9f\u5f85", "2358": "\u57fa\u91d1\u4f1a", "2359": "\u673a\u7968", "2360": "\u65e0\u6240\u8c13", "2361": "\u6253\u7b97", "2362": "\u51fa\u53d1", "2363": "\u9171", "2364": "\u8d76", "2365": "\u804a", "2366": "\u6210\u7ee9", "2367": "\u9057\u61be", "2368": "\u590f\u5929", "2369": "\u5b9a", "2370": "26", "2371": "\u8b66\u5bdf", "2372": "\u8d35", "2373": "\u7761\u4e2a", "2374": "\u610f\u5916", "2375": "\u4e0d\u987a", "2376": "\u697c", "2377": "\u63d0\u51fa", "2378": "\u56e2\u961f", "2379": "\u4e00\u591c", "2380": "\u8d70\u8fc7", "2381": "\u5370\u8c61", "2382": "\u8fd1\u671f", "2383": "\u76d0", "2384": "\u6e10\u6e10", "2385": "\u4eb2\u4eb2", "2386": "\u8001\u7238", "2387": "\u8bc4\u4ef7", "2388": "\u6c9f\u901a", "2389": "\u59d4\u5458\u4f1a", "2390": "\u9488\u5bf9", "2391": "\u6761", "2392": "\u4eba\u95f4", "2393": "\u627f\u62c5", "2394": "\u6d6a\u522b", "2395": "\u739b\u5c3c", "2396": "\u547c\u5438\u9053", "2397": "\u98df\u5802", "2398": "\u5267", "2399": "\u9009", "2400": "\u5973\u670b\u53cb", "2401": "\u7686", "2402": "\u5269", "2403": "\u57f9\u517b", "2404": "\u8d27", "2405": "\u6ce8\u5b9a", "2406": "\u6f14\u5531\u4f1a", "2407": "\u8fc7\u540e", "2408": "\u5077\u5077", "2409": "\u60f4\u60f4\u4e0d\u5b89", "2410": "\u8bf7\u6c42", "2411": "\u5c31\u8ba9", "2412": "\u76ae\u80a4", "2413": "\u8c8c\u4f3c", "2414": "\u4ece\u6765\u4e0d", "2415": "\u5c34\u5c2c", "2416": "\u63a8", "2417": "\u9003\u79bb", "2418": "\u6000\u5b55", "2419": "\u5730\u9707", "2420": "\u5357\u4eac", "2421": "\u767d\u773c", "2422": "\u6d41\u884c\u75c5\u5b66", "2423": "\u5f20\u4e91\u96f7", "2424": "\u771f\u76f8", "2425": "\u53cd", "2426": "\u8fd8\u7ed9", "2427": "\u54ea\u513f", "2428": "\u76ef", "2429": "\u5531\u6b4c", "2430": "\u5c4f\u5e55", "2431": "\u4ea4\u6d41", "2432": "\u4e00\u90e8\u5206", "2433": "\u56db", "2434": "\u5bf9\u5f85", "2435": "\u7ed3\u5408", "2436": "\u5916\u5356", "2437": "\u4f4f\u9662", "2438": "\u5168\u90fd", "2439": "\u4ed4\u7ec6", "2440": "\u76f8\u5904", "2441": "\u53f2", "2442": "\u5c0f\u5c0f\u7684", "2443": "\u718a", "2444": "\u6574\u7406", "2445": "\u5927\u54ed", "2446": "\u901a\u9053", "2447": "\u7eaa\u5ff5", "2448": "\u5171", "2449": "\u5230\u8fbe", "2450": "\u98df\u54c1", "2451": "\u6c64", "2452": "200", "2453": "\u5c71", "2454": "\u9500\u552e", "2455": "\u5b63\u8282", "2456": "\u618b", "2457": "\u9634\u5f71", "2458": "\u9632", "2459": "\u4fe1\u5fc3", "2460": "\u5b98\u5458", "2461": "\u505a\u4e0d\u4e86", "2462": "\u55d2", "2463": "^", "2464": "\u6d51\u8eab", "2465": "\u91c7\u53d6", "2466": "\u6545\u610f", "2467": "\u5171\u6e21\u96be\u5173", "2468": "\u8d76\u4e0a", "2469": "\u81ea\u884c\u8f66", "2470": "\u4eba\u4eba", "2471": "\u795e\u9a6c", "2472": "\u67d0\u4e2a", "2473": "\u5f80\u5f80", "2474": "\u4e09\u6b21", "2475": "\u753b\u9762", "2476": "\u6cd5\u56fd", "2477": "\u62fc", "2478": "\u91cf", "2479": "\u5728\u4e4e", "2480": "\u5403\u5c4e", "2481": "\u4e0a\u6765", "2482": "\u5e78\u597d", "2483": "\u7406\u8bba", "2484": "\u6bdb\u75c5", "2485": "\u4e00\u6574\u5929", "2486": "\u7b2c\u4e8c\u5929", "2487": "\u7b2c\u4e8c", "2488": "\u6c89\u9ed8", "2489": "\u5fc3\u810f", "2490": "\u788e", "2491": "\u8fdb\u6765", "2492": "\u600e\u4e48\u56de\u4e8b", "2493": "\u6bcd\u4eb2", "2494": "\u4ea4\u901a", "2495": "\u5f00\u901a", "2496": "\u65b0\u6d6a", "2497": "\u73a9\u610f\u513f", "2498": "x", "2499": "\u53d1\u6296", "2500": "\u673a", "2501": "\u79c1\u4fe1", "2502": "\u978b", "2503": "\u5f00\u53d1", "2504": "27", "2505": "\u653e\u677e", "2506": "\u4e0a\u53bb", "2507": "80", "2508": "\u601d\u5ff5", "2509": "\u5acc\u5f03", "2510": "\u5c0f\u4eba", "2511": "\u505c\u6b62", "2512": "\u8bf6", "2513": "\u672c\u8eab", "2514": "\u72ec\u7acb", "2515": "\u96be\u5f97", "2516": "\u805a\u9910", "2517": "\u6c5f\u897f", "2518": "\u53d1\u73b0\u81ea\u5df1", "2519": "\u6050\u60e7\u75c7", "2520": "\u4e00\u5929\u5929", "2521": "\u8bd7", "2522": "\u94a5\u5319", "2523": "\u8f93", "2524": "\u4ea4", "2525": "\u836f\u7269", "2526": "\u540c\u610f", "2527": "\u624b\u91cc", "2528": "\u65e0\u52a9", "2529": "\u89c1\u9762", "2530": "\u5e8a", "2531": "\u63d0", "2532": "\u57ce", "2533": "\u5927\u91cf", "2534": "\u8033\u6735", "2535": "\u641e\u7b11", "2536": "\u5b89\u597d", "2537": "\u54ce\u5440", "2538": "\u5f3a\u8c03", "2539": "\u5e73\u9759", "2540": "\u6012\u9a82", "2541": "440", "2542": "\u5e05", "2543": "\u603b\u4e4b", "2544": "\u706b\u8f66\u7ad9", "2545": "\u5b9e\u9645", "2546": "\u5934\u50cf", "2547": "\u6d6a\u6f2b", "2548": "\u6211\u56fd", "2549": "\u5973\u5b69\u5b50", "2550": "\u5408\u9002", "2551": "\u955c\u5934", "2552": "\u6df1\u6df1", "2553": "\u6bb5", "2554": "\u6b64\u65f6", "2555": "\u4e91\u5357", "2556": "\u7b2c\u4e00\u5929", "2557": "\u4e00\u79d2", "2558": "\u7761\u524d", "2559": "\u8ffd\u6c42", "2560": "\u627f\u8ba4", "2561": "\u2103", "2562": "\u5192", "2563": "\u60ca\u5413", "2564": "\u6768", "2565": "\u53ef\u63a7", "2566": "\u54e5", "2567": "\u6f14\u5458", "2568": "\u6cbb\u6108", "2569": "\u4e94\u4e2a", "2570": "\u5927\u591a\u6570", "2571": "\u80bf", "2572": "\u684c\u5b50", "2573": "\u7403", "2574": "\u5973\u795e", "2575": "\u5927\u738b", "2576": "\u5f97\u77e5", "2577": "\u8457\u540d", "2578": "\u4eba\u4e3a", "2579": "\u771f\u662f\u592a", "2580": "\u76ee\u7684", "2581": "\u6bb5\u65f6\u95f4", "2582": "\u7b2c\u4e8c\u6b21", "2583": "\u8fc7\u4e2a", "2584": "\u8bf4\u6cd5", "2585": "\u671f", "2586": "\u66ff", "2587": "\u7236\u4eb2", "2588": "\u5f88\u5c11", "2589": "\u8033\u673a", "2590": "\u60e7\u6015", "2591": "\u6253\u51fb", "2592": "\u571f\u8033\u5176", "2593": "\u563f\u563f", "2594": "\u6709\u4e8b", "2595": "\u65e0\u8f9c", "2596": "\u6295\u8bc9", "2597": "\u5757\u94b1", "2598": "\u4e00\u77ac\u95f4", "2599": "\u6709\u94b1", "2600": "\u5faa\u73af", "2601": "\u5e94\u5f53", "2602": "\u4e00\u5708", "2603": "\u8bfb", "2604": "\u5728\u610f", "2605": "\u6848\u4f8b", "2606": "291", "2607": "\u5403\u74dc", "2608": "\u597d\u4eba", "2609": "\u65e9\u7761", "2610": "\u8f7b\u677e", "2611": "\u5fc3\u585e", "2612": "\u52a8\u4f5c", "2613": "\u8840", "2614": "\u8270\u96be", "2615": "\u521d\u4e2d", "2616": "\u95ed\u5634", "2617": "\u4e00\u4e0a\u5348", "2618": "\u51b7\u9759", "2619": "\u5fd9\u788c", "2620": "\u4eca", "2621": "\u8868\u6f14", "2622": "\u653e\u8fc7", "2623": "\u533a\u522b", "2624": "\u4e1a\u52a1", "2625": "\u5a5a\u793c", "2626": "\u7a76\u7adf", "2627": "\u827a\u672f", "2628": "\u8336", "2629": "\u83b7\u5f97", "2630": "\u5c45\u6c11", "2631": "\u674e", "2632": "\u544a\u77e5", "2633": "\u5c41", "2634": "\u5341\u6708", "2635": "\u5883\u5185", "2636": "\ud83d\udc7f", "2637": "\u4f4d", "2638": "\u6211\u7279", "2639": "\u5565\u65f6\u5019", "2640": "\u4e34\u65f6", "2641": "\u521a\u597d", "2642": "\u7c7b\u4f3c", "2643": "\u5927\u58f0", "2644": "\u5927\u5927", "2645": "\u70e7", "2646": "\u540d\u5355", "2647": "\u755c\u751f", "2648": "\u8be5\u6b7b", "2649": "\u6cbb", "2650": "\u4e66\u8bb0", "2651": "\u9000\u7968", "2652": "\u65c5\u5ba2", "2653": "\u6700\u7f8e", "2654": "\u4e00\u5929\u5230\u665a", "2655": "\u5168\u4f53", "2656": "\u8010\u5fc3", "2657": "\u4e70\u4e0d\u5230", "2658": "\u52bf\u529b", "2659": "\u6dda", "2660": "\u653f\u6cbb", "2661": "\u7d2f\u6b7b", "2662": "\u5206\u624b", "2663": "\u6653\u5f97", "2664": "\u9a84\u50b2", "2665": "\u5426\u5219", "2666": "\u8fd9\u53e5", "2667": "\u662f\u4ece", "2668": "\u8fc7\u654f", "2669": "\u975e\u5f97", "2670": "\u5fc3\u7d2f", "2671": "\u79d8\u5bc6", "2672": "\u534a\u5c0f\u65f6", "2673": "\u7761\u9192", "2674": "2000", "2675": "\u5236\u5ea6", "2676": "\u4e30\u5bcc", "2677": "\u884c\u653f", "2678": "\u665a\u996d", "2679": "\u4e00\u526f", "2680": "\u592a\u96be", "2681": "\u5de8\u5927", "2682": "\u643a\u5e26", "2683": "\u4e0d\u4fe1", "2684": "\u547d\u8fd0", "2685": "\u5f00\u542f", "2686": "\u54ea\u4e9b", "2687": "\u4e00\u6279", "2688": "\u2193", "2689": "\u4e58\u5ba2", "2690": "\u9177", "2691": "\u533b\u5b66\u89c2\u5bdf", "2692": "\u660e\u786e", "2693": "\u89c4\u5212", "2694": "\u61a7\u61ac", "2695": "\u6280\u80fd", "2696": "\u4f53\u91cd", "2697": "\u5fe7\u4f24", "2698": "\u70ed\u60c5", "2699": "\u505a\u996d", "2700": "\u4eba\u4f1a", "2701": "\u9001\u5230", "2702": "\u61f5", "2703": "\u8aaa", "2704": "\u51fa\u5dee", "2705": "\u4e0d\u5b89", "2706": "\u585e", "2707": "\u7cd6", "2708": "\u62ff\u5230", "2709": "\u5f15\u53d1", "2710": "\u6708\u4eae", "2711": "\u51fa\u53e3", "2712": "\u81ea\u62cd", "2713": "\u5e72\u4ec0\u4e48", "2714": "\u540e\u679c", "2715": "\u4e07\u5143", "2716": "\u5f88\u957f", "2717": "\u5bc6\u7801", "2718": "\u91cd\u590d", "2719": "\u76ae", "2720": "\u72b6\u51b5", "2721": "\u8f93\u5165", "2722": "84", "2723": "\u6795\u5934", "2724": "\u4f69\u670d", "2725": "\u5373\u5c06", "2726": "\u75d8\u75d8", "2727": "\u5c0f\u5077", "2728": "\u5f62\u5f0f", "2729": "\u6da8", "2730": "\u5bb6\u91cc\u4eba", "2731": "\u6b27\u6d32", "2732": "\u540e\u63f4\u4f1a", "2733": "\u94c1\u8def", "2734": "\u534f\u548c", "2735": "\u8d22\u65b0\u7f51", "2736": "\u97a0\u5a67", "2737": "\u794e", "2738": "\u6d3e", "2739": "\u7ec4\u6210", "2740": "\u7834\u574f", "2741": "\u7acb\u523b", "2742": "\u7248", "2743": "\u4eba\u4f53", "2744": "\u58f0", "2745": "\u6293\u4f4f", "2746": "\u5acc", "2747": "\u4e03\u70b9", "2748": "\u770b\u5f97", "2749": "\u6eda\u86cb", "2750": "\u5c0f\u5b69\u5b50", "2751": "\u5fc3\u614c", "2752": "\u6233", "2753": "\u85cf", "2754": "\u5b9e\u65bd", "2755": "\u6c88\u9633", "2756": "\u59d0\u59b9", "2757": "\u7537\u5b69", "2758": "\u8db3\u7403", "2759": "\u54c4", "2760": "\u7ec8\u7a76", "2761": "\u53cb\u60c5", "2762": "\u963b\u6b62", "2763": "\u6392\u961f", "2764": "\u6559\u8bad", "2765": "\u98ce\u683c", "2766": "\u81f4", "2767": "\u666e\u901a\u4eba", "2768": "\u8c08\u604b\u7231", "2769": "\u8fd9\u4efd", "2770": "\u4e16\u754c\u676f", "2771": "\u8001\u767e\u59d3", "2772": "\u4e00\u5e55", "2773": "MD", "2774": "\u524d\u5f80", "2775": "\u5546\u5bb6", "2776": "\u75c5\u6bd2\u6027", "2777": "\u6d17\u624b", "2778": "\u6c6a\u82cf", "2779": "\u6cf7", "2780": "ok", "2781": "\u50bb\u5b50", "2782": "\u773c\u524d", "2783": "\u95fa\u871c", "2784": "\u8bb2\u8bdd", "2785": "\u65e9\u996d", "2786": "\u7406", "2787": "\u4ea9", "2788": "\u964c\u751f", "2789": "\u8fd9\u70b9", "2790": "\u501f", "2791": "\u4e0d\u7b97", "2792": "\u4e00\u8f86", "2793": "\u4e0b\u8bfe", "2794": "\u5708", "2795": "\u4e0a\u5e8a", "2796": "\u533b\u5b66", "2797": "\u7535\u68af", "2798": "\u79d1\u6280", "2799": "\u67e5", "2800": "&", "2801": "\u8106\u5f31", "2802": "\u8bbe\u7f6e", "2803": "\u539f\u5219", "2804": "\u7a9d", "2805": "\u7ec4", "2806": "\u4efb\u4f55\u4eba", "2807": "\u6b22\u8fce", "2808": "\u7247", "2809": "\u5c41\u80a1", "2810": "\u5ba2\u8fd0", "2811": "\u9f13\u52b1", "2812": "\u7239", "2813": "\u8f7b\u6613", "2814": "\u5728\u7ebf", "2815": "\u5b9e\u9a8c\u5ba4", "2816": "\u5b88\u62a4", "2817": "--", "2818": "\u7981\u6b62", "2819": "\u4fdd\u5b88", "2820": "\u5468\u8fb9", "2821": "\u5168\u5e02", "2822": "\u6dfb\u9ebb\u70e6", "2823": "\u6682\u505c", "2824": "\u6a31\u82b1", "2825": "\u5c0f\u8fab\u513f", "2826": "\u6210\u5458", "2827": "\u89c9\u9192", "2828": "\u6253\u5361", "2829": "\u7a77", "2830": "\u6444\u5f71", "2831": "\u6362\u4e2a", "2832": "\u6b63\u662f", "2833": "\u501f\u53e3", "2834": "\u4e00\u7bc7", "2835": "\u4f60\u59b9", "2836": "\u516c\u5171", "2837": "\u6c34\u679c", "2838": "\u521b\u9020", "2839": "\u5bc4", "2840": "\u770b\u4e0d\u89c1", "2841": "\u6267\u884c", "2842": "\u5404\u4e2a", "2843": "\u5343\u4e07\u522b", "2844": "\u6551", "2845": "\u80ba", "2846": "\u63d0\u793a", "2847": "\u4e00\u6b21\u6027", "2848": "\u5416", "2849": "\u4e13\u95e8", "2850": "\uff0e", "2851": "\u96be\u4ee5", "2852": "\u6587\u4ef6", "2853": "\u505c\u8f66", "2854": "Mr", "2855": "\u535a\u8096", "2856": "\u7ba1\u8f76", "2857": "\u4f20\u64ad\u8005", "2858": "\u6570\u5b66", "2859": "\u6e05", "2860": "\u5176\u4ed6\u4eba", "2861": "\u8dd1\u6b65", "2862": "\u5e26\u7ed9", "2863": "\u62fc\u547d", "2864": "\ud83c\udffb", "2865": "\u4f20", "2866": "\u96c6\u56e2", "2867": "\u53d1\u4e86", "2868": "\u4e00\u5bf9", "2869": "\u65e0\u77e5", "2870": "\u548c\u8c10", "2871": "\u597d\u51e0\u4e2a", "2872": "\u5b89\u5168\u611f", "2873": "\u6c7d\u8f66", "2874": "\u9700", "2875": "\u53d1\u6cc4", "2876": "\u542c\u89c1", "2877": "\u518d\u8bf4", "2878": "\u5fc3\u7075", "2879": "\u7533\u8bf7", "2880": "\u597d\u5fc3", "2881": "\u5f81\u96c6", "2882": "\u4fbf\u5b9c", "2883": "\u53eb\u505a", "2884": "\u7cfb\u5217", "2885": "\u6709\u9650\u516c\u53f8", "2886": "\u54c6", "2887": "\u5206\u5f00", "2888": "\u952e\u76d8", "2889": "\u8fdb\u6b65", "2890": "\u706b\u9505", "2891": "\u65e9\u5df2", "2892": "\u897f\u5b89", "2893": "\u9002\u5e94", "2894": "c", "2895": "\u7ec6\u8282", "2896": "\u4e00\u4e2a\u591a", "2897": "\u5b87\u5b99", "2898": "\u597d\u5947", "2899": "\u81ea\u884c", "2900": "\u5206\u79bb", "2901": "\u535a\u4e3b", "2902": "\u76f4\u51fb", "2903": "\u9ec4\u5188", "2904": "\u8fc7\u5206", "2905": "\u51fa\u79df\u8f66", "2906": "\u4fdd\u5b89", "2907": "\u4e00\u7cfb\u5217", "2908": "\u4e0d\u6765", "2909": "\u5988\u4e2a", "2910": "\u7269\u6d41", "2911": "\u6728\u6709", "2912": "\u8d74", "2913": "\u771f\u8bda", "2914": "\u6311\u6218", "2915": "28", "2916": "\u4f55\u5fc5", "2917": "\u4e8b\u4e1a", "2918": "\u573a\u6240", "2919": "\u6d4b\u8bd5", "2920": "\u62c6", "2921": "\u798f", "2922": "\u90a3\u4e00\u523b", "2923": "\u592a\u5feb", "2924": "\u5c5e", "2925": "\u578b", "2926": "\u5feb\u5feb", "2927": "\u505a\u4e2a", "2928": "\u5730\u7403", "2929": "\u7897", "2930": "\u5fc3\u60f3", "2931": "\u63a5\u5230", "2932": "\u5c06\u8fd1", "2933": "\u5e7f\u5927", "2934": "\u6253\u6270", "2935": "\u67aa\u6bd9", "2936": "\u5de6", "2937": "\u8db3", "2938": "\u5706\u901a", "2939": "\u6da8\u4ef7", "2940": "\u65b0\u7586", "2941": "\u5475", "2942": "\u9ad8\u8003", "2943": "\u961f", "2944": "\u4e0b\u8f66", "2945": "\u7c7b", "2946": "\u53d1\u75c5", "2947": "\u4f20\u67d3\u6027", "2948": "\u597d\u68d2", "2949": "\u4e16\u536b", "2950": "\u59e5\u7237", "2951": "\u5efa\u6a21", "2952": "\u8b66\u60d5", "2953": "\u9ed1\u7ebf", "2954": "\u4ece\u5c0f", "2955": "\u6b63\u597d", "2956": "\u5357", "2957": "\u8f66\u7ad9", "2958": "\u590d\u4e60", "2959": "\u5f53\u4e0b", "2960": "\u5165\u7761", "2961": "\u4e0d\u77e5\u4e0d\u89c9", "2962": "\u957f\u671f", "2963": "\u9ed1\u9f99\u6c5f", "2964": "\u5149", "2965": "\u800d", "2966": "\u5466", "2967": "\u94b1\u5305", "2968": "P", "2969": "\u98ce\u666f", "2970": "\u539f", "2971": "\u5145\u7535", "2972": "\u5f97\u4e0d\u5230", "2973": "\u9759\u9759", "2974": "\u5927\u9646", "2975": "\u7559\u5728", "2976": "\u53f3", "2977": "\u7537\u5b50", "2978": "\u5929\u5450", "2979": "\u6cd5", "2980": "\u6000\u5ff5", "2981": "\u9999", "2982": "\u7f8e\u98df", "2983": "\u5408\u7406", "2984": "\u4e00\u65e9", "2985": "\u60c5\u4fa3", "2986": "\u5b9e\u884c", "2987": "\u529e\u4e8b", "2988": "\u4fee", "2989": "\u6ce1", "2990": "\u80d6\u5b50", "2991": "\u4e00\u6bb5\u65f6\u95f4", "2992": "\u2460", "2993": "\u6a21\u7cca", "2994": "\u4e0d\u7231", "2995": "\u533b\u7597\u673a\u6784", "2996": "\u73a9\u610f", "2997": "\u4e0d\u8bf4", "2998": "\u7f62\u4e86", "2999": "\u5f88\u96be", "3000": "\u5927\u5b66\u751f", "3001": "\u95fa\u5973", "3002": "\u5f88\u68d2", "3003": "\u6df1", "3004": "\u8f66\u4e0a", "3005": "\u6d6a", "3006": "\u4f20\u9012", "3007": "\u4e00\u9053", "3008": "\u5398\u7c73", "3009": "\u65ad", "3010": "\u62ef\u6551", "3011": "\u7fa4", "3012": "\u6e20\u9053", "3013": "\u8fbd\u5b81", "3014": "\u6551\u6551", "3015": "\u738b\u6e90", "3016": "\u6307\u6325\u90e8", "3017": "\u5ef6\u671f", "3018": "\u62ff\u4e0b", "3019": "\u5f00\u653e", "3020": "\u6709\u9650", "3021": "\u5305\u5b50", "3022": "\u70e6\u4eba", "3023": "\u516c\u5e73", "3024": "\u6361", "3025": "\u95f9\u5fc3", "3026": "\u5e7f\u573a", "3027": "\u62e5\u62b1", "3028": "\u4e00\u5957", "3029": "\u9650\u5236", "3030": "\u5145\u5b9e", "3031": "\u5347\u7ea7", "3032": "\u6625\u5929", "3033": "\u4e0d\u9760", "3034": "\u72d7\u72d7", "3035": "\u8868\u9762", "3036": "\u53d1\u813e\u6c14", "3037": "\u7231\u4eba", "3038": "\u7279\u8272", "3039": "\u88c5\u4fee", "3040": "\u65e0\u8bba\u662f", "3041": "\u4e94\u5e74", "3042": "\u8bf4\u5b9e\u8bdd", "3043": "\u620f", "3044": "\u7a7f\u7740", "3045": "\u9e7f\u6657", "3046": "\u53e5", "3047": "\u5bc2\u5bde", "3048": "\u56e2", "3049": "\u653e\u5927", "3050": "\u2744", "3051": "\u4e0a\u5929", "3052": "\u535a\u58eb", "3053": "\u5904\u4e8e", "3054": "\u5047\u671f", "3055": "\u5fae\u535a\u4e0a", "3056": "\u8170", "3057": "\u9762\u8bd5", "3058": "\u7cfb", "3059": "\u50bb\u773c", "3060": "\u610f\u5473\u7740", "3061": "\u591a\u5929", "3062": "\u8d28\u7591", "3063": "\u5176\u5b83", "3064": "\u81f3\u4e8e", "3065": "\u6ca1\u5230", "3066": "\u6700\u7231", "3067": "\u4e3e\u62a5", "3068": "\u65b9\u6848", "3069": "\u5c11\u53bb", "3070": "\u533b\u52a1", "3071": "\u7f9e\u55d2", "3072": "\u7279\u70b9", "3073": "\u5f8b\u5e08", "3074": "\u6f2b\u753b", "3075": "\u6d41\u6cea", "3076": "\u6253\u4e2a", "3077": "\u4ebf\u5143", "3078": "\u521d", "3079": "\u7ffb\u8bd1", "3080": "\u867d", "3081": "\u5f3a\u70c8", "3082": "\u672c\u4eba", "3083": "\u5c06\u6765", "3084": "\u8ff7\u832b", "3085": "\u5bb6\u5c5e", "3086": "\u5f3a\u5978", "3087": "\u5438\u5f15", "3088": "\u8fd9\u4e48\u665a", "3089": "70%", "3090": "\u4e0a\u5e1d", "3091": "\u5348\u4f11", "3092": "\u8be6\u7ec6", "3093": "\u8ba1\u8f83", "3094": "\u53cd\u590d", "3095": "\u5927\u5c0f", "3096": "\u62a5\u8b66", "3097": "\u60b2\u54c0", "3098": "\u6076\u610f", "3099": "\u88ab\u76d7", "3100": "\u56de\u62a5", "3101": "\u592a\u68d2\u4e86", "3102": "\u597d\u542c", "3103": "\u91dc\u5c71", "3104": "\u725b\u8089", "3105": "\u5934\u75db", "3106": "\u4fdd\u5b58", "3107": "\u7a0d\u5fae", "3108": "\u65e0\u9650", "3109": "\u4ece\u672a", "3110": "\u7269\u8d28", "3111": "\u515a", "3112": "\u964d\u4f4e", "3113": "\u6559\u5e08", "3114": "\u601d\u7ef4", "3115": "\u6211\u6765", "3116": "\u4e4b\u4e2d", "3117": "\u4e3b\u9898", "3118": "\u8fdb\u4e00\u6b65", "3119": "\u9ad8\u5ea6", "3120": "\u4f9d\u9760", "3121": "\u4eba\u5fc3\u60f6\u60f6", "3122": "\u63e1\u624b", "3123": "\u4e0a\u6f14", "3124": "\u90d1\u723d", "3125": "\u6211\u5927", "3126": "\u4e0d\u9002", "3127": "\u8513\u5ef6", "3128": "\u5916\u79d1", "3129": "\u4e71\u8dd1", "3130": "2019", "3131": "\u806a\u660e", "3132": "\u906d", "3133": "\u8116\u5b50", "3134": "\u4e0d\u7406", "3135": "\u4e0d\u597d\u610f\u601d", "3136": "\u4e0d\u660e", "3137": "\u900f\u660e", "3138": "M", "3139": "\u523a\u6fc0", "3140": "\u521d\u96ea", "3141": "\u8bf7\u5047", "3142": "\u66f0", "3143": "\u7b54\u5e94", "3144": "2010", "3145": "\u8d44\u683c", "3146": "\u5c0f\u59d0", "3147": "\u884c\u4e1a", "3148": "\u4e94", "3149": "\u5373\u4fbf", "3150": "\u505c\u4e0d\u4e0b\u6765", "3151": "\u4e0d\u80af", "3152": "\u505c\u7559", "3153": "\u4e34\u5e8a", "3154": "\u91c7\u8bbf", "3155": "\u5f00\u73a9\u7b11", "3156": "\u953b\u70bc", "3157": "\u8e0f\u5b9e", "3158": "\u522b\u8bf4", "3159": "\u826f\u5fc3", "3160": "\u516c\u4e3b", "3161": "\u6323\u94b1", "3162": "\u6781\u5ea6", "3163": "\u7529", "3164": "\u4f5c\u8005", "3165": "\u5f00\u5f00\u5fc3\u5fc3", "3166": "\u987f\u65f6", "3167": "\u95ee\u95ee", "3168": "\u73b0\u6709", "3169": "\u8f9c\u8d1f", "3170": "\u65e0\u80fd\u4e3a\u529b", "3171": "\u5154", "3172": "\u7530", "3173": "\u5f53\u524d", "3174": "\u901a\u5e38", "3175": "\u4e2d\u56fd\u961f", "3176": "\u56fd\u5916", "3177": "\u75ab\u82d7", "3178": "\u5927\u5988", "3179": "\u6c5f\u5b81", "3180": "A6vBv3yL", "3181": "\u6323\u624e", "3182": "\u624b\u6bb5", "3183": "2006", "3184": "\u6478", "3185": "\u6de1\u5b9a", "3186": "\u719f", "3187": "\u6240\u5728", "3188": "\u9ed1\u8272", "3189": "\u8981\u8bf4", "3190": "\u6210\u672c", "3191": "\u9119\u89c6", "3192": "\u7ed9\u4e88", "3193": "\u4e71\u4e03\u516b\u7cdf", "3194": "\u591a\u4e2a", "3195": "\u76f8\u5dee", "3196": "\u5a4a", "3197": "\u80c6\u602f", "3198": "\u817e\u8baf", "3199": "\u7406\u60f3", "3200": "\u591c\u91cc", "3201": "\u6cf0\u56fd", "3202": "\u6bcf\u5929\u665a\u4e0a", "3203": "\ud83d\ude33", "3204": "\u9053\u8def", "3205": "\ud83c\udf82", "3206": "\u706f", "3207": "\u6570", "3208": "\u4ea4\u6613", "3209": "\u5ff5", "3210": "\u5594", "3211": "\u7b26\u5408", "3212": "\u4ee4", "3213": "\u6765\u56de", "3214": "\u4e86\u4e0d\u8d77", "3215": "\u68ee\u6797", "3216": "\u5fc3\u70e6", "3217": "\u4e3b\u5e2d", "3218": "\u6b32\u671b", "3219": "\u7075\u9b42", "3220": "\u5317", "3221": "\u5148\u8fdb", "3222": "\u5b8c\u6574", "3223": "\u6562\u4e0d\u6562", "3224": "\u8003\u7814", "3225": "\u6572", "3226": "\u8fd9\u4e00", "3227": "\u4e2a\u522b", "3228": "\u63d0\u5347", "3229": "\u9053\u5fb7", "3230": "\u973e", "3231": "\u5473", "3232": "\u7206\u68da", "3233": "\u5e7b\u60f3", "3234": "\u96c6\u4e2d", "3235": "\u5e26\u4e0a", "3236": "\u8fc7\u5ea6", "3237": "\u9001\u7ed9", "3238": "\u597d\u4e8b", "3239": "\u8d77\u7801", "3240": "\u8fd9\u65f6\u5019", "3241": "\u6ee1\u6ee1", "3242": "\u836f\u5e97", "3243": "\u5a31\u4e50", "3244": "\u4e24\u79cd", "3245": "\u4e4b\u5916", "3246": "\u76d1\u7763", "3247": "\u4f53\u6e29", "3248": "\u7701\u7ea7", "3249": "\u540c\u884c", "3250": "\u70ed\u5df4", "3251": "\u4f24\u533b", "3252": "Do", "3253": "\u767b\u8bb0", "3254": "\u62cd\u6444", "3255": "\u5b81\u613f", "3256": "\u82f1\u6587", "3257": "\u5c0f\u4e8b", "3258": "\u4e00\u500b", "3259": "\u6709\u8da3", "3260": "\u6587\u660e", "3261": "\u786c", "3262": "\u8fdc\u8fdc", "3263": "\u4e24\u53ea", "3264": "\u54b1", "3265": "00", "3266": "\u6559\u5b66", "3267": "\u7f8e\u5973", "3268": "\u6709\u7740", "3269": "\u5185\u90e8", "3270": "\u5212", "3271": "\u75bc\u75db", "3272": "\u771f\u7279", "3273": "\u53bb\u4e16", "3274": "\u5047\u88c5", "3275": "\u7ebf\u7d22", "3276": "\u5230\u6765", "3277": "\u63a5\u8fd1", "3278": "\u5927\u96e8", "3279": "\u89c2\u4f17", "3280": "\u516c\u56ed", "3281": "\u7238\u7238\u5988\u5988", "3282": "\u9e1f", "3283": "\u4e0d\u8db3", "3284": "\u6123", "3285": "\u2462", "3286": "\u5927\u96ea", "3287": "\u51b7\u6f20", "3288": "\u53d1\u5e03\u4f1a", "3289": "\u5148\u662f", "3290": "\u4e00\u672c", "3291": "\u73ab\u7470", "3292": "\u8857\u9053", "3293": "\u4eba\u6c11\u653f\u5e9c", "3294": "\u66b4\u529b", "3295": "n", "3296": "\u5341\u4e8c\u70b9", "3297": "\u7c7b\u578b", "3298": "\u5ef6\u8fdf", "3299": "\u5404\u81ea", "3300": "\u62bd\u70df", "3301": "\u5f71\u7247", "3302": "\u76fc", "3303": "\u592a\u4e45", "3304": "\u4e70\u5355", "3305": "\u5929\u4f7f", "3306": "\u5341\u4e00", "3307": "\u5a01\u6b66", "3308": "\u96be\u5173", "3309": "\u5206\u522b", "3310": "\u4e0d\u5e26", "3311": "\u7948\u798f", "3312": "\u6234\u4e0a", "3313": "\u5c0f\u6c64\u5c71", "3314": "\u4ea4\u53c9\u611f\u67d3", "3315": "\u592e\u89c6\u6625\u665a", "3316": "\u76d1\u63a7", "3317": "\u6e05\u6668", "3318": "\u6c11\u65cf", "3319": "\u5377", "3320": "\u575a\u5b9a", "3321": "\u60c5\u5546", "3322": "\u5927\u8857", "3323": "\u75c7", "3324": "\u6696\u6696\u7684", "3325": "\u6b64\u5916", "3326": "\u597d\u56f0", "3327": "\u524d\u8fdb", "3328": "\u4e09\u904d", "3329": "\u7535\u5b50", "3330": "\u53ea\u4e0d\u8fc7", "3331": "\u4fbf\u662f", "3332": "\u597d\u591a\u597d\u591a", "3333": "\u4e0d\u5229", "3334": "\u62c5\u4efb", "3335": "\u5c45\u5bb6", "3336": "\u592b\u59bb", "3337": "\u70ba", "3338": "\u4e11\u964b", "3339": "\u53d6", "3340": "\u5229\u76ca", "3341": "\u6982\u5ff5", "3342": "\u8d76\u5feb", "3343": "\u6c92", "3344": "\u731c", "3345": "\u6392\u540d", "3346": "\u5f02\u5e38", "3347": "\u5927\u6e05\u65e9", "3348": "\u7a97\u5916", "3349": "\u4e61", "3350": "\u73b0\u4ee3", "3351": "\u5c0f\u5bb6\u4f19", "3352": "\u5076\u50cf", "3353": "\u8bd5\u8bd5", "3354": "\u6263", "3355": "\u6ca1\u5173\u7cfb", "3356": "\u5a03", "3357": "\u81f3\u4eca", "3358": "\u76f8\u7231", "3359": "\u538b\u6291", "3360": "\u9ec4", "3361": "\u7b28", "3362": "\u8010\u9ad8\u6e29", "3363": "\u7247\u5b50", "3364": "\u64ad\u653e", "3365": "\u4e0d\u6613", "3366": "\u5f53\u9009", "3367": "\u5bb6\u4e61", "3368": "\u516c\u544a", "3369": "\u770b\u75c5", "3370": "\u5954\u817e", "3371": "\u7efc\u5408", "3372": "L", "3373": "\u7701\u957f", "3374": "\u4f69\u6234", "3375": "\u6392\u67e5", "3376": "\u8d77\u8df3", "3377": "\u6218\u53cb", "3378": "\u5927\u5e74\u521d\u4e00", "3379": "\u8fea\u4e3d", "3380": "\u5a5a\u59fb", "3381": "\u624b\u4e0a", "3382": "\u5f3a\u5236", "3383": "\u4e03", "3384": "\u533a\u57df", "3385": "\u94fe", "3386": "\u795e\u7ecf", "3387": "\u663e\u5f97", "3388": "\u8d5a\u94b1", "3389": "\u9694", "3390": "\u7761\u4e00\u89c9", "3391": "\u810f\u8bdd", "3392": "\u6574", "3393": "\u7b80\u4ecb", "3394": "\u638c\u63e1", "3395": "\u8111\u5b50\u91cc", "3396": "\u5e38", "3397": "70", "3398": "\u54a9", "3399": "\u964c\u751f\u4eba", "3400": "\u4e00\u4eba", "3401": "\u534f\u4f1a", "3402": "\u57fa\u5730", "3403": "\u60f3\u8fc7", "3404": "\u5c3f", "3405": "\u73a9\u513f", "3406": "\u54ea\u6765", "3407": "\u8650", "3408": "\u7535", "3409": "\u5f00\u95e8", "3410": "\u2795", "3411": "\u725b\u5976", "3412": "\u5e05\u6c14", "3413": "\u6ca6\u9677", "3414": "\u5de5\u4e1a", "3415": "\u9003\u907f", "3416": "\u76f8\u4e92", "3417": "\u540c\u4e00\u4e2a", "3418": "\u60f6\u6050\u4e0d\u5b89", "3419": "\u96f6", "3420": "\u62c5\u5fe7", "3421": "\u6865", "3422": "\u4eba\u6e23", "3423": "\u8f66\u8f86", "3424": "\u96fe", "3425": "\u9633\u53f0", "3426": "\u00d7", "3427": "\u8001\u5929", "3428": "\u51bb", "3429": "\u843d\u5b9e", "3430": "800", "3431": "\u7f3a", "3432": "\u4e00\u67b6", "3433": "\u5916\u5730", "3434": "\u8bed\u97f3", "3435": "\u62fd", "3436": "\u5404\u7c7b", "3437": "\u4ece\u6b64", "3438": "\u56e7", "3439": "\u7ca5", "3440": "\u6c14\u70b8", "3441": "\u5348\u996d", "3442": "\ud83d\udc4f", "3443": "\u8fdb\u7403", "3444": "\u53bf\u57ce", "3445": "WHO", "3446": "\u4e32\u95e8", "3447": "\u8bd7\u6717\u8bf5", "3448": "\u4e0d\u4fe1\u8c23", "3449": "\u66b4\u8e81", "3450": "\u5de5\u7a0b", "3451": "\u4eb2\u4eba", "3452": "\u5218\u6d77", "3453": "\u4e00\u5ea7", "3454": "\u826f\u597d", "3455": "\u4e07\u4e00", "3456": "\u773c\u91cc", "3457": "\u654f\u611f", "3458": "\u9053\u6b49", "3459": "\u8bfe\u7a0b", "3460": "\u96c6", "3461": "\u4ec0\u9ebc", "3462": "\u6210\u5c31", "3463": "\u80a1\u7968", "3464": "\u987e\u5ba2", "3465": "\u9a91", "3466": "\u538b", "3467": "\u955c\u5b50", "3468": "\u82b1\u94b1", "3469": "xxx", "3470": "\u903b\u8f91", "3471": "\u60ca", "3472": "\u60f6\u6050", "3473": "\u90a3\u65f6", "3474": "\u7761\u5f97", "3475": "\u771f\u4e0d\u77e5\u9053", "3476": "\u561e", "3477": "\u9002\u5f53", "3478": "\u5165", "3479": "\u7f18\u5206", "3480": "\u53bb\u6b7b\u5427", "3481": "\u62ac\u5934", "3482": "N", "3483": "\u597d\u5904", "3484": "\u5200", "3485": "\u76f8\u9047", "3486": "\u6674\u5929", "3487": "\u4e00\u5206\u949f", "3488": "\u76f8", "3489": "\u5236\u4f5c", "3490": "\u5305\u88c5", "3491": "\u9003", "3492": "\u5b9e\u4e60", "3493": "\u6210\u679c", "3494": "\u597d\u73a9", "3495": "\u524d\u5929", "3496": "\u55b7", "3497": "\u5f62\u5bb9", "3498": "\u6d88\u5316", "3499": "\u6b3a\u9a97", "3500": "\u8bcd", "3501": "\u53d1\u6325", "3502": "\u6df1\u523b", "3503": "\u5f52", "3504": "\u6837", "3505": "\u65e0\u9700", "3506": "\u745f\u745f", "3507": "\u539a", "3508": "\u5e94\u7528", "3509": "\u8425\u517b", "3510": "60%", "3511": "\u51fa\u9662", "3512": "\u666f\u533a", "3513": "\u6069\u7231", "3514": "\u6f14", "3515": "\u7535\u52a8\u8f66", "3516": "\u5403\u836f", "3517": "\u6574\u4f53", "3518": "\u7537\u6027", "3519": "\u635f\u5931", "3520": "\u5f00\u5b66", "3521": "\u6bcf\u65e5", "3522": "\u9a91\u8f66", "3523": "\u5bf9\u8bdd", "3524": "\u5b58", "3525": "\u597d\u53cb", "3526": "\u7eb3\u5165", "3527": "\u6fa1", "3528": "\u727a\u7272", "3529": "\u8001\u5bb6", "3530": "\u6765\u4e0d\u53ca", "3531": "\u84dd", "3532": "\u561a", "3533": "\u6551\u547d", "3534": "\u536b\u751f\u9632\u62a4", "3535": "\u9632\u62a4\u670d", "3536": "R1SE", "3537": "\u963f\u4e91\u560e", "3538": "\u75ab\u533a", "3539": "\u6b64\u65f6\u6b64\u523b", "3540": "\u7acb\u5373", "3541": "\u5220\u9664", "3542": "\u7ec6\u80de", "3543": "\u6ee1", "3544": "\u7ffb\u6765\u8986\u53bb", "3545": "\u53a6\u95e8", "3546": "\u53d1\u4e2a", "3547": "\u8f6c\u79fb", "3548": "\u60f3\u4e0d\u5230", "3549": "\u7b2c\u4e09\u6b21", "3550": "\u69fd", "3551": "\u7a7a", "3552": "\u7ffb\u51fa\u6765", "3553": "\u7fa4\u91cc", "3554": "\u5939", "3555": "\u73bb\u7483", "3556": "\u6068\u4e0d\u5f97", "3557": "35", "3558": "\u573a", "3559": "\u624b\u6307", "3560": "\u8d8a\u662f", "3561": "\u7a81\u7834", "3562": "\u6d3b\u8be5", "3563": "\u65e0\u654c", "3564": "\u61d2\u5f97", "3565": "\u9677\u5165", "3566": "\u5e26\u8d70", "3567": "\u9752\u5e74", "3568": "\u4eba\u6709", "3569": "b", "3570": "\u00b0", "3571": "29", "3572": "\u9047\u4e0a", "3573": "\u7814\u7a76\u751f", "3574": "\u4e00\u5c0f", "3575": "\u505c\u7535", "3576": "\u9057\u5fd8", "3577": "\u2022", "3578": "\u5543", "3579": "\u4e00\u9635", "3580": "\u665a\u4f1a", "3581": "\u8bad\u7ec3", "3582": "\u2461", "3583": "\u5947\u8ff9", "3584": "\u5b64\u5355", "3585": "\u5185\u8499\u53e4", "3586": "\u9505", "3587": "\u5927\u5927\u7684", "3588": "\u4e2a\u5934", "3589": "\u5e9f", "3590": "\u89c4\u5f8b", "3591": "\u9910\u5385", "3592": "\u65e9\u4e0a\u597d", "3593": "\u8425\u9500", "3594": "\u767d\u8272", "3595": "\u6e05\u7406", "3596": "\u9ec4\u91d1", "3597": "\u4e25\u683c", "3598": "\u6267\u7740", "3599": "\u5957", "3600": "\u987b", "3601": "\u5b81\u6ce2", "3602": "\u5c55\u5f00", "3603": "\u8868\u660e", "3604": "\u8d8a\u8fc7", "3605": "\u91d1", "3606": "\u8ddd", "3607": "\u7b2c\u4e00\u573a", "3608": "\u4e0a\u62a5", "3609": "\u5de5\u4f5c\u91cf", "3610": "\u957f\u9014", "3611": "\u200d", "3612": "\u54d0", "3613": "\u52a9\u529b", "3614": "\u5b66\u5b66", "3615": "\u4e25\u91cd\u6027", "3616": "\u9f20\u5e74", "3617": "\u968f\u610f", "3618": "\u60c5", "3619": "\u4e25\u8083", "3620": "\u904d", "3621": "\u5976\u7c89", "3622": "\u6e34\u671b", "3623": "\u5927\u5e08", "3624": "\u77db\u76fe", "3625": "\u642c", "3626": "\u7275\u6302", "3627": "\u6838\u5fc3", "3628": "\u2299", "3629": "\u7406\u6027", "3630": "\u4e00\u5bb6\u4eba", "3631": "\u4e24\u4eba", "3632": "\u5927\u8fde", "3633": "\u8bb0\u6027", "3634": "\ud83d\ude0a", "3635": "\u5177\u5907", "3636": "\u76d6", "3637": "\u5c4b\u91cc", "3638": "\u901b\u8857", "3639": "\u4e0d\u4e45", "3640": "\u4ec5", "3641": "\u4e0d\u4e0b", "3642": "\u7cbe\u529b", "3643": "\u4e00\u5934", "3644": "\u574f\u4eba", "3645": "\u8857", "3646": "\u9700\u6c42", "3647": "\u56e0\u7d20", "3648": "\u79f0\u4e3a", "3649": "\u4ece\u524d", "3650": "\u5bf9\u6bd4", "3651": "\u5c11\u5973\u65f6\u4ee3", "3652": "\u4f9b\u6696", "3653": "\u540e\u6015", "3654": "\u8981\u4e0d\u662f", "3655": "\u627f\u8bfa", "3656": "\u5403\u9971", "3657": "\u5929\u7a7a", "3658": "\u9014\u5f84", "3659": "\u79d1\u5b66\u5bb6", "3660": "T", "3661": "\u961f\u4f0d", "3662": "\u6ca1\u5b8c\u6ca1\u4e86", "3663": "\u676f\u5b50", "3664": "\u9762\u5305", "3665": "\u50ac\u4fc3", "3666": "\u4e0a\u5e8a\u7761\u89c9", "3667": "\u6297", "3668": "\u7ef4\u62a4", "3669": "\u7eb8", "3670": "\u59e5\u59e5", "3671": "\u8f9e\u804c", "3672": "\u6d41\u52a8", "3673": "\u7279\u610f", "3674": "\u5927\u4f17", "3675": "\u575a\u51b3", "3676": "\u8eab\u4efd\u8bc1", "3677": "\u5f62\u8c61", "3678": "\u6d4e\u5357", "3679": "\u5e86\u5e78", "3680": "\u6742\u5fd7", "3681": "\u5730\u6b65", "3682": "\u4f1a\u8ba1", "3683": "\u54c8\u6b20", "3684": "\u5b59", "3685": "\u9009\u624b", "3686": "\u5618", "3687": "\u5de8\u4eba", "3688": "\u5316\u5986\u54c1", "3689": "\u7ba1\u597d", "3690": "\u7701\u5e02", "3691": "\u4e13\u5bb6\u7ec4", "3692": "sars", "3693": "\u6073\u6c42", "3694": "\u4ea4\u901a\u8fd0\u8f93", "3695": "\u73b0", "3696": "\u516c\u6c11", "3697": "\u5f71\u5b50", "3698": "\u80dc\u5229", "3699": "\u7406\u667a", "3700": "\u518d\u6709", "3701": "\u543c", "3702": "300", "3703": "\u592a\u5927", "3704": "\u90bb\u5c45", "3705": "\u5207", "3706": "\u559c", "3707": "\u7ec3\u4e60", "3708": "\u5f71\u54cd\u529b", "3709": "\u5c4c", "3710": "\u66f4\u6362", "3711": "\u65b9", "3712": "\u6570\u91cf", "3713": "\u5206\u4e3a", "3714": "\u4e00\u6839", "3715": "\u5fcd\u4f4f", "3716": "\u7ed9\u6211\u53d1", "3717": "\u5357\u5b81", "3718": "\u4e89\u53d6", "3719": "\u8fd0\u884c", "3720": "\u51fa\u7248", "3721": "\u8003\u9a8c", "3722": "\u5fc3\u788e", "3723": "\u6781\u5176", "3724": "\u5938\u5f20", "3725": "\u76f8\u540c", "3726": "\u4e00\u523b", "3727": "\u7a0b\u5e8f", "3728": "\u543e", "3729": "\u6446", "3730": "\u5589\u5499", "3731": "\u5929\u4eae", "3732": "\u70df", "3733": "\u4e8b\u7269", "3734": "\u9ad8\u7ea7", "3735": "\u6fc0\u60c5", "3736": "\u5b89\u5229", "3737": "\u4e24\u70b9", "3738": "\u6c89\u91cd", "3739": "\u5403\u4e2a", "3740": "\u4e24\u4e09\u4e2a", "3741": "\u773c\u778e", "3742": "\u4e0a\u5347", "3743": "\u8131\u79bb", "3744": "\u592a\u8fc7\u5206", "3745": "\u8f66\u53a2", "3746": "\u65e0\u4eba", "3747": "\u60e9\u7f5a", "3748": "\u5bb6\u4e2d", "3749": "V", "3750": "\u5468\u4e00", "3751": "\u4e00\u4e1d", "3752": "\u5e95\u7ebf", "3753": "\u56fd\u8db3", "3754": "\u964d\u6e29", "3755": "\u597d\u8f6c", "3756": "\u516b\u70b9", "3757": "\u7231\u4e0a", "3758": "\u9020\u578b", "3759": "\u770b\u4f3c", "3760": "\u6492", "3761": "\u4e3a\u4e3b", "3762": "\u822a\u73ed", "3763": "\u535a", "3764": "\u51c9", "3765": "\u7597\u6cd5", "3766": "\u8fd9\u7fa4", "3767": "\u677f", "3768": "\u65e0\u79c1", "3769": "\u6392\u9664", "3770": "\u6253\u8138", "3771": "\u804c\u5de5", "3772": "\u6218\u4e89\u53f2", "3773": "WHS", "3774": "\u5df2\u81f4", "3775": "\u5c01\u5835", "3776": "\u5168\u9762\u94fa\u5f00", "3777": "\u5927\u8fc7\u5e74", "3778": "\u5eb7\u8f89", "3779": "\u4e07\u4f17\u4e00\u5fc3", "3780": "\u5965\u6b21", "3781": "\u5b55\u5987", "3782": "\u7978\u5bb3", "3783": "\u5e02\u653f\u5e9c", "3784": "\u706b\u7bad", "3785": "\u7684\u786e", "3786": "\u76d2\u5b50", "3787": "\u62d6\u5ef6", "3788": "\u53ec\u5f00", "3789": "\u503c", "3790": "\u76d7", "3791": "\u73a9\u800d", "3792": "\u6a21\u6837", "3793": "\u6784\u6210", "3794": "\u843d", "3795": "\u8001\u5927", "3796": "\u8fc7\u751f\u65e5", "3797": "\u76f8\u5bf9", "3798": "\u4eca\u540e", "3799": "\u4e3b", "3800": "\u4e5d", "3801": "\u770b\u7535\u89c6", "3802": "\u72c2", "3803": "\u65b0\u9c9c", "3804": "\u865a\u4f2a", "3805": "\u60c5\u8282", "3806": "\u821e\u53f0", "3807": "\u8d44\u672c", "3808": "\u7537\u53cb", "3809": "32", "3810": "\u897f\u85cf", "3811": "\u5e72\u8106", "3812": "\u6d4b\u91cf", "3813": "\u7c97", "3814": "\u610f\u89c1", "3815": "\u6821\u56ed", "3816": "\u8c03", "3817": "\u722c\u8d77\u6765", "3818": "\u6f2b\u957f", "3819": "\u503c\u73ed", "3820": "\u60b2\u5267", "3821": "\u4e0b\u964d", "3822": "\u9898", "3823": "\u5927\u795e", "3824": "\u4e00\u5c81", "3825": "\u5165\u51ac", "3826": "\u773c\u955c", "3827": "\u86c7", "3828": "\u5348\u89c9", "3829": "\u6f14\u51fa", "3830": "\u7ec3", "3831": "\u5171\u6709", "3832": "\u8eab\u4e3a", "3833": "\u52c9\u5f3a", "3834": "\u4e50", "3835": "\u8c46\u6d46", "3836": "\u5931\u843d", "3837": "\u5938", "3838": "\u5904\u7f5a", "3839": "\u4e0d\u914d", "3840": ">", "3841": "\u52e4", "3842": "\u4f53\u7cfb", "3843": "\u8bb0", "3844": "\ud83d\udca3", "3845": "\u7279\u5f81", "3846": "\u5e7f\u6cdb", "3847": "\u514b\u670d", "3848": "\u8eab\u4efd", "3849": "\u4fe1\u53f7", "3850": "\u5230\u5bb6", "3851": "\u4eb2\u60c5", "3852": "\u53ca\u5176", "3853": "\u7ea7\u522b", "3854": "\u53d1\u8d77", "3855": "amp", "3856": "\u8d70\u5411", "3857": "\u62db\u6536", "3858": "\u8857\u4e0a", "3859": "\u8bc4\u4f30", "3860": "\u6c42\u52a9", "3861": "36", "3862": "\u4e2d\u836f", "3863": "\u95ed\u4e0a", "3864": "\u5145\u8db3", "3865": "\u5408\u5f71", "3866": "\u4e00\u65f6", "3867": "\u5371\u673a", "3868": "\u56fd\u4eba", "3869": "\u536b", "3870": "\u795d\u613f", "3871": "\u6cb3\u5357\u7701", "3872": "\u5c3d\u91cf\u51cf\u5c11", "3873": "\u6350", "3874": "\u6025\u6025", "3875": "\u57c3", "3876": "\u8d3a", "3877": "\u7ea2\u6885", "3878": "\u4e0d\u51c6", "3879": "\u63cf\u8ff0", "3880": "\u4e00\u4e0d\u5c0f\u5fc3", "3881": "\u56db\u5929", "3882": "\u6c99\u53d1", "3883": "o", "3884": "\u6216\u662f", "3885": "\u5c3d\u7ba1", "3886": "\u83b7", "3887": "\u80f3\u818a", "3888": "\u6cea\u6d41\u6ee1\u9762", "3889": "\u5343\u91cc", "3890": "\u5730\u5740", "3891": "\u8bf4\u4e0d\u51fa", "3892": "\u6ef4\u6ef4", "3893": "\u840c\u840c", "3894": "\u61d2", "3895": "\u770b\u597d", "3896": "\u6211\u5fc3", "3897": "\u76f8\u4f3c", "3898": "\u4e0d\u5f97\u4e86", "3899": "\u724c\u5b50", "3900": "\u5348\u540e", "3901": "\u521b\u610f", "3902": "\u6050\u6016\u5206\u5b50", "3903": "\u7f16\u5267", "3904": "\u8d1d", "3905": "\u667a\u80fd", "3906": "\u53d1\u5fae\u535a", "3907": "\u5f88\u70e6", "3908": "\u56db\u70b9", "3909": "\u4e94\u70b9", "3910": "\u597d\u611f", "3911": "\u60b2", "3912": "\u8bc1\u636e", "3913": "\u8865\u5145", "3914": "\u5e73\u6de1", "3915": "\u4e50\u89c2", "3916": "\u62a5\u5e94", "3917": "\u7a97\u6237", "3918": "\u6536\u85cf", "3919": "\u5916\u5a46", "3920": "\u6218\u58eb", "3921": "\u6d89\u53ca", "3922": "\u5e72\u6d3b", "3923": "\u6765\u4e2a", "3924": "\u6e90\u5934", "3925": "\u5348\u7761", "3926": "\u4e4b\u7c7b", "3927": "1500", "3928": "\u592a\u592a", "3929": "I", "3930": "\u53d7\u5bb3\u8005", "3931": "\u591a\u5927", "3932": "\u533b\u8005", "3933": "\u89c4\u5219", "3934": "\u5fc3\u5e95", "3935": "\u73a9\u6e38\u620f", "3936": "\u6ca1\u5e26", "3937": "\u5371\u5bb3", "3938": "\u592a\u96be\u53d7", "3939": "\u5730\u70b9", "3940": "\u6392", "3941": "\u811a\u6b65", "3942": "\u5174\u8da3", "3943": "\u65e0\u6570", "3944": "\u62a4\u7406", "3945": "\u8bba", "3946": "\u79d1\u5ba4", "3947": "\u6f14\u6280", "3948": "\u64b8", "3949": "\u95f9\u949f", "3950": "\u89d2\u5ea6", "3951": "\u8fd9\u90e8", "3952": "\u4fc4\u519b", "3953": "\u5408\u80a5", "3954": "\u66dd\u5149", "3955": "\u5df2\u6709", "3956": "\u95ee\u5019", "3957": "\u70e4", "3958": "\u90d1\u5dde", "3959": "\u770b\u4e0d\u61c2", "3960": "\u540e\u9057\u75c7", "3961": "\u611a\u8822", "3962": "\u94a2\u7434", "3963": "\u5ba4\u5185", "3964": "\u767d\u8863", "3965": "\u809a\u5b50\u75bc", "3966": "007", "3967": "\u8de8\u5883", "3968": "\u5b9a\u70b9", "3969": "56", "3970": "\u61a8", "3971": "\u97f3\u54cd", "3972": "\u4e0b\u5df4", "3973": "\u9ed1\u540d\u5355", "3974": "\u5317\u56fd", "3975": "\u535a\u62c9", "3976": "\u61a8\u6279", "3977": "\u7f57\u4e91\u7199", "3978": "\u519b", "3979": "\u73ed\u4e3b\u4efb", "3980": "\u5305\u5bb9", "3981": "\u516d\u70b9", "3982": "\u5b89\u68c0", "3983": "\u8d44\u91d1", "3984": "\u9178", "3985": "\u961f\u53cb", "3986": "\u5934\u4e0a", "3987": "\u8111", "3988": "\u5341\u70b9", "3989": "\u6101", "3990": "\u4e24\u4f4d", "3991": "\u5b66\u671f", "3992": "\u7ea2\u8272", "3993": "\u4e0d\u52a8", "3994": "\u7741\u773c", "3995": "\u4ed6\u5988", "3996": "\u73a9\u7b11", "3997": "\u7a7f\u8d8a", "3998": "\u51bb\u6b7b", "3999": "\u989d", "4000": "\u4e0a\u7ebf", "4001": "\u76f8\u5f53", "4002": "\u4efd", "4003": "\u51e0\u5206\u949f", "4004": "\u75b2\u60eb", "4005": "\u5f88\u60f3", "4006": "\u7259\u9f7f", "4007": "\u671f\u671b", "4008": "\u8f66\u7978", "4009": "\u4e00\u56de", "4010": "\u6cb9", "4011": "\u4e0b\u4e2a\u6708", "4012": "\u6491", "4013": "45", "4014": "\u53d1\u8a93", "4015": "\u4e89\u5435", "4016": "\u635e", "4017": "\u5403\u706b\u9505", "4018": "\u2015", "4019": "\u4e91", "4020": "\u978b\u5b50", "4021": "\u5bb6\u4f19", "4022": "\u5ba2\u5385", "4023": "\u4e27\u5c38", "4024": "\u9886\u57df", "4025": "\u7096", "4026": "\u6e29\u99a8", "4027": "\u4e0d\u6210", "4028": "\u606d\u559c", "4029": "\u5173\u673a", "4030": "\u519c\u4e1a", "4031": "\u4fdd\u6696", "4032": "\u4e00\u5207\u90fd\u662f", "4033": "\u4e0d\u8bba", "4034": "\u5efa", "4035": "\u73cd\u8d35", "4036": "\u6d3b\u5728", "4037": "\u4e0d\u80fd\u4e0d\u8981", "4038": "\u7fa4\u4f53", "4039": "\u5e7c\u513f\u56ed", "4040": "\u8981\u547d", "4041": "2015.11", "4042": "\u4e08\u592b", "4043": "\u5e73\u8861", "4044": "\uff0d", "4045": "\u56fd\u5e86", "4046": "\u5341\u516b", "4047": "\u4f1a\u513f", "4048": "\u8fd4\u56de", "4049": "\u529b\u6c14", "4050": "\u6a21\u578b", "4051": "\u653b\u51fb", "4052": "\u5c97\u4f4d", "4053": "\u4e0d\u53d1", "4054": "\u591c", "4055": "\u822a\u7a7a", "4056": "\u5fae\u98ce", "4057": "\u552f\u6709", "4058": "\u4f53\u68c0", "4059": "\u8def\u53e3", "4060": "\u5e95\u4e0b", "4061": "\u753b\u753b", "4062": "\u6cea\u76ee", "4063": "\u5428", "4064": "\u91c7\u8d2d", "4065": "\u8b66\u544a", "4066": "\u5409\u6797", "4067": "\u5de5\u4eba", "4068": "\u8001\u5e74\u4eba", "4069": "\u80e1\u6b4c", "4070": "\u75ca\u6108", "4071": "\u62a4\u76ee\u955c", "4072": "\u75c5\u60a3", "4073": "\u5546\u54c1", "4074": "\u53d1\u7ed9", "4075": "\u597d\u5927", "4076": "\u7a81\u5982\u5176\u6765", "4077": "\u8457", "4078": "\u524d\u540e", "4079": "\u76f8\u5e94", "4080": "\u4e00\u5927\u5806", "4081": "\u5c0f\u7c73", "4082": "\u5929\u6c14", "4083": "\u7a92\u606f", "4084": "\u55ce", "4085": "\u8bfb\u8005", "4086": "\u611f\u6168", "4087": "\u793c\u62dc", "4088": "\u5df4\u9ece", "4089": "SB", "4090": "\u8def\u8fb9", "4091": "400", "4092": "\u6307\u8d23", "4093": "\u7f13\u89e3", "4094": "\u671d", "4095": "\u54c1\u724c", "4096": "\u5012\u5165", "4097": "\u798f\u5dde", "4098": "\u5478", "4099": "\u5931\u604b", "4100": "\u4ed4", "4101": "\u5c0f\u5973\u5b69", "4102": "\u4e00\u80a1", "4103": "\u5341\u5929", "4104": "\u6700\u70e6", "4105": "\u4e00\u4e07", "4106": "\u535a\u7269\u9986", "4107": "\u4f24\u53e3", "4108": "\u62c9\u809a\u5b50", "4109": "D", "4110": "\u767e\u59d3", "4111": "\u8bd5", "4112": "\u501f\u94b1", "4113": "\u4e00\u4e70", "4114": "\u5f3a\u8feb\u75c7", "4115": "\u770b\u4e2a", "4116": "p", "4117": "\u56de\u5e94", "4118": "\u51b0\u7bb1", "4119": "\u9165", "4120": "\u6bcf\u665a", "4121": "\u6797", "4122": "\u559d\u6c34", "4123": "\u770b\u51fa", "4124": "\u6708\u4efd", "4125": "2008", "4126": "\u8d22\u52a1", "4127": "\u6d17\u5b8c", "4128": "\u5e7c\u7a1a", "4129": "\u4e0d\u770b", "4130": "\u5bb6\u65cf", "4131": "\u65e9\u65e5\u5eb7\u590d", "4132": "\u5e38\u89c1", "4133": "\u95f2", "4134": "\u6765\u5f97\u53ca", "4135": "\u56de\u5f52", "4136": "\u8fd9\u5bb6", "4137": "\u6d17\u8863\u673a", "4138": "\u4f18\u52bf", "4139": "\u4ec5\u4ec5", "4140": "\u8fce\u63a5", "4141": "\u8fdd\u6297", "4142": "\u4ece\u4e0d", "4143": "\u4ea4\u8b66", "4144": "\u5e73\u5e38", "4145": "\u4e00\u5171", "4146": "\u6dfb\u4e71", "4147": "\u4f53\u5185", "4148": "\u673a\u68b0", "4149": "\u6b66\u5668", "4150": "\u810f", "4151": "\u5584\u610f", "4152": "\u5148\u540e", "4153": "\u7709\u6bdb", "4154": "\u4e00\u89c9", "4155": "\u53cd\u6620", "4156": "\u6551\u52a9", "4157": "\u83ab", "4158": "\u53e3\u5473", "4159": "\u8fd9\u5e2e", "4160": "\u65e7", "4161": "\u548b\u529e", "4162": "\u4e00\u652f", "4163": "\u8001\u5934", "4164": "\u51c6\u786e", "4165": "\u61e6\u5f31", "4166": "\u94fe\u63a5", "4167": "\u5306\u5306", "4168": "\u5b89\u5fbd\u7701", "4169": "\u5c0f\u5c0f", "4170": "\u6c89\u7761", "4171": "450", "4172": "1.23", "4173": "\u674e\u5170\u5a1f", "4174": "Musical", "4175": "\u65fa\u65fa", "4176": "\u9ed1\u591c", "4177": "\u5c0f\u59d1\u5a18", "4178": "\u7ed3\u5c3e", "4179": "2009", "4180": "\u9760\u8fd1", "4181": "\u4e0a\u8f88\u5b50", "4182": "\u5448", "4183": "\u9632\u6b62", "4184": "\u7259", "4185": "\u56fd\u6c11", "4186": "\u8fc7\u4e8e", "4187": "\u4f7f\u5f97", "4188": "\u6211\u8be5", "4189": "\u5355", "4190": "\u6e38\u6cf3", "4191": "\u55d3\u5b50", "4192": "\u5a36", "4193": "\u5316\u5b66", "4194": "\u5c40", "4195": "\u5b9e\u9645\u4e0a", "4196": "\u5f53\u6210", "4197": "tmd", "4198": "\u6bdb\u7ebf", "4199": "\u4e00\u53cc", "4200": "\u5403\u8d27", "4201": "\u597d\u7d2f", "4202": "\u6323", "4203": "\u9875", "4204": "\u53d1\u98d9", "4205": "\u5145\u5206", "4206": "\u53d8\u5f02", "4207": "\u90fd\u8fd8\u6ca1", "4208": "\u5e74\u5e95", "4209": "\u60ca\u614c", "4210": "\u7206\u6599", "4211": "\u8d81", "4212": "\u516c\u5b50", "4213": "\u6ca1\u7761", "4214": "\u5206\u914d", "4215": "\u5730\u72f1", "4216": "\u4e0d\u51fa", "4217": "\u5065\u8eab", "4218": "\u77ed\u6682", "4219": "\u8eab", "4220": "\u53d9\u5229\u4e9a", "4221": "\u63cd", "4222": "\u5dee\u522b", "4223": "\u51b3\u5fc3", "4224": "\u5c0f\u54e5", "4225": "\u597d\u96be", "4226": "\u4e00\u5305", "4227": "\u7814\u53d1", "4228": "\u6253\u9488", "4229": "\u6b7b\u53bb", "4230": "\u2463", "4231": "\u65e0\u610f", "4232": "\u5de7\u514b\u529b", "4233": "\u603b\u80fd", "4234": "\u96be\u602a", "4235": "\u4f34\u968f", "4236": "\u751f\u957f", "4237": "\u660e\u4eae", "4238": "\u6ce1\u9762", "4239": "\u6700\u591a", "4240": "\u90a3\u4f4d", "4241": "\u667a\u6167", "4242": "\u9752\u5c9b", "4243": "\u4ebf", "4244": "\u70ed\u95e8", "4245": "\u8fdb\u5c55", "4246": "\u70b9\u534a", "4247": "\u9707\u64bc", "4248": "\u591c\u73ed", "4249": "\u628a\u624b", "4250": "\u83ab\u8fc7\u4e8e", "4251": "\u6307\u671b", "4252": "\u8d1f\u9762", "4253": "\u94f6\u6cb3", "4254": "\u90e8\u961f", "4255": "\u8f6c\u8eab", "4256": "\u52a0\u5de5", "4257": "\u6b22\u4e50", "4258": "\u5c42", "4259": "\u5954\u8dd1", "4260": "\u949f", "4261": "\u665a\u70b9", "4262": "\u5976\u8336", "4263": "\u5973\u4e3b", "4264": "\u60c5\u611f", "4265": "\ud83d\ude04", "4266": "\u5c3d\u529b", "4267": "\u5927\u95e8", "4268": "\u4fdd\u9669", "4269": "\u6ecb\u5473", "4270": "\u4e0d\u4ec5\u4ec5", "4271": "\u6700\u5feb", "4272": "\u8ba1\u7b97", "4273": "\u4f46\u613f", "4274": "\u5e76\u975e", "4275": "\u5e7f\u4e1c\u7701", "4276": "\u8fd1\u8ddd\u79bb", "4277": "\u5df4\u83f2\u7279", "4278": "\u5934\u6761", "4279": "\u62a5\u590d", "4280": "\u8349\u8393", "4281": "\u4e92\u8054\u7f51", "4282": "\u7389\u7c73", "4283": "sb", "4284": "\u575a\u5b88", "4285": "\u5e02\u957f", "4286": "__", "4287": "\u6ce8\u610f\u4e8b\u9879", "4288": "\u6015\u6b7b", "4289": "\u75c5\u623f", "4290": "\u656c\u4f69", "4291": "\u8981\u70b9", "4292": "\u533b\u7597\u961f", "4293": "\u5168\u6c11", "4294": "\u6cd5\u5b9a", "4295": "\u5954\u8d74", "4296": "\u761f\u75ab", "4297": "A6vd7HC4", "4298": "A6vnCYr9", "4299": "217", "4300": "\u9996\u6b21", "4301": "\u5168\u7a0b", "4302": "\u5b9e\u529b", "4303": "\u5fc3\u5bd2", "4304": "\u6751\u6c11", "4305": "\u957f\u65f6\u95f4", "4306": "\u4e0d\u80fd\u4e0d", "4307": "\u7fbd\u7ed2\u670d", "4308": "\u751f\u5b58", "4309": "\u5bbd", "4310": "\u6002", "4311": "\u6d4b\u5e8f", "4312": "\u629b\u5f03", "4313": "\u5f88\u4e45\u6ca1", "4314": "\u5b89\u5b89\u9759\u9759", "4315": "\u9636\u6bb5", "4316": "\u5468\u6770\u4f26", "4317": "\u63d0\u5fc3\u540a\u80c6", "4318": "\u524d\u53d1", "4319": "\u9f50\u9c81\u665a\u62a5", "4320": "\u4e4b\u89c1", "4321": "\u6c42\u8bc1", "4322": "\u5f53\u5929", "4323": "\u793c\u8c8c", "4324": "\u60e8", "4325": "\u6545\u969c", "4326": "\u6311", "4327": "\u65e0\u5173", "4328": "\u7cae", "4329": "\u6296", "4330": "\u676f", "4331": "\u81ea\u5e26", "4332": "\u901a\u5bb5", "4333": "\u780d", "4334": "\u7edf\u8ba1", "4335": "\u89d2\u843d", "4336": "\u653e\u4e0d\u4e0b", "4337": "\u8138\u8272", "4338": "\u5b89\u7a33", "4339": "\u690d\u7269", "4340": "\u597d\u60f3\u4f60", "4341": "\u5076", "4342": "\u56fa\u5b9a", "4343": "\u571f\u5730", "4344": "\u5973\u53cb", "4345": "\u6781\u9650", "4346": "\u524d\u4e24\u5929", "4347": "\u5341\u5206\u949f", "4348": "\u7f51\u8d2d", "4349": "\u4ece\u800c", "4350": "\u9ad8\u8ddf\u978b", "4351": "\u62b5\u8fbe", "4352": "\u7edd", "4353": "\u773c\u5149", "4354": "\u8d8a\u53d1", "4355": "ps", "4356": "\u4f34", "4357": "\u4e0d\u6562\u76f8\u4fe1", "4358": "38", "4359": "\u5236\u5b9a", "4360": "\u53cd\u601d", "4361": "\ufeff", "4362": "\u5c0f\u53f7", "4363": "\u54ea\u6837", "4364": "\u6d41\u7a0b", "4365": "\ud83d\ude23", "4366": "\u4e00\u5c42", "4367": "\u6700\u4f73", "4368": "\u5a4a\u5b50", "4369": "\u6652\u592a\u9633", "4370": "\u72af\u7f6a", "4371": "\u5224", "4372": "\u7403\u5458", "4373": "\u9884\u8ba1", "4374": "\u5634\u91cc", "4375": "\u8ffd\u661f", "4376": "\u4e3e\u884c", "4377": "\u5751\u7239", "4378": "\u900f\u9732", "4379": "\u5317\u4eac\u5e02", "4380": "\u9ec4\u74dc", "4381": "\u5206\u5e03", "4382": "\u6e29\u5dde", "4383": "\u20e3", "4384": "\u5948\u4f55", "4385": "\u4f9d\u6cd5", "4386": "\u634f", "4387": "\u53d1\u706b", "4388": "\u660e\u65e9", "4389": "\u738b\u51ef", "4390": "\u624e", "4391": "\u64ad", "4392": "\u5c11\u8bb8", "4393": "\u4e00\u540c", "4394": "\u8fd9\u513f", "4395": "\u6307\u5357", "4396": "\u6311\u8845", "4397": "\u54c8\u5c14\u6ee8", "4398": "\u53d4\u53d4", "4399": "\u7956\u5b97", "4400": ".......", "4401": "\u87f9", "4402": "\u5413\u6b7b\u4eba", "4403": "\u4f20\u8bf4", "4404": "\u4e0d\u8d77", "4405": "\u8ffd\u8e2a", "4406": "\u5dee\u8ddd", "4407": "\u8db3\u534f", "4408": "\u4e00\u53e3\u6c14", "4409": "\u51fa\u53bb\u73a9", "4410": "\u9017\u6211", "4411": "2007", "4412": "\u4e2d\u6bd2", "4413": "\u6765\u4e34", "4414": "\u529b\u5ea6", "4415": "\u77f3\u5934", "4416": "wuli", "4417": "\u8f7b", "4418": "Leo", "4419": "\u6253\u4eba", "4420": "\u5f53\u56de\u4e8b", "4421": "\u7ba1\u7ba1", "4422": "\u522b\u6765", "4423": "\u6765\u6e90\u4e8e", "4424": "\u5427\u5527", "4425": "\u539f\u5730", "4426": "\u786c\u662f", "4427": "\u7535\u5546", "4428": "\u672c\u5730", "4429": "\u5fc3\u5934", "4430": "\u6c14\u6124", "4431": "\u673a\u5236", "4432": "\u6367", "4433": "\u4e00\u7b49", "4434": "\u9886\u7a7a", "4435": "\u4e0a\u534a\u5e74", "4436": "\u5c3f\u5e03", "4437": "\u5185\u8499", "4438": "\u4e2d\u5174", "4439": "\u98de\u6cab", "4440": "Dear", "4441": "Kun", "4442": "\u8f7b\u75c7", "4443": "\u6342\u4f4f", "4444": "\u552e\u4ef7", "4445": "\u8bed\u6587", "4446": "\u4e09\u89c2", "4447": "\u4e0a\u706b", "4448": "\u84b8", "4449": "\u544a\u767d", "4450": "\u622a\u56fe", "4451": "\u5de5\u5382", "4452": "\u77f3\u5bb6\u5e84", "4453": "\u5e73\u51e1", "4454": "\u597d\u610f\u601d", "4455": "\u751f\u6b7b", "4456": "\u624b\u4e2d", "4457": "\u53ef\u4e0d\u53ef\u4ee5", "4458": "\u6342", "4459": "\u597d\u597d\u5b66\u4e60", "4460": "\u5e8a\u4f4d", "4461": "\u5357\u65b9\u5468\u672b", "4462": "\u6211\u5011", "4463": "\u53d1\u5de5\u8d44", "4464": "\u4e3b\u6301", "4465": "\u751f\u4e8e", "4466": "\u5c0f\u5fc3\u7ffc\u7ffc", "4467": "\u852c\u83dc", "4468": "\u738b\u516b\u86cb", "4469": "\u62a0", "4470": "\u4e5d\u70b9", "4471": "\u516d", "4472": "\u840c", "4473": "\u51bb\u6210", "4474": "\u7537\u7968", "4475": "\u8d77\u5230", "4476": "\u5c0f\u5b66\u751f", "4477": "\u6bcf\u5f53", "4478": "\u94bb", "4479": "\u574f\u4e8b", "4480": "\u65e0\u6240\u754f\u60e7", "4481": "\u9646\u7eed", "4482": "\u53d1\u58f0", "4483": "\u9093\u8d85", "4484": "\u70b9\u513f", "4485": "\u8d3c", "4486": "\u8ba4\u8bc1", "4487": "\ud83d\ude01", "4488": "\u51ac\u5b63", "4489": "\u8214", "4490": "\u900f", "4491": "\u5835\u8f66", "4492": "\u7761\u610f", "4493": "\u6291\u5236", "4494": "\u819d\u76d6", "4495": "\u4f55\u65f6", "4496": "\u5a03\u5a03", "4497": "\u6027\u80fd", "4498": "\u9ed1\u773c\u5708", "4499": "\u8eab\u540e", "4500": "\u72ec\u81ea", "4501": "\u5e9f\u8bdd", "4502": "\u826f", "4503": "\u6821\u957f", "4504": "\u51b3\u7b56", "4505": "\u5f00\u53e3", "4506": "\u4e94\u5929", "4507": "\u5e7f\u64ad", "4508": "\u618b\u5c48", "4509": "\u2600", "4510": "\u76f8\u4f34", "4511": "\u534f\u8c03", "4512": "\u203c", "4513": "\u5f04\u6e7f", "4514": "\u597d\u89c9", "4515": "\u64cd\u5fc3", "4516": "\u4e3b\u6301\u4eba", "4517": "\u5b8c\u5584", "4518": "31", "4519": "\u5efa\u7b51", "4520": "\u6fb3\u5927\u5229\u4e9a", "4521": "\u70eb", "4522": "\u57fa\u5c42", "4523": "\u6d88\u706d", "4524": "\u4eba\u80fd", "4525": "baby", "4526": "\u4e0b\u697c", "4527": "\u4e00\u767e\u4e07\u4e2a", "4528": "\u54a8\u8be2", "4529": "\u53c2\u8003", "4530": "\u8bd5\u5242\u76d2", "4531": "\u6863", "4532": "\u9996\u6b3e", "4533": "\u6c14\u6c1b", "4534": "\u53f3\u8fb9", "4535": "\u590d\u751f", "4536": "\u79d1", "4537": "\u8fd0\u8425", "4538": "\u8c0e\u8a00", "4539": "\u52a0\u5927", "4540": "\u4e36", "4541": "\u65b0\u52a0\u5761", "4542": "\u4e0d\u8bed", "4543": "\u8d30", "4544": "\u5f62\u52bf", "4545": "\u4e25\u5cfb", "4546": "\u8fdb\u53e3\u8d27", "4547": "\u524d\u5217", "4548": "\u4e2d\u8001\u5e74\u4eba", "4549": "\u4e0d\u6234", "4550": "\u9093\u4f26", "4551": "\u8bc1\u5b9e", "4552": "\u8054\u5408", "4553": "\u63a5\u6536", "4554": "\u72ec\u7279", "4555": "\u5e73\u65b9\u7c73", "4556": "\u7231\u8fc7", "4557": "\u82cf\u5dde", "4558": "\u4eba\u6c11\u5e01", "4559": "\u4fdd\u91cd", "4560": "\u4eca\u5929\u4e0b\u5348", "4561": "\u4e3b\u4eba", "4562": "\u53cc\u65b9", "4563": "\u804a\u5230", "4564": "\u4e3b\u7ba1", "4565": "\u7259\u75bc", "4566": "\u4eba\u5747", "4567": "\u80a5", "4568": "\u6ca1\u60f3", "4569": "\u6050\u6016\u88ad\u51fb", "4570": "\u597d\u75db", "4571": "\u5316\u5986", "4572": "\u603b\u88c1", "4573": "\u6211\u64cd", "4574": "\u4e07\u4eba", "4575": "\u96be\u542c", "4576": "\u8fdc\u65b9", "4577": "\u9019\u6a23", "4578": "\u80c6\u5c0f", "4579": "\u5927\u5199", "4580": "\u4eb2\u4eec", "4581": "\u6b8b\u5fcd", "4582": "\u8ba4\u5b9a", "4583": "\u5899", "4584": "\u4eba\u6765", "4585": "\u5929\u7136", "4586": "\u5c0d", "4587": "\u5fd0\u5fd1", "4588": "\u8c03\u914d", "4589": "\u306e", "4590": "\u516b\u767e", "4591": "\u5b66\u7740", "4592": "\u8868\u767d", "4593": "\u4e22\u4eba", "4594": "\u81ea\u4e60\u5ba4", "4595": "\u5632\u7b11", "4596": "\u4f53\u73b0", "4597": "\u76f8\u673a", "4598": "\u714e\u71ac", "4599": "\u79c1\u4eba", "4600": "\u5a5a\u7eb1", "4601": "\u9178\u5976", "4602": "\u53e8\u53e8", "4603": "\u66f4\u8981", "4604": "\u5916\u8868", "4605": "\u7f3a\u4e4f", "4606": "\u96c6\u4f53", "4607": "\u997a\u5b50", "4608": "\u8d76\u811a", "4609": "\u53ef\u4e50", "4610": "\u4e0d\u5728\u4e4e", "4611": "get", "4612": "\u7f51\u9875", "4613": "\u533b\u836f", "4614": "\u4e00\u8d9f", "4615": "\u5f00\u7740", "4616": "\u8611\u83c7", "4617": "\u519c\u6c11", "4618": "\u5927\u591a", "4619": "\u4f53\u80b2", "4620": "\u5b9a\u4e49", "4621": "\u98df\u7528", "4622": "\u5c31\u4e1a", "4623": "\u6218\u7565", "4624": "\u6d17\u51c0", "4625": "\u52ff", "4626": "\u6362\u6765", "4627": "\u6536\u5165", "4628": "\u5589\u5499\u75db", "4629": "\u5b88", "4630": "\u5341\u4e00\u6708", "4631": "\u6536\u8d39", "4632": "\u5468\u4e94", "4633": "\u4eae", "4634": "\u4f9d\u7a00\u8bb0\u5f97", "4635": "\u53cc\u624b", "4636": "\u6d88\u505c", "4637": "\u63a8\u7279", "4638": "\u4e13\u7528", "4639": "\u4eca\u513f", "4640": "\u5fc3\u613f", "4641": "\u6321", "4642": "\u4e00\u9762", "4643": "\u6700\u65e9", "4644": "\u905b\u72d7", "4645": "\u6709\u8fc7", "4646": "\u4e0d\u5e78", "4647": "\u4ece\u6ca1", "4648": "\u7ed9\u94b1", "4649": "\u5404\u9879", "4650": "\u7834\u4e8b", "4651": "\u5982\u540c", "4652": "\u67aa", "4653": "2011", "4654": "\u7bc7", "4655": "\u4e56", "4656": "\u7535\u6e90", "4657": "\u7559\u7ed9", "4658": "\u8fd9\u5ea7", "4659": "\u4f9b", "4660": "\u751f\u547d\u5b89\u5168", "4661": "\u4e0d\u4f46", "4662": "\u516b", "4663": "\u54ea\u5929", "4664": "\u54b3", "4665": "\u6743\u5229", "4666": "\u516b\u4e5d\u70b9\u949f", "4667": "\u89c4\u8303", "4668": "\u8bbd\u523a", "4669": "\u5a18", "4670": "\u8bca\u65ad", "4671": "\u57fa\u4e8e", "4672": "\u5973\u5b69\u513f", "4673": "\u96be\u5403", "4674": "48", "4675": "\u6211\u5e02", "4676": "\u51fb\u843d", "4677": "\u4f8b\u5982", "4678": "\u9093\u80af", "4679": "\u9178\u75db", "4680": "\u516c\u5171\u573a\u6240", "4681": "\u843d\u540e", "4682": "\u591a\u5bb6", "4683": "136", "4684": "\u5077\u7b11", "4685": "\u65af\u79d1\u7279", "4686": "230", "4687": "\u5404\u5927", "4688": "\u6218\u5f79", "4689": "\u4e25\u6b63", "4690": "\u4e0a\u699c", "4691": "\u9a70\u63f4", "4692": "5G", "4693": "\u5189\u5189", "4694": "\u843d\u751f", "4695": "\u4e2a\u4eba\u536b\u751f", "4696": "\u7ba1\u63a7", "4697": "\u738b\u4fca\u51ef\u76ca", "4698": "\u571f\u8c6a", "4699": "\u8fc7\u4e0d\u53bb", "4700": "\u628a\u63e1", "4701": "\u73af\u8282", "4702": "---", "4703": "\u5305\u88f9", "4704": "\u989d\u5934", "4705": "\u7537\u5973", "4706": "\u4e8b\u540e", "4707": "\u5316", "4708": "\u987a\u4fbf", "4709": "\u697c\u68af", "4710": "\u8e39", "4711": "\u80a9\u8180", "4712": "\u723d", "4713": "\u597d\u6b79", "4714": "\u9690\u85cf", "4715": "\u9a6c\u8def", "4716": "\u63f4\u52a9", "4717": "\u63ea\u5fc3", "4718": "\u8fdb\u5316", "4719": "\u6c49\u5b50", "4720": "\u6d17\u8863\u670d", "4721": "\u6539\u9769", "4722": "\u5f55\u5236", "4723": "\u773c\u4e2d", "4724": "\u83e0\u841d", "4725": "\u6ce8\u610f\u529b", "4726": "\u641c\u7d22", "4727": "\u4fc4", "4728": "\u6d88\u9664", "4729": "\u9664\u975e", "4730": "\u5927\u81ea\u7136", "4731": "\u6362\u6210", "4732": "\u8d70\u8d70", "4733": "\u884c\u4e0d\u884c", "4734": "\u6fb3\u6d32", "4735": "\u6e38\u5ba2", "4736": "\u5bfb\u627e", "4737": "\u4f17\u4eba", "4738": "\u80c3\u53e3", "4739": "\u8eab\u6750", "4740": "\u7edd\u4e0d", "4741": "\u63a8\u51fa", "4742": "\u4e0d\u50cf", "4743": "\u62ff\u6765", "4744": "\u5fcd\u53d7", "4745": "\u4e0a\u8f66", "4746": "\u5f00\u4e2a", "4747": "\u997f\u6b7b", "4748": "\u7559\u8a00", "4749": "\u6000\u91cc", "4750": "\u5ffd\u7565", "4751": "\u6563\u6b65", "4752": "\u4ff1\u4e50\u90e8", "4753": "\u4e70\u4e70", "4754": "\u5e38\u8bc6", "4755": "K", "4756": "\u560e\u560e", "4757": "\u6cb9\u9505", "4758": "\u968f", "4759": "\u751f\u6d3b\u8d39", "4760": "\u4fee\u6539", "4761": "\u7ec6\u83cc", "4762": "\u62ff\u51fa", "4763": "\u5a01\u80c1", "4764": "\u7537\u4e3b", "4765": "\u5fc5\u7136", "4766": "\u57fa\u56e0", "4767": "\u6c61\u67d3", "4768": "\u76f8\u518c", "4769": "\u6606\u660e", "4770": "\u8c22", "4771": "\u6bd4\u4f8b", "4772": "\u521b\u4f5c", "4773": "\u4e0e\u5176", "4774": "\u529e\u7406", "4775": "\u673a\u5173", "4776": "\u884c\u7a0b", "4777": "\u7b2c\u4e00\u4f4d", "4778": "\u505a\u6cd5", "4779": "\u82cf", "4780": "\u8001\u4eba\u5bb6", "4781": "\u63d0\u5230", "4782": "\u5f80\u4e8b", "4783": "\u626b", "4784": "\u65bc", "4785": "\u4e0d\u901a", "4786": "\u9759", "4787": "\u89e3\u8bfb", "4788": "\u6700\u6700", "4789": "\u597d\u60f3\u54ed", "4790": "\u5546\u573a", "4791": "\u7d2b", "4792": "\u611f\u53f9", "4793": "\u9080\u8bf7", "4794": "\u5bf9\u6297", "4795": "\u8c46\u8150", "4796": "\u52a8\u4e0d\u52a8", "4797": "\u8fd9\u5f20", "4798": "\u4e2d\u9014", "4799": "\u5c16\u53eb", "4800": "\u63d2", "4801": "\u4e0a\u7f51", "4802": "\u5b66\u79d1", "4803": "\u03c9", "4804": "\u5c01\u95ed", "4805": "\u6bd2", "4806": "\u5fc3\u601d", "4807": "\u505c\u6c34", "4808": "\u808c\u8089", "4809": "\u4f9d\u8d56", "4810": "\u8206\u8bba", "4811": "\u7f16\u8f91", "4812": "\u65f6\u4e0d\u65f6", "4813": "\u5fc3\u4e8b", "4814": "\u5e08", "4815": "\u4e4b\u529b", "4816": "\u9009\u9879", "4817": "\u5357\u660c", "4818": "\u6279", "4819": "\u6ca1\u5f97", "4820": "\u7ec4\u957f", "4821": "\u4e0d\u600e\u4e48", "4822": "\u53d1\u77ed\u4fe1", "4823": "\u764c\u75c7", "4824": "\u575a\u5b88\u5c97\u4f4d", "4825": "\u8868\u6001", "4826": "\u6f0f\u62a5", "4827": "4999", "4828": "\u7ea6\u7ff0\u900a", "4829": "\u9996\u76f8", "4830": "\u7d27\u6025\u72b6\u6001", "4831": "\u503c\u8d85", "4832": "\u8fdb\u53e3\u91cf", "4833": "\u56de\u9f99\u89c2", "4834": "\u5b59\u5b87\u6668", "4835": "\u5348\u9910\u4f1a", "4836": "\u643a\u53f7", "4837": "\u8f6c\u7f51", "4838": "\u6e38\u56ed", "4839": "\u8d85\u58f0", "4840": "\u6bdb\u5766\u5382", "4841": "\u6559\u80b2\u90e8\u95e8", "4842": "\u53eb\u505c", "4843": "\u9752\u74e6\u53f0", "4844": "\u8ba4\u94b1", "4845": "\u9ad8\u53d1", "4846": "73", "4847": "\u5b9e\u8df5", "4848": "\u72b9\u8c6b", "4849": "\u5730\u4e0b", "4850": "\u75af\u5b50", "4851": "\u7535\u6c60", "4852": "\u9000\u8d27", "4853": "\u66b4\u813e\u6c14", "4854": "\u626f", "4855": "\u4e00\u5df4\u638c", "4856": "\u6253\u67b6", "4857": "\u63a7", "4858": "\u8d39", "4859": "\u9010\u6e10", "4860": "\u4fdd\u7559", "4861": "\u5173\u952e\u65f6\u523b", "4862": "\u5bf9\u5916", "4863": "\u54c1\u79cd", "4864": "\u8d39\u52b2", "4865": "\u5411\u524d", "4866": "\u5947\u5999", "4867": "\u7f8e\u5473", "4868": "600", "4869": "\u5b98", "4870": "\u5e97\u91cc", "4871": "\u6076\u9b54", "4872": "\u8eab\u9ad8", "4873": "\ud83d\ude1e", "4874": "\u53d7\u591f\u4e86", "4875": "\u5b85", "4876": "\u8d70\u8fdb", "4877": "\u53d1\u578b", "4878": "\u4e09\u70b9", "4879": "\u7518\u5fc3", "4880": "\u4f18", "4881": "\u6328", "4882": "\u5f00\u5934", "4883": "\u5fc3\u673a", "4884": "\u542c\u4e0d\u61c2", "4885": "\u6211\u54e5", "4886": "\u70b9\u591a", "4887": "\ud83d\ude18", "4888": "\u5403\u571f", "4889": "150", "4890": "\u5927\u8111", "4891": "\u7535\u5f71\u9662", "4892": "\u547c\u5438\u56f0\u96be", "4893": "\u6ce8\u518c", "4894": "\u8d1f\u62c5", "4895": "\u4e09\u5c81", "4896": "\u4fe1\u4ef0", "4897": "\u5747\u5300", "4898": "\u7f3a\u5fb7", "4899": "2004", "4900": "\u9762\u6761", "4901": "\u540c\u5fd7", "4902": "110", "4903": "\u60ef", "4904": "\u7aef", "4905": "3000", "4906": "\u603b\u7b97", "4907": "\u642d", "4908": "\u55b7\u568f", "4909": "\u54cd", "4910": "\u544a\u522b", "4911": "\u8bdd\u8bed", "4912": "\u4e00\u5e2e", "4913": "\u5ffd\u60a0", "4914": "\u6709\u6bd2", "4915": "\u65e0\u60c5", "4916": "\u4e0d\u95ee", "4917": "\u4e00\u4e2a\u591a\u6708", "4918": "\u6253\u9ebb\u5c06", "4919": "\u5237\u5c4f", "4920": "fuck", "4921": "\u6ca1\u6536", "4922": "\u5b89\u5b89", "4923": "\u4f11\u5047", "4924": "\u4e0d\u4e0a", "4925": "\u6c5f\u5357", "4926": "\u591a\u70b9", "4927": "\u79d1\u7814", "4928": "\u4fc3\u8fdb", "4929": "\u8111\u6d77", "4930": "\u897f\u74dc", "4931": "\u9738\u6c14", "4932": "\u5927\u89c4\u6a21", "4933": "\u58f3", "4934": "\u666e\u53ca", "4935": "\u9752\u6d77", "4936": "\u76f8\u4eb2", "4937": "\u5c0f\u7ec4", "4938": "\u7b56\u7565", "4939": "\u540c\u80de", "4940": "\u5fd7\u613f\u8005", "4941": "\u65e0\u89c6", "4942": "\u5408\u683c", "4943": "\u4eba\u8981", "4944": "\u5bf9\u624b", "4945": "\u5e86\u795d", "4946": "\u9ed8\u9ed8\u5730", "4947": "\u56de\u8001\u5bb6", "4948": "\u4e00\u5fc3", "4949": "\u804c\u8d23", "4950": "\u5c41\u4e8b", "4951": "\u4e0d\u66fe", "4952": "\u5076\u7136", "4953": "\u8863", "4954": "\u6635\u79f0", "4955": "\u8fd9\u7bc7", "4956": "\u56a3\u5f20", "4957": "\u5c31\u522b", "4958": "\u559c\u4e50", "4959": "\u4e24\u5468", "4960": "\u67e5\u770b", "4961": "\u4e0d\u5fc5\u8981", "4962": "\u715e\u7b14", "4963": "\u5c0f\u53ef\u7231", "4964": "\u79e6\u7687\u5c9b", "4965": "\u955c", "4966": "\u5165\u9662", "4967": "\u8f7b\u89c6", "4968": "\u56e2\u805a", "4969": "\u8d70\u4eb2\u621a", "4970": "\u4fa0", "4971": "\u8bf7\u6218", "4972": "\u6211\u7528", "4973": "\u9ad8\u4e09", "4974": "\u56de\u56fd", "4975": "\u8eb2\u907f", "4976": "\u65e0\u6570\u6b21", "4977": "APP", "4978": "\u5927\u4f1a", "4979": "\u968f\u624b", "4980": "\u63a2\u7d22", "4981": "\u566a\u97f3", "4982": "\u90e8\u7f72", "4983": "\u5403\u4e0d\u4e0b", "4984": "\u89c2\u5ff5", "4985": "\u820d\u5f97", "4986": "\u4e61\u6751", "4987": "\u6f47\u6d12", "4988": "\u5f55", "4989": "md", "4990": "\u4ee3\u4ef7", "4991": "\u4e22\u8138", "4992": "\u597d\u8fd0", "4993": "\u6b23\u8d4f", "4994": "\u8ba4\u53ef", "4995": "\u878d\u5316", "4996": "\u5237\u65b0", "4997": "\u5011", "4998": "\u4f5c\u6587", "4999": "\u8fd9\u4e0b", "5000": "\u5458", "5001": "\u4e50\u961f", "5002": "\u80cc\u666f", "5003": "\u8f9b\u8f9b\u82e6\u82e6", "5004": "\u6d88\u8d39", "5005": "\u8fd9\u4eba", "5006": "\u4e0d\u5b9c", "5007": "\u7d27", "5008": "\u60ca\u4eba", "5009": "\u8d8a\u60f3", "5010": "\u72d7\u5c41", "5011": "\u8ddf\u4e0d\u4e0a", "5012": "\u740a", "5013": "\u8111\u63a7", "5014": "\u7b49\u4e8e", "5015": "\u4f86", "5016": "\u53eb\u9192", "5017": "\u78b0\u4e0a", "5018": "\u4f55", "5019": "\u5927\u7247", "5020": "\u523b\u610f", "5021": "\u4e00\u5730", "5022": "\u5b89\u88c5", "5023": "\u5bf9\u5f97\u8d77", "5024": "\u8bb2\u89e3", "5025": "\u8bc4\u4e3a", "5026": "\u516d\u4e2a", "5027": "\u4e8c\u5341", "5028": "\u6574\u6574", "5029": "\u7406\u6240\u5f53\u7136", "5030": "\u809d", "5031": "\u56f4\u8116", "5032": "\u5956\u52b1", "5033": "\u60ca\u9b42", "5034": "\u6b32", "5035": "\u7adf\u662f", "5036": "\u7eaf\u7cb9", "5037": "\u5934\u6655", "5038": "\ud83d\ude37", "5039": "\u90a3\u6bb5", "5040": "\u7f3a\u70b9", "5041": "\u4e00\u811a", "5042": "\u79bb\u4e0d\u5f00", "5043": "\u997c\u5e72", "5044": "\u4e0d\u5149", "5045": "\u7785", "5046": "\u798f\u5229", "5047": "\u6b63\u89c4", "5048": "\u516c\u5143", "5049": "\u64ad\u51fa", "5050": "\u5e78\u4e8f", "5051": "\u8346\u95e8", "5052": "\u7535\u89c6\u53f0", "5053": "\u6811", "5054": "\u5730\u57df", "5055": "\u514d\u75ab\u529b", "5056": "\u76f8\u6bd4", "5057": "\u63a8\u8fdb", "5058": "\u51f6", "5059": "\u5305\u542b", "5060": "\u5403\u6389", "5061": "\u529f\u592b", "5062": "\u5904\u5904", "5063": "\u9ad8\u6548", "5064": "\u8fc7\u8282", "5065": "\u5404\u7ea7", "5066": "\u7ef4\u6301", "5067": "\u53a8\u623f", "5068": "\u7533\u901a", "5069": "\u5f8c", "5070": "\u5e08\u5085", "5071": "\u666e\u901a\u8bdd", "5072": "\ud83d\ude0c", "5073": "\u5ffd\u89c6", "5074": "\u7b11\u8bdd", "5075": "\u6691\u5047", "5076": "\u672c\u80fd", "5077": "\u73af\u4fdd", "5078": "\u8fce\u6765", "5079": "\u5438\u6536", "5080": "\u4e8c\u4ee3", "5081": "\u5b89", "5082": "\u7eff", "5083": "\u9e21\u6c64", "5084": "\u521b\u65b0", "5085": "\u548c\u5e73", "5086": "\u6751\u59d4\u4f1a", "5087": "\u6751\u91cc", "5088": "\u505a\u4e9b", "5089": "\u57ce\u533a", "5090": "\u7814\u7a76\u6240", "5091": "\u505a\u9898", "5092": "\u80bf\u7624", "5093": "quot", "5094": "\u76d1\u6d4b", "5095": "\u9886\u609f", "5096": "\u8111\u6b8b", "5097": "\u4eba\u54c1", "5098": "\u5f97\u6765", "5099": "\u8ff7\u5931", "5100": "\u8001\u8001\u5b9e\u5b9e", "5101": "\u679c\u65ad", "5102": "\u8fc7\u5934", "5103": "\u95ea\u7535", "5104": "\u8fd9\u4f1a", "5105": "\u4e4f\u529b", "5106": "\u652f\u4ed8\u5b9d", "5107": "\u5356\u5bb6", "5108": "\u9996\u53d1", "5109": "\u5929\u751f", "5110": "EMS", "5111": "\u91ca\u653e", "5112": "\u4e00\u8def\u4e0a", "5113": "\u4f73\u4eba", "5114": "\u8e0f\u9a6c", "5115": "\u5c55\u793a", "5116": "\u5706", "5117": "\u516c\u8def", "5118": "\u6307\u51fa", "5119": "\u9ec4\u4eba", "5120": "\u5f00\u5c55", "5121": "\u8f6c\u7ed9", "5122": "\u59d4", "5123": "\u5468\u77e5", "5124": "\u505a\u8d77", "5125": "\u6768\u5e42", "5126": "\u518d\u6218", "5127": "\u901a\u544a", "5128": "\u8fd4\u4e61", "5129": "R2WxQOQ", "5130": "DADA", "5131": "\u9648\u7acb\u519c", "5132": "UNINE", "5133": "\u75be\u63a7\u4e2d\u5fc3", "5134": "\u89c1\u8fc7", "5135": "\u5317\u4e0a", "5136": "\u6d6e\u4e91", "5137": "\u918b", "5138": "\u89ba\u5f97", "5139": "\u6700\u957f", "5140": "\u55bd", "5141": "\u97e9\u5267", "5142": "\u72e0\u72e0", "5143": "\u54fc\u54fc", "5144": "\u653e\u624b", "5145": "\u4e16\u95f4", "5146": "\u6253\u96ea\u4ed7", "5147": "\u592a\u51b7", "5148": "\u6309\u6469", "5149": "\u9b45\u529b", "5150": "\u8d34\u5fc3", "5151": "\u8f66\u91cc", "5152": "\u7269\u54c1", "5153": "\u4e00\u662f", "5154": "\u62db", "5155": "\u4f3a\u5019", "5156": "\u5168\u5458", "5157": "jb", "5158": "PPT", "5159": "\u8f6e", "5160": "\u53ea\u6c42", "5161": "\u52b2", "5162": "\u4ea4\u7ed9", "5163": "\u4e3b\u89d2", "5164": "\u5c4f\u853d", "5165": "\u7136", "5166": "cp", "5167": "\u4f4e\u8c03", "5168": "\u4e0d\u5e72", "5169": "\u81f3\u6781", "5170": "S", "5171": "\u522b\u53bb", "5172": "\u8f6c\u8f6c", "5173": "\u4ece\u4e8b", "5174": "\u7b2c\u4e8c\u4e2a", "5175": "\u7b7e", "5176": "\u4eba\u58eb", "5177": "\u5730\u9762", "5178": "2016", "5179": "\u7406\u76f4\u6c14\u58ee", "5180": "\u4ea7\u4e1a", "5181": "33", "5182": "\u65e0\u826f", "5183": "\u767b\u5f55", "5184": "\u5413\u50bb", "5185": "\u5916\u754c", "5186": "\u9662\u957f", "5187": "\u683c\u5916", "5188": "\u9006\u884c", "5189": "\u6211\u4fe9", "5190": "\u5927\u9053", "5191": "\u6587\u827a", "5192": "\u4f24\u4e0d\u8d77", "5193": "\u6539\u7248", "5194": "\u62b1\u6b49", "5195": "\u70ed\u5e72\u9762", "5196": "\u987a\u987a\u5229\u5229", "5197": "\u6b6a", "5198": "\u73ed\u7ea7", "5199": "\u9886", "5200": "\u5f00\u82b1", "5201": "\u65e9\u65e9", "5202": "\u8f83\u5927", "5203": "\u8e72", "5204": "\u5c06\u519b", "5205": "\u597d\u7b11", "5206": "\u4e00\u624b", "5207": "\u76f4", "5208": "\ud83d\udc47", "5209": "\u56f0\u6b7b", "5210": "\u53f6", "5211": "\u987a\u4e30", "5212": "\u51f3\u5b50", "5213": "\u2464", "5214": "\u4eba\u548c\u4e8b", "5215": "\u5e2e\u5e2e", "5216": "\u6c5f\u82cf\u7701", "5217": "\u6df7", "5218": "\u5218", "5219": "\u7248\u672c", "5220": "\u4e00\u9996", "5221": "\u80cc\u7740", "5222": "\u52a8\u753b", "5223": "\u9ad8\u6e29", "5224": "\u91ce\u751f", "5225": "\u5565\u5b50", "5226": "\u8282\u65e5", "5227": "\u5237\u7259", "5228": "\uff02", "5229": "\u6709\u6240", "5230": "\u4f19\u4f34", "5231": "\u60f3\u6765", "5232": "\u505a\u70b9", "5233": "\u96c6\u9526", "5234": "\u6551\u63f4", "5235": "\u5ba2\u4eba", "5236": "\u6539\u5584", "5237": "\u5730\u4f4d", "5238": "\u8b93", "5239": "\u7ea6\u4f1a", "5240": "\u822c", "5241": "\u6ca1\u94b1", "5242": "\u6e7f", "5243": "\u6781\u54c1", "5244": "\u5bf9\u6b64", "5245": "\u95e8\u67f1", "5246": "\u4e0a\u6d77\u5e02", "5247": "\u8471", "5248": "\u5e78\u798f\u611f", "5249": "\u603b\u7406", "5250": "\u4e38\u5b50", "5251": "\u59ff\u52bf", "5252": "\u4f20\u67d3\u6e90", "5253": "\u65e5\u8d77", "5254": "\u4e0d\u4fbf", "5255": "\u2614", "5256": "\u5207\u65ad", "5257": "\u5b66\u672f", "5258": "\u89e3\u9664", "5259": "\u957f\u4e45", "5260": "\u611f\u6fc0", "5261": "\u4ed7", "5262": "\u6307\u5b9a", "5263": "po", "5264": "\u5d3d", "5265": "\u8001\u677f\u5a18", "5266": "\u82b1\u513f", "5267": "\u5168\u53bf", "5268": "\u827a\u8003", "5269": "\u70ed\u70b9", "5270": "\u6469\u767b", "5271": "\u6d77\u5357\u7701", "5272": "\u7518\u8083", "5273": "\u5168\u529b", "5274": "\u5f97\u75c5", "5275": "\u6170\u95ee", "5276": "\u5df4\u65af", "5277": "830", "5278": "\u96ea\u5b9d", "5279": "\u767d\u8863\u6218\u58eb", "5280": "\u5021\u8bae", "5281": "\u674e\u6625\u59ec", "5282": "\u7761\u68a6\u4e2d", "5283": "\u53d1\u89c9", "5284": "\u5076\u9047", "5285": "\u597d\u597d\u770b", "5286": "\u6781\u81f4", "5287": "\u5929\u732b", "5288": "\u5766\u7136", "5289": "\u9898\u76ee", "5290": "\u6700\u6015", "5291": "\u540d\u4e49", "5292": "\u79ef\u7d2f", "5293": "\u4e0d\u53d8", "5294": "\u80c6\u6218\u5fc3\u60ca", "5295": "\u718f", "5296": "\u5b50\u5973", "5297": "\u4e8f", "5298": "\u52a0\u901f", "5299": "\u4e0d\u79bb", "5300": "\u66b4\u9732", "5301": "\u5b8c\u86cb", "5302": "\u8fd0\u8f6c", "5303": "\u4e4b\u6240\u4ee5", "5304": "\u5230\u8d27", "5305": "\u9664", "5306": "\u542c\u6b4c", "5307": "\u6389\u4e0b\u6765", "5308": "\u5168\u6751", "5309": "\u95ed\u773c", "5310": "\u597d\u70b9", "5311": "\u7d2f\u6210", "5312": "\u5883\u754c", "5313": "\u518d\u4e5f\u4e0d\u4f1a", "5314": "\u4e0d\u73a9", "5315": "\u547c", "5316": "\u81ea\u6740", "5317": "\u5527\u5527", "5318": "\u6539\u4e0d\u4e86", "5319": "\u80fd\u5e72", "5320": "\u59b3", "5321": "\u53d1\u6765", "5322": "\u52a8\u624b", "5323": "\u4e00\u756a", "5324": "\u8fdd\u6cd5", "5325": "\u7ecf\u5178", "5326": "\u9aa8\u5934", "5327": "\u4e00\u96c6", "5328": "\u4e00\u9879", "5329": "\u4f5c\u51fa", "5330": "\u773c\u770b", "5331": "\u6848\u4ef6", "5332": "\u5bd2\u51b7", "5333": "\u714e", "5334": "\u6d41\u6d6a", "5335": "\u89c4\u683c", "5336": "\u5949\u732e", "5337": "\u5c06\u4f1a", "5338": "\u81ea\u4e60", "5339": "\u521a\u770b", "5340": "\u724c", "5341": "\u7b2c\u4e09", "5342": "\u5de5\u5177", "5343": "\u4e60", "5344": "\u9014\u4e2d", "5345": "\u589e\u957f", "5346": "\u8f7b\u8f7b", "5347": "\u5b9e\u62cd", "5348": "\u597d\u6015", "5349": "\u63a8\u5e7f", "5350": "\u4e0d\u53ca", "5351": "\u4e00\u6b65\u6b65", "5352": "\u9769\u547d", "5353": "\u8001\u5929\u7237", "5354": "\u64cd\u86cb", "5355": "\u4eb2\u81ea", "5356": "cnm", "5357": "\u8fd9\u5929", "5358": "\u540e\u5929", "5359": "\u968f\u540e", "5360": "\u4e49\u52a1", "5361": "\u8fd1\u65e5", "5362": "\u602a\u4e0d\u5f97", "5363": "\u9019", "5364": "\u7565", "5365": "\u4e0d\u7ecf\u610f", "5366": "\u6ca1\u5fc3\u6ca1\u80ba", "5367": "\u5676", "5368": "\u79bb\u522b", "5369": "\u4e22\u5931", "5370": "\u800c\u540e", "5371": "\u4e1c\u4eac", "5372": "\u7b11\u7b11", "5373": "\u7ec8", "5374": "\u4eb2\u5bc6", "5375": "........", "5376": "\u5230\u624b", "5377": "\u8f93\u6db2", "5378": "\u8bbe\u5b9a", "5379": "\u9662", "5380": "\u522e", "5381": "\u56fd\u5bb6\u961f", "5382": "\u4f9b\u5e94", "5383": "\u5927\u849c", "5384": "\u6309\u65f6", "5385": "\u5403\u70b9", "5386": "\u9648", "5387": "\u52a0\u91cd", "5388": "\u4e0d\u8d1f\u8d23\u4efb", "5389": "\u4e0d\u592a\u597d", "5390": "\u963b\u6321", "5391": "\u516c\u5b89", "5392": "\ud83d\ude16", "5393": "E", "5394": "\u9999\u6e2f\u961f", "5395": "5000", "5396": "\u9002\u7528", "5397": "\u6e2f", "5398": "\u60a3\u75c5", "5399": "\u88c5\u7f6e", "5400": "\u72e0", "5401": "\u4e00\u6b21\u6b21", "5402": "\u4e00\u4e00", "5403": "\u65e9\u665a", "5404": "\u592a\u665a", "5405": "\u968f\u7f18", "5406": "\u5c0f\u767d", "5407": "\u5988\u54aa", "5408": "\u79cd\u7c7b", "5409": "\u53e4\u4ee3", "5410": "\u591c\u5bb5", "5411": "\u7b7e\u6536", "5412": "\u4f24\u611f", "5413": "\u9996\u90fd", "5414": "\u5206\u7c7b", "5415": "\u6027\u547d", "5416": "\u8df3\u821e", "5417": "\u997c", "5418": "\u540c\u6d4e", "5419": "\u803d\u8bef", "5420": "\u50f5\u5c38", "5421": "\u653e\u5b66", "5422": "\u7eb7\u7eb7", "5423": "\u8d77\u4e0d\u6765", "5424": "\u5e7f", "5425": "\u5bb3\u4eba", "5426": "\u6d17\u4e2a", "5427": "\u4e45\u8fdd", "5428": "\u540c\u4e00", "5429": "\u5c4b\u5b50", "5430": "\u4e07\u7269", "5431": "\u5c40\u90e8", "5432": "\u9a97\u4eba", "5433": "\u6218\u573a", "5434": "\u653b\u7565", "5435": "\u4e00\u7b14", "5436": "\u8d35\u9633", "5437": "\u5f81\u670d", "5438": "\u653e\u8840", "5439": "\u5ba4", "5440": "\u836f\u5242", "5441": "\u70e4\u8089", "5442": "\u63a8\u8fdf", "5443": "\u4e16\u754c\u536b\u751f\u7ec4\u7ec7", "5444": "\u7701\u4efd", "5445": "\u5927\u592b", "5446": "\u53d1\u56fd\u96be\u8d22", "5447": "75%", "5448": "\u5bbf\u4e3b", "5449": "\u56fd\u58eb\u65e0\u53cc", "5450": "\u9b54\u5bfc", "5451": "\u79d1\u7814\u673a\u6784", "5452": "199501", "5453": "\u674e\u5b50", "5454": "\u63a5\u8bca", "5455": "\u5c3d\u5934", "5456": "\u8d38\u6613", "5457": "\u800c\u8a00", "5458": "\u6a58\u5b50", "5459": "\u7237\u7237\u5976\u5976", "5460": "\u6781\u4e86", "5461": "\u8d8b\u52bf", "5462": "\u559c\u60a6", "5463": "\u8363\u8000", "5464": "\u5e3d\u5b50", "5465": "\u51b7\u6c34", "5466": "2002", "5467": "\u8d39\u7528", "5468": "1998", "5469": "\u8001\u592a\u592a", "5470": "\u4e4b\u5185", "5471": "\u90ae\u4ef6", "5472": "\u5bfc\u6f14", "5473": "\u6b7b\u6d3b", "5474": "\u5173\u706f", "5475": "\u540c\u684c", "5476": "\u641e\u5b9a", "5477": "\u57fa\u672c\u4e0a", "5478": "\u79cb\u5929", "5479": "\u4e8b\u6001", "5480": "\u65e9\u671f", "5481": "\u7792", "5482": "\u4e0d\u5f03", "5483": "\u673a\u5668", "5484": "\u529f\u6548", "5485": "\u6765\u5f97", "5486": "\u5468\u671f", "5487": "\u5bd2", "5488": "\u7f8e\u989c", "5489": "\u7269\u4e1a", "5490": "\u9b54", "5491": "\u6253\u5305", "5492": "\u4e00\u6a21\u4e00\u6837", "5493": "\u91cd\u8981\u6027", "5494": "\u256f", "5495": "\u6492\u5a07", "5496": "\u51d1", "5497": "\u53e4\u4eba", "5498": "\u6025\u6027", "5499": "\u6211\u6d3b", "5500": "\u4f5b", "5501": "\u8bb2\u9053\u7406", "5502": "\u72af\u8d31", "5503": "\u73ed\u957f", "5504": "\u5bd2\u5047", "5505": "\u6ee1\u8138", "5506": "\u9891\u7e41", "5507": "\u8ba1\u7b97\u673a", "5508": "\u77e5", "5509": "\u563f", "5510": "\u5e73\u5747", "5511": "\u5bb5\u591c", "5512": "\u5171\u5ea6", "5513": "\u5170\u5dde", "5514": "\u4f17\u591a", "5515": "\u5185\u6db5", "5516": "\u6028", "5517": "\u4e27\u5fc3\u75c5\u72c2", "5518": "\u597d\u559d", "5519": "\u4ee5\u5916", "5520": "\u5f25\u8865", "5521": "bb", "5522": "\u5c0a\u4e25", "5523": "\u64c5\u957f", "5524": "\u6e05\u6c34", "5525": "\u987a\u5176\u81ea\u7136", "5526": "\u8fd8\u7279", "5527": "\u8f66\u5b50", "5528": "\u591a\u79cd", "5529": "\u5750\u5730\u94c1", "5530": "\u8bbe\u65bd", "5531": "\u4e0a\u4e0b\u73ed", "5532": "\u4e2a\u4f53", "5533": "\u70ed\u6c34", "5534": "\u603b\u5171", "5535": "\u6545", "5536": "\u5927\u57ce\u5e02", "5537": "\u54c1\u8d28", "5538": "\u770b\u91cd", "5539": "\u8db3\u4ee5", "5540": "\u4e00\u65e5", "5541": "\u6291\u90c1", "5542": "\u53f2\u4e0a", "5543": "\u62b5\u6297", "5544": "\u5ac1", "5545": "\u7687\u5e1d", "5546": "\u6ca1\u6765", "5547": "\ud83d\ude48", "5548": "\u642d\u914d", "5549": "\u4e00\u5473", "5550": "\u6587", "5551": "\u867d\u8bf4", "5552": "\u8377\u5170", "5553": "\u70b9\u5f00", "5554": "\u6b67\u89c6", "5555": "\u5904\u5728", "5556": "\u4e0b\u624b", "5557": "\u51e0\u5f20", "5558": "<", "5559": "\u652f\u4ed8", "5560": "boss", "5561": "\u5730\u677f", "5562": "\u5341", "5563": "\u534e\u4e3a", "5564": "\u5ea7", "5565": "\u5bfc\u5e08", "5566": "2013", "5567": "\u4eba\u6d41", "5568": "\u7528\u529b", "5569": "\u5367\u5ba4", "5570": "\u65e0\u6761\u4ef6", "5571": "180", "5572": "\u5f88\u7d2f", "5573": "\u5927\u4e0d\u4e86", "5574": "\u5929\u5730", "5575": "\u62b9", "5576": "\u8d27\u5e01", "5577": "\u884c\u8d70", "5578": "\u6b8b\u9177", "5579": "\u542b", "5580": "\u7b2c\u4e00\u6761", "5581": "\u68c0\u9a8c", "5582": "\u5403\u5b8c\u996d", "5583": "\u5ba0", "5584": "\u5927\u4e09", "5585": "\u54ea\u6709", "5586": "\u6709\u7a7a", "5587": "\u6454\u5012", "5588": "\u80e1\u601d\u4e71\u60f3", "5589": "\u575a\u4fe1", "5590": "\u70b9\u540d", "5591": "\u8054\u60f3", "5592": "\u70eb\u4f24", "5593": "\u8fc7\u5f80", "5594": "\u6709\u673a", "5595": "\u90a3\u5e74", "5596": "\u81ea\u613f", "5597": "\u90d1\u607a", "5598": "\u51ac\u65e5", "5599": "\u4e8c\u7ea7", "5600": "\u5bb6\u95e8\u53e3", "5601": "\u6458", "5602": "\u7b11\u5bb9", "5603": "\u4f53\u8d28", "5604": "\u524d\u4e00\u5929", "5605": "\u7b14\u8bb0", "5606": "\u5c0f\u5c9b", "5607": "\u0ca5", "5608": "\u788e\u89c9", "5609": "\u5370\u5ea6", "5610": "\u5728\u5185", "5611": "\u7ef4\u4fee", "5612": "\u6015\u6015", "5613": "\u80a1\u5e02", "5614": "`", "5615": "\u90a3\u513f", "5616": "250", "5617": "\u76d1\u7ba1", "5618": "\u9633\u6027", "5619": "\u6d41\u8840", "5620": "\u5b9e", "5621": "\u7ea2\u5305", "5622": "\u7ed3\u819c", "5623": "\u63a5\u9001", "5624": "\u8fdb\u51fa", "5625": "\u63a8\u6d4b", "5626": "\u4eba\u7978", "5627": "\u5bd2\u5fc3", "5628": "\u5e74\u591c\u996d", "5629": "\u4f20\u7ed9", "5630": "\u8bca\u7597", "5631": "\u5415\u8d1d\u514b", "5632": "\u63a7\u5236\u4e2d\u5fc3", "5633": "\u6e21\u8fc7\u96be\u5173", "5634": "\u738b\u5609\u5c14", "5635": "\u53f7\u53ec", "5636": "\u6d6a\u91cc", "5637": "\u8d64\u6761", "5638": "\u7c97\u6797", "5639": "\u6295\u7ed9", "5640": "473", "5641": "\u5f04\u6b7b", "5642": "\u5927\u98ce", "5643": "\u603b\u6709\u4e00\u5929", "5644": "\u77e5\u4e0d\u77e5\u9053", "5645": "\u8d76\u5230", "5646": "\u8a00", "5647": "\u9ad8\u51b7", "5648": "\u4e00\u665a", "5649": "\u73a9\u5177", "5650": "\u8bbf\u95ee", "5651": "\u5168\u7701", "5652": "\u7701\u653f\u5e9c", "5653": "\u9f20\u6807", "5654": "\u5ba2\u89c2", "5655": "\u51e0\u70b9", "5656": "\u4e8c\u6b21", "5657": "\u84dd\u5929", "5658": "\ud83c\udf19", "5659": "\u5f00\u68ee", "5660": "\u5c45\u4f4f", "5661": "\u7814\u5236", "5662": "\u7f3a\u5c11", "5663": "\u753b\u98ce", "5664": "\ud83d\udc94", "5665": "\u5220\u6389", "5666": "\u8981\u4e0d\u7136", "5667": "\u90a3\u53e5\u8bdd", "5668": "\u5e38\u7528", "5669": "\u81ea\u5351", "5670": "\u5929\u771f", "5671": "\u60f3\u50cf", "5672": "\u63d2\u961f", "5673": "\u56de\u60f3", "5674": "\u4e5f\u7f62", "5675": "\u5929\u624d", "5676": "\u6709\u5fc3", "5677": "\u51b2\u7a81", "5678": "\u591a\u6570", "5679": "\u65e0\u6570\u4e2a", "5680": "\uff05", "5681": "\u679c\u771f", "5682": "\u8bf4\u771f\u7684", "5683": "\u5c82", "5684": "\u6700\u6df1", "5685": "\u627e\u56de", "5686": "\u5f02\u5730", "5687": "\u5178\u578b", "5688": "\u6ca1\u7535", "5689": "\u91d1\u5c5e", "5690": "\u5206\u4e0d\u6e05", "5691": "\u8ff7\u60d1", "5692": "\u672c\u8d28", "5693": "\u8bb0\u8f7d", "5694": "\u547c\u547c", "5695": "\u5375", "5696": "\u8fd8\u6562", "5697": "\u50bb\u74dc", "5698": "\u5927\u4e8e", "5699": "\u6563", "5700": "\u6446\u8131", "5701": "\u996e\u98df", "5702": "\u793e\u4ea4", "5703": "\u7406\u5ff5", "5704": "\u6b7b\u5211", "5705": "\u5965", "5706": "\u591a\u4e8b", "5707": "\u9884\u671f", "5708": "\u5f3a\u6c42", "5709": "\u6c1b\u56f4", "5710": "\u6559\u4f1a", "5711": "\u707f\u70c2", "5712": "\u8fde\u63a5", "5713": "\u8783\u87f9", "5714": "\u9ed1\u5fc3", "5715": "\u7ee7\u627f", "5716": "\u5f3a\u884c", "5717": "\u914d\u5957", "5718": "shi", "5719": "\u540e\u7eed", "5720": "\u4f10", "5721": "\u4e0b\u96ea\u5929", "5722": "\u4e00\u53d1", "5723": "\u8212\u9002", "5724": "OMG", "5725": "\u7cbe", "5726": "\u51fa\u4e8b", "5727": "\u906d\u9047", "5728": "\u517c", "5729": "\ud83d\ude1d", "5730": "\u4e0d\u81f3\u4e8e", "5731": "\u5927\u7ea6", "5732": "\u7acb\u6cd5", "5733": "\u6c14\u6e29", "5734": "\u77e5\u540d", "5735": "\u72ee\u5b50", "5736": "\u94f6\u884c\u5361", "5737": "\u6d1b\u9633", "5738": "\u6709\u70b9\u513f", "5739": "\ud83c\udf38", "5740": "OK", "5741": "\u597d\u813e\u6c14", "5742": "\u8bb2\u8ff0", "5743": "\u5b66\u5386", "5744": "\u770b\u4e0d\u8d77", "5745": "\u6295\u5165", "5746": "\u9762\u4e34", "5747": "\u4e3b\u4f53", "5748": "\u4fdd\u5b9a", "5749": "\u82b1\u56ed", "5750": "\u8292\u679c", "5751": "\u96be\u770b", "5752": "\u75db\u5fc3", "5753": "\u975e\u6d32", "5754": "\u5982\u56fe", "5755": "\u6905\u5b50", "5756": "\u6b22\u559c", "5757": "\u5768", "5758": "\u5b89\u7136", "5759": "\u543b", "5760": "\u821e\u8e48", "5761": "\u6d88\u8017", "5762": "\u5e05\u54e5", "5763": "\u79cd\u79cd", "5764": "\u8bd5\u56fe", "5765": "\u8bbe", "5766": "\u7f8a\u8089", "5767": "\u6297\u62d2", "5768": "\u8f90\u5c04", "5769": "\u8944\u9633", "5770": "\u5728\u5916", "5771": "\u4e00\u6765", "5772": "\u534e\u5357", "5773": "\u8bed\u6c14", "5774": "\u6b21\u6570", "5775": "\u516c", "5776": "\u5b98\u50da", "5777": "\u4e00\u671f", "5778": "\u8fd9\u4e00\u89c9", "5779": "\u9065\u8fdc", "5780": "\u541e", "5781": "\u7b2c\u4e94", "5782": "\u7eaf", "5783": "\u7f57", "5784": "\u53ef\u7b11", "5785": "\u4eba\u591a", "5786": "\u5251", "5787": "\u9762\u5b50", "5788": "\u96ea\u82b1", "5789": "\u5f3a\u8feb", "5790": "\u505a\u4f5c\u4e1a", "5791": "2012", "5792": "\u9a9a\u6270", "5793": "\u54a6", "5794": "\u642d\u7406", "5795": "\u547d\u4ee4", "5796": "\u4e1c\u65b9", "5797": "\u53ef\u60b2", "5798": "PS", "5799": "\u8eab\u5fc3", "5800": "\u5ab3\u5987", "5801": "\u90d1", "5802": "\u51b0", "5803": "\u76ee\u5149", "5804": "\u673a\u5668\u4eba", "5805": "\u89c2\u70b9", "5806": "\u9ebb\u8fa3", "5807": "\u7c97\u66b4", "5808": "\u8a00\u8bba", "5809": "\u751c\u871c", "5810": "\u6307\u6807", "5811": "\u7c73\u996d", "5812": "\u5413\u4e00\u8df3", "5813": "\u7ee7", "5814": "\u53d1\u653e", "5815": "\u6d41\u884c", "5816": "\u5565\u4e8b", "5817": "\u70b9\u51fb", "5818": "\u89c1\u8bc6", "5819": "\u5c3d\u91cf\u5c11", "5820": "\u6c89\u6d78", "5821": "\u6c11\u95f4", "5822": "\u540e\u671f", "5823": "\u6d45", "5824": "\u592a\u5e73", "5825": "\u6b27\u9633", "5826": "\u603b\u90e8", "5827": "\u829d\u58eb", "5828": "\u79e6", "5829": "\u57fa\u91d1", "5830": "\u4ee3\u7801", "5831": "\u53f0\u5dde", "5832": "\u4e43", "5833": "\u4ee5\u5f80", "5834": "\u836f\u54c1", "5835": "i", "5836": "\u8b66\u65b9", "5837": "\u9644\u5c5e", "5838": "\u51ef\u6587", "5839": "\u4f53\u5f81", "5840": "\u5b9a\u4f4d", "5841": "\u60c5\u666f", "5842": "\u958b\u5fc3", "5843": "\u675c\u7edd", "5844": "\u7ef4\u751f\u7d20", "5845": "\u53d8\u597d", "5846": "\u8981\u7d27", "5847": "\u8f66\u7968", "5848": "\u52df\u6350", "5849": "\ud83d\ude20", "5850": "\u62a4\u536b\u961f", "5851": "\u95e8\u7968", "5852": "\u538b\u6839", "5853": "\u957f\u53d1", "5854": "\u6613\u611f", "5855": "\u6df1\u5ea6", "5856": "\u975e\u6cd5", "5857": "\u5750\u6807", "5858": "\u737e", "5859": "\u4e09\u8054", "5860": "\u9648\u8fea", "5861": "Winston", "5862": "\u67e5\u8bc1", "5863": "n95", "5864": "\u5171\u514b", "5865": "\u8d56\u51a0\u9716", "5866": "\u5de5\u4fe1\u90e8", "5867": "\u66f4\u591a\u4eba", "5868": "\u64a4\u6863", "5869": "\u6821\u8003", "5870": "\u72c2\u7761", "5871": "\u592a\u7d2f", "5872": "\u754c", "5873": "\u4e24\u5f20", "5874": "\u51cc\u4e71", "5875": "\u62a5\u9500", "5876": "\u4e0d\u63a5", "5877": "\u8fc7\u65e5\u5b50", "5878": "\u7d27\u7d27", "5879": "\u786e\u4fdd", "5880": "\u62ce", "5881": "\u6df1\u5165", "5882": "\u536b\u89c6", "5883": "\u521b\u529e", "5884": "\u53ef\u89c1", "5885": "\u5b9a\u4ef7", "5886": "\u62c5\u5f53", "5887": "\u90e8\u4f4d", "5888": "\u8003\u5b8c", "5889": "\u91d1\u94b1", "5890": "\u5468\u56db", "5891": "\u5e74\u95f4", "5892": "\u9884\u7ea6", "5893": "\u751c\u751c", "5894": "\u70ab\u8000", "5895": "\u5012\u8ba1\u65f6", "5896": "\u8fd0\u7528", "5897": "\u5fc3\u8df3", "5898": "\u67d4\u8f6f", "5899": "\u5341\u4e03\u5e74", "5900": "\u6d12", "5901": "\u665a\u81ea\u4e60", "5902": "\u897f\u5357", "5903": "\u5b66\u8005", "5904": "\u632b\u6298", "5905": "\u6781", "5906": "\u961f\u957f", "5907": "\u70df\u82b1", "5908": "\u597d\u6bd4", "5909": "\u5510", "5910": "\u5f20\u56fe", "5911": "\u540c\u60c5", "5912": "\u5fc5", "5913": "\u96e8\u5929", "5914": "\u505a\u9519", "5915": "\u667a\u9f7f", "5916": "\u5355\u8bcd", "5917": "54", "5918": "\u4e4b\u4e0b", "5919": "\u751f\u6015", "5920": "\u5b66\u9738", "5921": "\u5750\u4e0b", "5922": "\u6d88\u8d39\u8005", "5923": "\u6838\u9178", "5924": "\u8bc6\u522b", "5925": "\u6d17\u8138", "5926": "\u5730\u8bf4", "5927": "\u9009\u62e9\u6027", "5928": "\u559c\u6b61", "5929": "\u6ce8\u91cd", "5930": "\u6e05\u6d17", "5931": "\u5927\u6d77", "5932": "\u6349", "5933": "\u6b27\u5df4", "5934": "\u96f6\u4e0b", "5935": "\u4e0a\u6620", "5936": "\u538c\u6076", "5937": "\u536b\u751f\u95f4", "5938": "\u7ed5", "5939": "\u4e00\u5343", "5940": "\u62c9\u5c4e", "5941": "\u91cd\u91cf", "5942": "\u706b\u8f66\u7968", "5943": "\u4e03\u5e74", "5944": "\u4fbf\u5229", "5945": "\u51fa\u4e2a", "5946": "\u6597\u4e89", "5947": "\u5e9f\u7269", "5948": "\u8054\u901a", "5949": "\u5341\u4e2a", "5950": "\u5976\u6cb9", "5951": "\u754f\u7f29", "5952": "\u7a9d\u706b", "5953": "\u4e50\u8da3", "5954": "\u8fa3\u6912", "5955": "\u6c14\u5f97", "5956": "\u5f69\u6392", "5957": "80%", "5958": "\u53f6\u5b50", "5959": "\u4eba\u529b\u8d44\u6e90", "5960": "\u5c42\u9762", "5961": "\ud83d\udc7b", "5962": "\u5ff5\u5934", "5963": "\u65e0\u7f18\u65e0\u6545", "5964": "low", "5965": "\u7535\u4fe1", "5966": "\u996e\u6599", "5967": "\u9000\u51fa", "5968": "\u6d6a\u8d39\u65f6\u95f4", "5969": "\u7eff\u5316", "5970": "\u795e\u70e6", "5971": "\u5b8c\u540e", "5972": "\u53f7\u7801", "5973": "\u8fd9\u65f6", "5974": "\u7747", "5975": "\u5783\u573e\u6876", "5976": "\u7f8a\u6c34", "5977": "\u5c3d\u53ef\u80fd", "5978": "\u7a81\u51fa", "5979": "\u5267\u672c", "5980": "\u514d\u75ab", "5981": "\u4e88\u4ee5", "5982": "\u9a6c\u6765\u897f\u4e9a", "5983": "\u87d1\u8782", "5984": "\u5494", "5985": "\u8bc9\u8bf4", "5986": "\u5916\u89c2", "5987": "\u6307\u6325", "5988": "sei", "5989": "\u5fc3\u60ca\u80c6\u6218", "5990": "\u4eba\u53bb", "5991": "\u89e3\u6563", "5992": "\u53d4", "5993": "\u5410\u8840", "5994": "\u8d2a\u5a6a", "5995": "\u5c3a\u5bf8", "5996": "\u624b\u518c", "5997": "\u5c38\u4f53", "5998": "\u7ec6", "5999": "\u6211\u957f", "6000": "\u5fc5\u6709", "6001": "\u59d4\u5458", "6002": "\u4e8b\u9879", "6003": "\u4e92\u52a8", "6004": "\u5a74\u513f", "6005": "\u2220", "6006": "\u5982\u4e0b", "6007": "\u5348\u9910", "6008": "\u53d1\u52a8\u673a", "6009": "\u65f6\u5e38", "6010": "\u5355\u66f2", "6011": "\u5199\u4f5c", "6012": "\u539f\u59cb", "6013": "\u76f8\u805a", "6014": "\u8868\u683c", "6015": "\u6bcf\u6bcf", "6016": "\u665a\u671f", "6017": "\u81ea\u4ee5\u4e3a\u662f", "6018": "\u6d41", "6019": "\u8d50", "6020": "\u53cd\u9988", "6021": "\u54c1\u5473", "6022": "\ud83d\ude32", "6023": "\u5408\u7167", "6024": "\u5145", "6025": "\u9879", "6026": "\u6ed1", "6027": "\u5b9c\u660c", "6028": "\u6027\u522b", "6029": "\u6ce2\u52a8", "6030": "\u5e74\u5ea6", "6031": "\u6b63\u9762", "6032": "\u590f", "6033": "\u6253\u5370", "6034": "\u770b\u6cd5", "6035": "\u8461\u8404", "6036": "\u6765\u88ad", "6037": "\u524d\u63d0", "6038": "\u4e00\u4e07\u53ea", "6039": "\u597d\u51e0\u5e74", "6040": "\u51e0", "6041": "\u4e8b\u6545", "6042": "\u4e0d\u53ef\u601d\u8bae", "6043": "\u914d\u5907", "6044": "\u5eb7\u590d", "6045": "\u4e8c\u697c", "6046": "\u51b0\u96ea", "6047": "\u4e13\u8f91", "6048": "\u903c\u771f", "6049": "\u89e3\u51b3\u95ee\u9898", "6050": "\u884c\u8f66", "6051": "\u63a5\u7535\u8bdd", "6052": "\u63a2\u4eb2", "6053": "\u62a5\u540d", "6054": "G", "6055": "\u6628\u5929\u4e0b\u5348", "6056": "\u59dc", "6057": "\u8111\u58f3", "6058": "\u4ea4\u4ee3", "6059": "\u624b\u5fc3", "6060": "\u8346\u5dde", "6061": "\u8bd5\u7740", "6062": "\u67e5\u8be2", "6063": "\u7f51\u6613", "6064": "l", "6065": "\u5f00\u5de5", "6066": "\u6587\u7269", "6067": "\u95ed\u9986", "6068": "\u9ebd", "6069": "\u5916\u56fd", "6070": "\u827a\u4eba", "6071": "\u5de6\u624b", "6072": "\u667a\u969c", "6073": "\u8fd0\u52a8\u4f1a", "6074": "\u5f53\u4f5c", "6075": "\u76f4\u547c", "6076": "\u5a92\u4f53\u62a5\u9053", "6077": "\u6015\u51b7", "6078": "\u51b7\u98ce", "6079": "\u4e61\u9547", "6080": "\u8f6c\u8fd0", "6081": "\u6211\u5f1f", "6082": "\u5343\u5343\u4e07\u4e07", "6083": "\u504f", "6084": "\u4fe1\u9633", "6085": "and", "6086": "\u728a\u5b50", "6087": "\u5927\u5b9d", "6088": "\u6743\u5a01", "6089": "\u6350\u52a9", "6090": "\u5b66\u533b", "6091": "\u6fb3\u95e8", "6092": "SZ", "6093": "\u56fd\u6cf0\u6c11\u5b89", "6094": "\u7af9\u9f20", "6095": "\u786c\u6838", "6096": "\u8ffd\u8d23", "6097": "\u5957\u73b0", "6098": "\u52a1\u5fc5", "6099": "\u75be\u63a7", "6100": "\u79bb\u6c49", "6101": "\u6731\u6b63\u5ef7", "6102": "\u5ea6\u8fc7\u96be\u5173", "6103": "nCoV", "6104": "\u52a8\u5458", "6105": "\u8c2d", "6106": "\u59dc\u5b50\u7259", "6107": "\u0f7c", "6108": "\u7269\u7406", "6109": "\u7403\u8ff7", "6110": "\u5546\u4e1a", "6111": "\u4e00\u76d2", "6112": "\u679c\u5b9e", "6113": "\u56f4\u5dfe", "6114": "\u517b\u6210", "6115": "\u6069", "6116": "\u6390\u6b7b", "6117": "\u8bdd\u8d39", "6118": "\u4e00\u76c6", "6119": "\u5341\u4e00\u70b9", "6120": "\u591a\u597d", "6121": "1.5", "6122": "\u4f4e\u4e8e", "6123": "\u7231\u662f", "6124": "\u79d1\u76ee", "6125": "\u6253\u8f66", "6126": "\u73e0\u6d77", "6127": "\u8c46", "6128": "\u6bcf\u6708", "6129": "\u599e", "6130": "\u54ce\u54df", "6131": "\u4e8c\u80ce", "6132": "\u8d85\u4eba", "6133": "\u65e0\u80fd", "6134": "\u5f62\u72b6", "6135": "\u90a3\u573a", "6136": "\u56e2\u7ed3", "6137": "\u592a\u597d", "6138": "\u95fb", "6139": "\u5f88\u5c0f", "6140": "\u9884\u6848", "6141": "\u6062\u590d\u6b63\u5e38", "6142": "\u9752", "6143": "\u610f\u5927\u5229", "6144": "\u542c\u8bfe", "6145": "\u521d\u671f", "6146": "\u4f18\u8d28", "6147": "\u9006\u5929", "6148": "\u53ef\u6068", "6149": "\u6211\u59d0", "6150": "\u4e00\u53f0", "6151": "39", "6152": "\u516d\u70b9\u534a", "6153": "\u822c\u7684", "6154": "\u5f53\u4ee3", "6155": "\u514b\u5236", "6156": "\u6211\u521a", "6157": "\u70ed\u95f9", "6158": "\u70e6\u4e0d\u70e6", "6159": "\u67dc\u5b50", "6160": "\u5f53\u573a", "6161": "\u591a\u4e00\u70b9", "6162": "\u6d47", "6163": "\u77f3\u6cb9", "6164": "\u6bdb\u6bdb", "6165": "\u8001\u864e", "6166": "\u4e00\u95f4", "6167": "\u672a\u66fe", "6168": "\u770b\u4e00\u770b", "6169": "\u5916\u52a0", "6170": "\u72d7\u5e26", "6171": "\u8c28\u614e", "6172": "\u25bd", "6173": "\u5c0f\u72d7", "6174": "\u6e56", "6175": "\u864e", "6176": "\u571f\u8c46", "6177": "\u6c89\u6dc0", "6178": "\u9ad8\u5c42", "6179": "\u6ca1\u610f\u601d", "6180": "\u4e00\u5206", "6181": "\u6696\u548c", "6182": "\u96be\u6c11", "6183": "\u5973\u738b", "6184": "\u653e\u5230", "6185": "\u6eda\u6eda", "6186": "\u8d70\u51fa", "6187": "\u5413\u9192", "6188": "\u5b89\u5b81", "6189": "\u4e00\u70b9\u513f", "6190": "\u6d17\u6d17", "6191": "\u96e8\u58f0", "6192": "\u60f3\u5bb6", "6193": "\u8ff7\u8ff7\u7cca\u7cca", "6194": "\u4eba\u529b", "6195": "\u6050\u6015", "6196": "\u79cd\u690d", "6197": "w", "6198": "\u6210\u5206", "6199": "\u8ba8\u597d", "6200": "\u591a\u6708", "6201": "\u5954\u6ce2", "6202": "\u80a0\u80c3", "6203": "\u97e9", "6204": "\u63a8\u9500", "6205": "\u4e0d\u820d", "6206": "\u95e8\u524d", "6207": "\u5e73\u65b9\u516c\u91cc", "6208": "\u5448\u73b0", "6209": "\u52a8\u6f2b", "6210": "\u7172", "6211": "\u5730\u94c1\u7ad9", "6212": "\u4f38\u624b", "6213": "\u5c11\u6570", "6214": "\u90aa\u6559", "6215": "\u57ab", "6216": "\u6c6a", "6217": "\u6279\u8bc4", "6218": "\u4f53\u5236", "6219": "\u65e0\u7f18", "6220": "\u6247", "6221": "\u51fa\u8eab", "6222": "\u5341\u4e8c", "6223": "\u7f51\u901f", "6224": "\u7f18", "6225": "\u6863\u6848", "6226": "\u63c9", "6227": "\u9047", "6228": "\u56de\u4e8b", "6229": "\u80e1\u841d\u535c", "6230": "\u665a\u7761", "6231": "\u8fd9\u4e8b", "6232": "\u505c\u4e0b", "6233": "\u6703", "6234": "\u76ee\u7684\u5730", "6235": "\u771f\u591f", "6236": "\u73bb\u7483\u5fc3", "6237": "\u96be\u5fd8", "6238": "\u706b\u6c14", "6239": "2005", "6240": "\u8c03\u76ae", "6241": "\u5e8a\u5355", "6242": "high", "6243": "\u75d8", "6244": "\u4e00\u7ec4", "6245": "\u600e", "6246": "\u7b14", "6247": "\u5e72\u90e8", "6248": "\u59d3", "6249": "\u8981\u94b1", "6250": "\u65cb\u8f6c", "6251": "\u4e00\u95e8", "6252": "\u4e0d\u7981", "6253": "\u7126\u8e81", "6254": "\u534f\u52a9", "6255": "\u51e0\u628a", "6256": "\u516c\u65a4", "6257": "\u7eff\u8272", "6258": "\u7269\u79cd", "6259": "\u4e8c\u4eba", "6260": "\u9ad8\u6821", "6261": "\u70b9\u70b9", "6262": "\u65b0\u4eba", "6263": "\u53e3\u7ea2", "6264": "\u534e\u4e3d", "6265": "\u5815\u843d", "6266": "\u7ec4\u6210\u5458", "6267": "\u6c11\u4e3b", "6268": "\u5bbd\u5bb9", "6269": "\u70ed\u7231", "6270": "\u5192\u51fa\u6765", "6271": "\u4ece\u5c0f\u5230\u5927", "6272": "\u6dfb\u5835", "6273": "\u5e26\u6709", "6274": "\u62d4", "6275": "\u67da\u5b50", "6276": "360", "6277": "\u6ca1\u4eba\u7ba1", "6278": "\u793e\u4f1a\u4e3b\u4e49", "6279": "\u6253\u8d25", "6280": "\u4f18\u5148", "6281": "\u4e4b\u5fc3", "6282": "\u604b", "6283": "\u5408\u540c", "6284": "\u914d", "6285": "\u5168\u5bb6\u4eba", "6286": "\u5634\u89d2", "6287": "\u4e0a\u4e0b", "6288": "\u732a\u8089", "6289": "\u4e2d\u6709", "6290": "\u9e21\u5df4", "6291": "\u989c", "6292": "\u6d59\u6c5f\u7701", "6293": "\u4e2d\u90e8", "6294": "53", "6295": "\u610f", "6296": "\u7f6a", "6297": "\u820c\u5934", "6298": "\u7259\u9f88", "6299": "\u5375\u7528", "6300": "\u4fca\u6770", "6301": "\u5ba2", "6302": "\u56e2\u5706", "6303": "\u534a\u6b7b", "6304": "\u5986", "6305": "\u6df1\u60c5", "6306": "\u5e26\u6211\u53bb", "6307": "37", "6308": "\u6c5f\u897f\u7701", "6309": "\u5c01\u6740", "6310": "\u8138\u7ea2", "6311": "\u7248\u6743", "6312": "\u4eba\u60c5", "6313": "\u54ea\u5412", "6314": "\u6df7\u4e71", "6315": "\u53ef\u9760", "6316": "\u5e02\u533a", "6317": "\u8d8a\u6765\u8d8a\u8fd1", "6318": "\u90e8\u957f", "6319": "\u59d4\u6258", "6320": "\u76f8\u89c1", "6321": "\u7968\u623f", "6322": "\u51e0\u53e5", "6323": "\u9003\u8dd1", "6324": "\u5468\u516d", "6325": "\u3044", "6326": "\u5176\u4f59", "6327": "\u535a\u5ba2", "6328": "\u4f20\u67d3\u7ed9", "6329": "\u4eba\u6d41\u91cf", "6330": "\u6253\u4e0d\u5f00", "6331": "\u8dea\u6c42", "6332": "\u64ad\u62a5", "6333": "\u65b0\u751f", "6334": "\u4e0b\u8f7d", "6335": "\u4e0d\u56de", "6336": "\u5468\u65e5", "6337": "\u4e00\u535a", "6338": "\u4eb2\u53cb", "6339": "\u4e70\u83dc", "6340": "\u521b\u4f24", "6341": "\u6c14\u5019", "6342": "01", "6343": "\u5ba1\u6838", "6344": "\u5931\u804c", "6345": "\u4e00\u5207\u987a\u5229", "6346": "\u53ed", "6347": "NO", "6348": "\u6cbb\u75c5", "6349": "\u63d0\u9ad8\u8b66\u60d5", "6350": "\u5b5d\u611f", "6351": "\u5c01\u57ce\u540e", "6352": "Cr", "6353": "\u6d88\u89c9", "6354": "ACFC", "6355": "\u7ba1\u946b", "6356": "Sam", "6357": "\u8f7b\u91cf\u5316", "6358": "\u9694\u79bb\u75c5\u623f", "6359": "CALL", "6360": "\u65f6\u8270", "6361": "\u4e8c\u7ec4", "6362": "\u8c03\u5ea6", "6363": "\u5c3d\u5168\u529b", "6364": "\u5e01", "6365": "\u53d1\u5149", "6366": "\u6253\u724c", "6367": "\u4fae\u8fb1", "6368": "\u521d\u6b65", "6369": "\u5b89\u5b9a", "6370": "\u4eba\u6d3b", "6371": "\u706b\u5927", "6372": "\u8d37\u6b3e", "6373": "\u96be\u71ac", "6374": "\u4e07\u80fd", "6375": "\u7ed3\u8bba", "6376": "\u5065\u8eab\u623f", "6377": "\u671f\u9650", "6378": "\u5b81\u9759", "6379": "\u6210\u5e74", "6380": "\u6d41\u9f3b\u6d95", "6381": "\u731d\u6b7b", "6382": "\u9ebb\u6728", "6383": "\u5c9b", "6384": "\u7ae5\u5e74", "6385": "\u989c\u503c", "6386": "\u8d1f\u8d23\u4eba", "6387": "\u592a\u5b50", "6388": "\u538b\u60ca", "6389": "\u4f60\u5011", "6390": "\u62e7", "6391": "\u4ef7\u503c\u89c2", "6392": "\u51cf", "6393": "\u8c03\u8282", "6394": "\u591a\u540d", "6395": "\u767e", "6396": "\u4e66\u7c4d", "6397": "\u6574\u665a", "6398": "\u6253\u9020", "6399": "\u666e\u4eac", "6400": "\u5b97\u6559", "6401": "\u6c14\u6b7b\u6211", "6402": "\u706f\u5149", "6403": "\u4e00\u6ce2", "6404": "\u7cbe\u795e\u75c5", "6405": "\u7bb1\u5b50", "6406": "\u6162\u6027", "6407": "\u53e3\u8bed", "6408": "\u7b56\u5212", "6409": "\u5750\u8f66", "6410": "\u751a", "6411": "\u4e0d\u5f53", "6412": "\u8bb8\u4e45", "6413": "\u5e26\u9886", "6414": "\u987a\u5e8f", "6415": "\u8be5\u6751", "6416": "\u65c5\u9014", "6417": "\u6c38\u8fdc\u90fd\u662f", "6418": "\u56fa\u6267", "6419": "\u6709\u70b9\u50cf", "6420": "\u51c6\u65f6", "6421": "\u6e05\u65b0", "6422": "\u5f53\u505a", "6423": "130", "6424": "\u53fc", "6425": "\u6253\u7740", "6426": "\u559d\u5b8c", "6427": "\u998b", "6428": "\u524d\u4efb", "6429": "\u516c\u4e3e", "6430": "\u592a\u60e8", "6431": "\u5564\u9152", "6432": "\u623f", "6433": "\u4e0b\u5468", "6434": "\u662f\u6211\u592a", "6435": "\u8fc7\u763e", "6436": "\u5f00\u6c34", "6437": "\u9f3b\u6d95", "6438": "\u5de5\u4f5c\u65e5", "6439": "\u56e4", "6440": "\u4e2d\u5171", "6441": "\u88ad\u51fb", "6442": "\u6839", "6443": "\u4e54", "6444": "\u666f\u8272", "6445": "\u4e0d\u77e5\u6240\u63aa", "6446": "\u663e\u7136", "6447": "\u65f6\u800c", "6448": "\u76d1\u72f1", "6449": "\u5435\u5435", "6450": "\u762b\u75ea", "6451": "\u65e0\u8bba\u5982\u4f55", "6452": "\u5654", "6453": "\u521b\u5efa", "6454": "\u8f6f", "6455": "\u6a21\u4eff", "6456": "\u6caa", "6457": "\u5341\u516b\u5c81", "6458": "\u4e0d\u8fdc", "6459": "\u53d1\u7968", "6460": "\u8fa3\u9e21", "6461": "\u7559\u610f", "6462": "\u7b2c\u56db", "6463": "\u4e8c\u5e74", "6464": "\u5bfc\u822a", "6465": "\u6ca1\u5b8c", "6466": "\u53cd\u7701", "6467": "xx", "6468": "\u8bbe\u7acb", "6469": "\u771f\u6709", "6470": "\ud83d\udc83", "6471": "\u51cf\u8f7b", "6472": "\u5c0f\u54c1", "6473": "\u5404\u79cd\u5404\u6837", "6474": "\u8bef\u4f1a", "6475": "\u5413\u574f", "6476": "NND", "6477": "\u4e00\u74f6", "6478": "\u8fd9\u4f1a\u513f", "6479": "\u6dd8\u6c70", "6480": "\u6050\u60e7\u611f", "6481": "\u8fd9\u9996", "6482": "\u6208\u58c1", "6483": "\u5360\u7528", "6484": "\u6599\u7406", "6485": "\u79e9\u5e8f", "6486": "\u8fb9\u4e0a", "6487": "\u624b\u5957", "6488": "\u5927\u7c73", "6489": "\u6e0d", "6490": "\u6821\u53cb", "6491": "\u83b7\u53d6", "6492": "\u4e2d\u6587", "6493": "\u8bc1\u4e66", "6494": "\u9001\u6765", "6495": "\u8bbe\u6709", "6496": "\u4e09\u79cd", "6497": "\u5e26\u5230", "6498": "\u5fe7\u8651", "6499": "\u7761\u89c9\u65f6", "6500": "\u5634\u5507", "6501": "\u6253\u626e", "6502": "\u624b\u8868", "6503": "\u4f7f\u52b2", "6504": "\u6bcf\u5230", "6505": "\ud83d\udca4", "6506": "\u6e9c", "6507": "\u76f8\u7ee7", "6508": "120", "6509": "\u98df\u6b32", "6510": "\u521d\u5fc3", "6511": "\u7f51\u6c11", "6512": "\u756a\u8304", "6513": "\u9b3c\u7247", "6514": "\u4e09\u4e9a", "6515": "\u8ff7\u7cca", "6516": "\u7a7a\u4e2d", "6517": "\u5351\u5fae", "6518": "\u6df7\u86cb", "6519": "\u592a\u5c0f", "6520": "\u5236\u6210", "6521": "\u8bd7\u4eba", "6522": "\u4e54\u6cbb", "6523": "\u5ef6\u7eed", "6524": "\u9102\u5dde", "6525": "\u4e9a\u6d32", "6526": "\u6280\u5de7", "6527": "\u684c\u9762", "6528": "\u94a2\u7b4b", "6529": "\u72c2\u72ac\u75c5", "6530": "\u5f71\u9662", "6531": "\u660e\u76ee\u5f20\u80c6", "6532": "\u5bbd\u5e26", "6533": "\u652f\u6491", "6534": "\u663e\u8457", "6535": "\u7a7f\u8fc7", "6536": "\u6076\u6bd2", "6537": "\u8d26\u6237", "6538": "\u8f7f\u8f66", "6539": "\u5f15\u5bfc", "6540": "\u4f24\u4eba", "6541": "\u7559\u4f4f", "6542": "\u9ad8\u80fd", "6543": "\u770b\u6e05", "6544": "\u8de8", "6545": "\u7e41\u534e", "6546": "\u4e1d\u6beb", "6547": "\u4e58\u5750", "6548": "\u731b", "6549": "\u67d0\u67d0", "6550": "\u8fd9\u8d27", "6551": "\u6b65\u884c", "6552": "\u51fa\u5e2d", "6553": "\u5c31\u884c", "6554": "\u6eda\u52a8", "6555": "\u7cbd", "6556": "\ud83d\ude1c", "6557": "\u5168\u9760", "6558": "\u94a2\u94c1", "6559": "\u552f\u72ec", "6560": "\u6599", "6561": "\u53cd\u5bf9", "6562": "\u529e\u4e8b\u5904", "6563": "\u79f0\u4e4b\u4e3a", "6564": "\u7855\u58eb", "6565": "\u4e0d\u582a", "6566": "\u8001\u603b", "6567": "\u5934\u9876", "6568": "\u9996\u6b4c", "6569": "\u9632\u5fa1", "6570": "\u4e09\u53e3", "6571": "\u597d\u4e45\u597d\u4e45", "6572": "\u89c6\u4e3a", "6573": "51", "6574": "\u5e7f\u7535", "6575": "\u8d23\u4efb\u611f", "6576": "\u6025\u9700", "6577": "\u5f20\u6770", "6578": "\u6709\u5e8f", "6579": "\u5173\u95e8", "6580": "\u53ef\u80fd\u6027", "6581": "\u6551\u62a4\u8f66", "6582": "\u9e7f", "6583": "\u5f85\u9047", "6584": "\u8086\u8650", "6585": "\u656c\u754f", "6586": "\u5230\u5904\u8dd1", "6587": "\u95ee\u8d23", "6588": "\u5f20\u5634", "6589": "\u624b\u7eed\u8d39", "6590": "\u9632\u7ebf", "6591": "\u4efb\u547d", "6592": "\u51ef\u65cb", "6593": "CDC", "6594": "\u9f20\u75ab", "6595": "\u5730\u7ea7", "6596": "bot", "6597": "\u8d1f\u91cd", "6598": "\u4eca\u5e74\u8fc7\u5e74", "6599": "\u5fc5\u770b", "6600": "\u8282\u76ee\u5355", "6601": "\u4f55\u6d1b\u6d1b", "6602": "\u540c\u8def", "6603": "\u60ca\u9e3f", "6604": "\u4fdd\u5b9a\u5e02", "6605": "\u4e00\u584c\u7cca\u6d82", "6606": "\u8ffd\u9010", "6607": "\u53ef\u7528", "6608": "\u542b\u4e49", "6609": "\u73b0\u91d1", "6610": "\u5c45\u591a", "6611": "\u5f98\u5f8a", "6612": "\u4fee\u517b", "6613": "\u9e21\u8840", "6614": "90%", "6615": "\u89e3\u8bf4", "6616": "\u5b9d\u8d1d\u513f", "6617": "\u5377\u5b50", "6618": "\u65b0\u4e61", "6619": "\u6211\u60f3", "6620": "\u5b59\u5b50", "6621": "\u5143\u7d20", "6622": "\u5f97\u610f", "6623": "\u7269", "6624": "\u767d\u4e91", "6625": "\u5bbe\u9986", "6626": "\u72d7\u65e5", "6627": "\u6dfb\u52a0", "6628": "\u5f80\u524d\u8d70", "6629": "\u7acb", "6630": "\u996d\u5e97", "6631": "\u65b0\u7248", "6632": "\u6d3b\u4e0b\u53bb", "6633": "\u256e", "6634": "\u5c45", "6635": "\u4e3b\u6f14", "6636": "\u73ed\u4e0a", "6637": "MLGB", "6638": "\u4f1a\u60f3", "6639": "\u5b66\u4e1a", "6640": "\u5de6\u8fb9", "6641": "\u5904\u7f6e", "6642": "\u8c61", "6643": "\u5907\u6218", "6644": "\u6b4c\u66f2", "6645": "\u519b\u4e8b", "6646": "\u9a7e\u9a76", "6647": "k", "6648": "\u6b63\u5982", "6649": "\u72b6", "6650": "\u521d\u604b", "6651": "\u540e\u4eba", "6652": "\u7405", "6653": "\u9884\u544a", "6654": "\u4f53\u8c05", "6655": "\u98d8", "6656": "\u4ea4\u5f80", "6657": "\u4e2d\u901a", "6658": "\u5fc3\u5b89", "6659": "\u772f", "6660": "\u662f\u975e", "6661": "\u65f6\u8282", "6662": "\u6ce1\u6cab", "6663": "\u697c\u9053", "6664": "\u5b8c\u4e8b", "6665": "\u5708\u5708", "6666": "\u53d1\u9709", "6667": "\u5347", "6668": "\u53d1\u5446", "6669": "\u5f88\u4e45", "6670": "\u5c4b", "6671": "\u8bf4\u670d", "6672": "\u672b", "6673": "\u4e4b\u65c5", "6674": "\u7740\u60f3", "6675": "\u5708\u5b50", "6676": "\u751f\u7269\u949f", "6677": "\u53cc\u773c\u76ae", "6678": "\u5927\u706b", "6679": "\u90a3\u6761", "6680": "\u60b2\u60e8", "6681": "\u4e94\u5341", "6682": "\u767b", "6683": "\u81ea\u6709", "6684": "\u9501", "6685": "\u68a6\u4e2d", "6686": "\u4eb2\u5988", "6687": "\u591a\u60f3", "6688": "\u8d77\u8eab", "6689": "\u7275", "6690": "\u4fdd\u4fee", "6691": "\u5c4f", "6692": "\u94fa", "6693": "\u623f\u4ef7", "6694": "\u9ad8\u5cf0", "6695": "\u770b\u96ea", "6696": "\u591a\u559d\u6c34", "6697": "\u7cdf", "6698": "\u4e00\u8f6e", "6699": "\u5230\u65f6\u5019", "6700": "\u72e0\u5fc3", "6701": "\u8bba\u575b", "6702": "\u573a\u9762", "6703": "\u6708\u5149", "6704": "\u4e00\u4e07\u4e2a", "6705": "\u5e72\u6270", "6706": "\u809a\u5b50\u75db", "6707": "\u5927\u6c14", "6708": "\u68a8", "6709": "\u8170\u75bc", "6710": "\u77a7", "6711": "\u5fc3\u529b\u4ea4\u7601", "6712": "\u5df4", "6713": "\u8001\u5b9e", "6714": "\u6839\u672c\u5c31\u662f", "6715": "\u7528\u54c1", "6716": "\u90a3\u70b9", "6717": "\u4e0d\u591a", "6718": "\u53f0\u8bcd", "6719": "\u679c", "6720": "\ud83d\ude03", "6721": "\u670d\u52a1\u5458", "6722": "\u9084\u662f", "6723": "\u6b63\u7ecf", "6724": "\u6253\u62db\u547c", "6725": "\u505c\u8fd0", "6726": "\u767d\u83dc", "6727": "\u5c0f\u9898\u5927\u505a", "6728": "\u5f71\u89c6", "6729": "\u6d3e\u4ef6", "6730": "\u5168\u65b0", "6731": "\u901a\u4fe1", "6732": "\u4e94\u5206\u949f", "6733": "\u5355\u5b50", "6734": "\u5927\u90fd", "6735": "\u771f\u7406", "6736": "\u5806", "6737": "\u6d3b\u6cfc", "6738": "\u8650\u5fc3", "6739": "\u897f\u7ea2\u67ff", "6740": "\u5510\u5c71", "6741": "\u53e3\u8154\u6e83\u75a1", "6742": "\u6599\u9152", "6743": "\u5c0f\u5403", "6744": "\u964d", "6745": "\u8e22\u7403", "6746": "\u5145\u7535\u5668", "6747": "\u591a\u4f59", "6748": "\u996d\u5361", "6749": "\u7d27\u7f3a", "6750": "\u8d85\u8d8a", "6751": "\u5c0f\u738b\u5b50", "6752": "\u586b", "6753": "\u5bab", "6754": "\u70ed\u6b7b", "6755": "\u8c08\u8bdd", "6756": "\u7237", "6757": "98", "6758": "\u4e00\u52a8\u4e0d\u52a8", "6759": "\u6267\u6cd5", "6760": "\u8dcc", "6761": "\u7b77\u5b50", "6762": "\u53d8\u66f4", "6763": "\u51a0\u519b", "6764": "\u7801\u5934", "6765": "\u65bd\u5de5", "6766": "\u6700\u5c0f", "6767": "\u6211\u53d1", "6768": "\u5bb6\u95e8", "6769": "\u7a00\u996d", "6770": "\u80fd\u5426", "6771": "\u5c71\u533a", "6772": "\u5de7\u5408", "6773": "\u4e0d\u8010\u70e6", "6774": "\u4e1d\u5e26", "6775": "\u6253\u626b", "6776": "\u6c14\u8d28", "6777": "\u4e3e\u63aa", "6778": "\u60c5\u6000", "6779": "\u4e8b\u4e8b", "6780": "\u4e07\u5206", "6781": "\u5f00\u6765", "6782": "\u5e38\u5e74", "6783": "\u5c0f\u4f19\u5b50", "6784": "\u5b89\u9038", "6785": "\u4e70\u56de\u6765", "6786": "\u8d70\u5230", "6787": "\u98de\u884c", "6788": "\u6559\u80b2\u90e8", "6789": "\u8fc7\u5173", "6790": "\u5962\u671b", "6791": "\u7ec4\u5efa", "6792": "\u5c0f\u578b", "6793": "\u6709\u592a\u591a", "6794": "\u805a", "6795": "\u6715", "6796": "\u7535\u5668", "6797": "\u7559\u4e0b\u6765", "6798": "\u6307\u5f15", "6799": "\u4e3b\u4e49", "6800": "\u8d27\u8f66", "6801": "\u706b\u661f", "6802": "\u516b\u4e2a", "6803": "\u53d1\u708e", "6804": "\u5546\u91cf", "6805": "\u52b3\u52a8", "6806": "\u574e", "6807": "\u6f6e\u6e7f", "6808": "\u4e13\u9879", "6809": "\u672c\u8be5", "6810": "\u51e4\u51f0", "6811": "\u8003\u5b8c\u8bd5", "6812": "\u0e51", "6813": "\u8863\u67dc", "6814": "\u524d\u9014", "6815": "\u5e03\u7f6e", "6816": "\u6cb3\u5317\u7701", "6817": "2018", "6818": "\u6897", "6819": "\u4e03\u5206", "6820": "\u5931\u8e2a", "6821": "\u81ea\u5bb6", "6822": "\ud83d\udc49", "6823": "\u5e95", "6824": "\u8f89\u714c", "6825": "\u5723\u8bde", "6826": "\u62b5\u6297\u529b", "6827": "\u5916\u56fd\u4eba", "6828": "\u5706\u6ee1", "6829": "\u600e\u9ebc", "6830": "\u8425\u4e1a", "6831": "\u565c", "6832": "\u8003\u5bdf", "6833": "\u8d23\u5907", "6834": "09", "6835": "\u653e\u5f00", "6836": "\u77ed\u53d1", "6837": "\u66a7\u6627", "6838": "\u5065\u5168", "6839": "\u6c47\u62a5", "6840": "\u52a0\u70ed", "6841": "\u6881", "6842": "\u671f\u76fc", "6843": "\u5927\u817f", "6844": "\u540d\u79f0", "6845": "\u6469\u6258\u8f66", "6846": "\u8111\u6d1e", "6847": "\u6269\u5927", "6848": "\u9634\u5929", "6849": "\u5f80\u524d", "6850": "\u8868\u626c", "6851": "\u4e24\u6761", "6852": "\u514d\u75ab\u7cfb\u7edf", "6853": "\u6392\u7ec3", "6854": "\u60f3\u4e0d\u8d77\u6765", "6855": "\u9a7b", "6856": "O", "6857": "\u4e2d\u4e1c", "6858": "\u503e\u8bc9", "6859": "\u6577\u884d", "6860": "\u6027\u611f", "6861": "\u644a\u8d29", "6862": "\u6270\u6c11", "6863": "\u73b0\u72b6", "6864": "\u8d85\u7231", "6865": "\u5404\u7701", "6866": "\u5b66\u4e86", "6867": "\u5927\u56fd", "6868": "\u5fae\u8584", "6869": "\u4ed9\u5973", "6870": "\u6218\u673a", "6871": "\u6c49\u53e3", "6872": "\u53d7\u60ca\u5413", "6873": "\u8d85\u60f3", "6874": "\u6307\u7740", "6875": "\u6bdb\u9aa8\u609a\u7136", "6876": "\u6d41\u901d", "6877": "\u51c0", "6878": "\u4f9d\u636e", "6879": "\u516c\u5171\u573a\u5408", "6880": "\u4e61\u4e0b", "6881": "\u79c1\u5bb6\u8f66", "6882": "\u82b1\u82b1", "6883": "\u8033\u5149", "6884": "\u6293\u7d27", "6885": "\u63d0\u5021", "6886": "\u9020", "6887": "\u6d17\u5934", "6888": "\u8349\u8349", "6889": "\u53bb\u53d6", "6890": "\u4e07\u4e07", "6891": "\u957f\u6625", "6892": "m", "6893": "\u53f3\u624b", "6894": "\u53ef\u8d35", "6895": "\u5598", "6896": "\u5409\u7965", "6897": "\u529e\u516c", "6898": "\u5e8a\u57ab", "6899": "\u654c\u4eba", "6900": "\u80e1", "6901": "\u4ec1\u5fc3", "6902": "word", "6903": "135", "6904": "\u7ebd\u7ea6", "6905": "\u8fd9\u6bb5", "6906": "\u6563\u5e03", "6907": "\u505c\u6b47", "6908": "\u4e0d\u6127", "6909": "\u5e02\u7ea7", "6910": "\u6625\u6696\u82b1\u5f00", "6911": "\u672a\u7ecf", "6912": "\u5c0f\u9ed1", "6913": "\u533b\u95f9", "6914": "\u9884\u6d4b", "6915": "\u52a0\u6025", "6916": "\u6fc0\u7d20", "6917": "\u4f7f\u8005", "6918": "\u4f20\u7403", "6919": "\u7ea2\u5341\u5b57\u4f1a", "6920": "\u57fa\u5efa", "6921": "\u4fa5\u5e78\u5fc3\u7406", "6922": "\u516c\u5171\u4ea4\u901a", "6923": "\u4e2d\u56fd\u5de5\u7a0b\u9662", "6924": "\u4e59\u9187", "6925": "\u785d\u70df", "6926": "\u4e2d\u5e74\u4eba", "6927": "PizzaForLai", "6928": "\u5e72\u676f", "6929": "\u8759\u8760\u4fa0", "6930": "\u4e3a\u6613", "6931": "\u539f\u535a", "6932": "\u88ab\u8feb", "6933": "\u9a91\u7740", "6934": "\u5411\u5f80", "6935": "\u6478\u6478", "6936": "\u592a\u5fd9", "6937": "\u4e0d\u987a\u5fc3", "6938": "\u7559\u7740", "6939": "\u9ad8\u79d1\u6280", "6940": "\u54c7\u585e", "6941": "\u897f\u5317", "6942": "\u8d29\u5356", "6943": "\u591c\u6df1\u4eba\u9759", "6944": "\u661f\u671f\u4e00", "6945": "\u4e66\u6cd5", "6946": "\u57cb", "6947": "MV", "6948": "\u52a8\u7269\u56ed", "6949": "\u5f88\u56f0", "6950": "\u55a7\u56a3", "6951": "\u592a\u8fc7", "6952": "\u9887", "6953": "\u6b65\u4f10", "6954": "\u809a\u5b50\u997f", "6955": "\u7741\u4e0d\u5f00", "6956": "\u8003\u751f", "6957": "\u7275\u624b", "6958": "\u5468\u5e74", "6959": "\u9759\u9759\u7684", "6960": "\u90ae\u7bb1", "6961": "\u9690\u7ea6", "6962": "\u597d\u5e05", "6963": "\u5404\u56fd", "6964": "\u6b4c\u8bcd", "6965": "\u256d", "6966": "\u521b\u4e1a", "6967": "\u5176\u6b21", "6968": "\u4ea7\u91cf", "6969": "\u4e00\u56e2", "6970": "\u6743\u529b", "6971": "\u75d2", "6972": "\u611f\u6027", "6973": "\u9a6c\u6876", "6974": "\u5c0f\u5929\u4f7f", "6975": "\u5fc3\u7406\u5b66", "6976": "\ud83c\udf43", "6977": "\ud83d\udc3b", "6978": "\u8bd5\u9a8c", "6979": "\u5973\u58eb", "6980": "\u5341\u5757\u94b1", "6981": "\u79cd\u5b50", "6982": "\u547d\u540d", "6983": "\u7b54", "6984": "\u9ad8\u7aef", "6985": "\u65e0\u8bdd\u53ef\u8bf4", "6986": "\u51fa\u58f0", "6987": "\u665a\u9910", "6988": "100%", "6989": "\u4ee3\u66ff", "6990": "\u6b23\u6170", "6991": "\u5f3a\u5ea6", "6992": "\u81ea\u8d23", "6993": "\u6cae\u4e27", "6994": "\u9192\u8fc7\u6765", "6995": "\u4e4b\u4e0a", "6996": "\u9189\u9189", "6997": "\u98df", "6998": "\u4e5d\u6c5f", "6999": "\u6628\u65e5", "7000": "\u6f0f", "7001": "\u7f8e\u5143", "7002": "\u524d\u6240\u672a\u6709", "7003": "\u4e2d\u4ecb", "7004": "\u523a", "7005": "\u5929\u5802", "7006": "\u7ae0", "7007": "\u95ed", "7008": "\u91c7\u96c6", "7009": "\u7b14\u8bd5", "7010": "\u604d\u60da", "7011": "\u542c\u5f97", "7012": "\u89e3", "7013": "\u559d\u9189", "7014": "\u7801", "7015": "\u559d\u5496\u5561", "7016": "\u7f8e\u5bb9", "7017": "\u4f20\u6765", "7018": "\u661f", "7019": "\u9732\u51fa", "7020": "\u7f62\u5de5", "7021": "\u505c\u4e0b\u6765", "7022": "\u88ab\u8f66\u649e", "7023": "\u89c2\u770b", "7024": "\u5927\u80c6", "7025": "\ud83d\udc37", "7026": "\u9ebb\u5c06", "7027": "1992", "7028": "\u6ca1\u4e8b\u513f", "7029": "\u8fdf\u65e9", "7030": "\u65e0\u7ebf", "7031": "\u6539\u6210", "7032": "\u5c3e\u5df4", "7033": "\u6cea\u70b9", "7034": "\u6539\u9020", "7035": "\u9042", "7036": "\u5e08\u5144", "7037": "\u4e0d\u6ee1", "7038": "\ud83d\udc4d", "7039": "\u505c\u8f66\u573a", "7040": "\u4e0d\u4e89\u6c14", "7041": "\u5f97\u4ee5", "7042": "\u7535\u53f0", "7043": "\u57ce\u9547", "7044": "\u58f0\u660e", "7045": "\u68ee", "7046": "\u7ecf\u7406", "7047": "\u88c5\u5907", "7048": "\u8fc8\u51fa", "7049": "\u5c01\u9501", "7050": "\u6000\u7740", "7051": "\u901a", "7052": "\u6587\u5b66", "7053": "\u5c31\u884c\u4e86", "7054": "\u65e0\u5fc3", "7055": "\u4e00\u679a", "7056": "\u4e00\u65b9\u9762", "7057": "\u60c5\u613f", "7058": "\u53cb\u8c0a", "7059": "\u5438\u70df", "7060": "\u661f\u5149", "7061": "\u4e0d\u56f0", "7062": "\u968f\u5373", "7063": "\u867e", "7064": "\u545b", "7065": "\u82cd\u8747", "7066": "\u53ec\u5524", "7067": "\u539f\u521b", "7068": "\u541e\u566c", "7069": "\u6237", "7070": "\u6bd5\u4e1a\u751f", "7071": "\u6708\u5e95", "7072": "\u56e0\u800c", "7073": "\u552e\u540e", "7074": "\u96ea\u666f", "7075": "\u5c0f\u6c14", "7076": "\u6253\u7403", "7077": "\u5426\u5b9a", "7078": "\u4e8b\u5b9e\u4e0a", "7079": "\u5cf0\u5cf0", "7080": "\u6d77", "7081": "\u6076\u52a3", "7082": "\u53cd\u5012", "7083": "\u5987\u5973", "7084": "\u500b", "7085": "\u5fc3\u610f", "7086": "\u4e0d\u653e\u8fc7", "7087": "\u5408\u5e76", "7088": "\u6ca1\u6551", "7089": "\u5e94\u63f4", "7090": "\u4e00\u809a\u5b50", "7091": "\u4e00\u5206\u94b1", "7092": "\u5149\u8292", "7093": "\u5bd2\u98ce", "7094": "\u7cae\u98df", "7095": "\u8fc7\u6ee4", "7096": "\u5047\u5982", "7097": "\u2757", "7098": "\u957f\u957f\u7684", "7099": "\u6ce1\u83dc", "7100": "\u914d\u7f6e", "7101": "\u8bf4\u4e9b", "7102": "\u9003\u8bfe", "7103": "\u4eba\u5de5", "7104": "\u8fd9\u5468", "7105": "\u96ea\u5730", "7106": "\u4e00\u7ad9", "7107": "\u4e00\u60f3", "7108": "\u5348\u591c", "7109": "\u5931\u8bef", "7110": "\u8bf4\u8d70\u5c31\u8d70", "7111": "\u96ea\u5929", "7112": "\u4e3a\u96be", "7113": "\u8d77\u843d\u67b6", "7114": "\u63a5\u5730", "7115": "\u5f53\u7740", "7116": "\u524d\u671f", "7117": "\u0437", "7118": "\u8be1\u5f02", "7119": "\u8f93\u51fa", "7120": "\u5b8b\u831c", "7121": "1200", "7122": "\u2570", "7123": "\u8702\u871c", "7124": "\u65f6\u65f6\u523b\u523b", "7125": "\u5c0f\u732a", "7126": "\u79bb\u5f97", "7127": "\u5f88\u591a\u5f88\u591a", "7128": "\u773c\u76ae", "7129": "\u5bfa", "7130": "\u4e00\u6708", "7131": "\u7f5a", "7132": "\u623f\u79df", "7133": "\u53cd\u611f", "7134": "\u4e0d\u670d", "7135": "\u90a3\u4efd", "7136": "\u5b9d\u9a6c", "7137": "F", "7138": "\u5fb7\u5dde", "7139": "\u7ae5\u8bdd", "7140": "\u672a\u80fd", "7141": "\u9f99", "7142": "\u52a1\u5de5", "7143": "\u8f93\u7ed9", "7144": "\u6253\u547c\u565c", "7145": "\u4e07\u8fbe", "7146": "\u4ed6\u4f1a", "7147": "\u7f8e\u5c11\u5973", "7148": "\u8bde\u751f", "7149": "\u6c38\u65e0\u6b62\u5883", "7150": "\u6655\u8f66", "7151": "\u4e00\u767e", "7152": "\u60c6\u6005", "7153": "\u6d3b\u5f97", "7154": "\u9f3b\u585e", "7155": "\u8f86", "7156": "\u6d82", "7157": "\u5ba0\u7269", "7158": "\u4e0a\u5468", "7159": "\u5feb\u5230", "7160": "\u9aa8\u5b50\u91cc", "7161": "\u795e\u4ed9", "7162": "\u6253\u5b57", "7163": "\u4f38\u51fa", "7164": "\u8bf8\u4e8b", "7165": "\u8d70\u5f00", "7166": "\u8272\u5f69", "7167": "\u6d3b\u751f\u751f", "7168": "\u6252", "7169": "\u9b54\u5e7b", "7170": "\u6307\u793a", "7171": "\u80dc", "7172": "\u771f\u771f", "7173": "\u770b\u4e0d\u4e0b\u53bb", "7174": "\u8fd9\u7279", "7175": "\u5b9d\u8d35", "7176": "\u5c71\u4e1c\u7701", "7177": "\u6709\u751f\u4e4b\u5e74", "7178": "\u5468\u4e09", "7179": "\u86cb\u767d", "7180": "\u6d3e\u51fa\u6240", "7181": "\u4e00\u51fa", "7182": "\u5206\u8fa8", "7183": "\u6ce2", "7184": "\u5bd2\u51ac", "7185": "\u79fb\u6c11", "7186": "\u907f\u5f00", "7187": "\u4e09\u5206", "7188": "\u4e8c\u5341\u5206\u949f", "7189": "\u590d\u6d3b", "7190": "\u8d35\u5dde", "7191": "\u878d\u5408", "7192": "\u542b\u6709", "7193": "\u80c6\u5b50", "7194": "\u4ed6\u4fe9", "7195": "\u60f3\u89c1", "7196": "\u969c\u788d", "7197": "\u843d\u53f6", "7198": "\u80a1", "7199": "\u88ad", "7200": "\u88c5\u903c", "7201": "\u6295", "7202": "\u897f\u836f", "7203": "\u5b8b", "7204": "\u5a25", "7205": "\u7528\u624b", "7206": "\u597d\u957f\u65f6\u95f4", "7207": "\u5976", "7208": "\u666e\u904d", "7209": "\u4e1c\u4e1c", "7210": "\u6c14\u6b7b\u4eba", "7211": "\u5f00\u5173", "7212": "\u641e\u6e05\u695a", "7213": "\u533b\u5e08", "7214": "\u6b7b\u795e", "7215": "\u5f3a\u5316", "7216": "\u8f6c\u6362", "7217": "\u6bd4\u8d77", "7218": "\u745f", "7219": "\u5355\u72ec", "7220": "\u673a\u52a8\u8f66", "7221": "\u5efa\u7b51\u9762\u79ef", "7222": "\u8033\u8fb9", "7223": "\u706d", "7224": "\u5e7f\u7535\u603b\u5c40", "7225": "\u670d\u7528", "7226": "\u841d\u535c", "7227": "\u51fa\u4e8e", "7228": "34", "7229": "\u5c55\u73b0", "7230": "\u4e0a\u6da8", "7231": "\u8fd0\u8f93", "7232": "08", "7233": "\u614c\u5f20", "7234": "\u51e0\u5ea6", "7235": "\u7b2c\u4e00\u90e8", "7236": "\u6025\u8bca", "7237": "\u5c0f\u59d0\u59d0", "7238": "\u60a3", "7239": "\u5927\u81f4", "7240": "\u4e4e", "7241": "\u52a8\u8109", "7242": "\u9891\u7387", "7243": "\u987a", "7244": "\u54ea\u6709\u4ec0\u4e48", "7245": "\u5996", "7246": "\u3046", "7247": "\u8fb9\u7f18", "7248": "\u6ca1\u80fd", "7249": "\u73ed\u8f66", "7250": "\u5e72\u6389", "7251": "\u5bb9", "7252": "\u584c", "7253": "\u592a\u72e0", "7254": "\u7763\u4fc3", "7255": "\ud83d\ude2a", "7256": "\u4e0d\u987e", "7257": "\u6210\u90fd\u5e02", "7258": "\u611b", "7259": "\u8d8a\u5357", "7260": "\u7b7e\u8bc1", "7261": "\u5341\u4e07", "7262": "\u5f92\u624b", "7263": "\u7ba1\u5236", "7264": "\u540a", "7265": "real", "7266": "\u8c61\u5f81", "7267": "\u5851\u6599", "7268": "\u5e73\u7a33", "7269": "\u9c81\u8fc5", "7270": "\u8f70\u70b8", "7271": "\u773c\u79d1", "7272": "\u770b\u5fae\u535a", "7273": "\uff65", "7274": "\u75c5\u9b54", "7275": "\u6b8b\u5e9f", "7276": "\u6076\u6027", "7277": "\u5404\u65b9", "7278": "\u7eb8\u5dfe", "7279": "\u6545\u5bab", "7280": "\u4e0d\u9ad8", "7281": "\u6708\u521d", "7282": "\u6297\u4e89", "7283": "\u60dc\u547d", "7284": "\u6297\u75c5\u6bd2", "7285": "\u5b9a\u70b9\u533b\u9662", "7286": "\u6e0e\u804c", "7287": "\u75ab\u75c5", "7288": "Only", "7289": "For", "7290": "\u552f\u7c89", "7291": "\u5bb6\u5bb4", "7292": "\u4e07\u4e8b", "7293": "\u6491\u4f4f", "7294": "\u5371\u91cd\u75c7", "7295": "A6v1xgC0", "7296": "\u8fea\u58eb\u5c3c", "7297": "\u767d\u656c\u4ead", "7298": "\u51e0\u4f8b", "7299": "\u6218\u65f6", "7300": "\u996d\u5708", "7301": "\u968f\u5730\u5410\u75f0", "7302": "\u9000\u6b3e", "7303": "\u5730\u7406", "7304": "\u4e2a\u8868", "7305": "\u8bc8\u9a97", "7306": "\u88ab\u52a8", "7307": "\u79cb\u5b63", "7308": "\u4e0a\u4e2a", "7309": "\u5413\u54ed", "7310": "\u5455\u5410", "7311": "\u5e73\u7b49", "7312": "\u592a\u5dee", "7313": "\u5708\u91cc", "7314": "\u4eba\u597d", "7315": "\u6574\u5bb9", "7316": "\u00e1", "7317": "\u6539\u8fdb", "7318": "\u5168\u5e74", "7319": "\u5351\u9119", "7320": "\u8270\u8f9b", "7321": "\u7761\u61d2\u89c9", "7322": "\u603c", "7323": "\u53d1\u4f5c", "7324": "\u556a", "7325": "2001", "7326": "\u53d1\u52a8", "7327": "\u4eba\u547d", "7328": "\u6bcf\u4e00\u4ef6", "7329": "\u8bfe\u9898", "7330": "\u5934\u8111", "7331": "\u624b\u8d31", "7332": "\u9a6c\u8def\u4e0a", "7333": "\u5de5\u827a", "7334": "\u8d77\u6e90", "7335": "\u6253\u626b\u536b\u751f", "7336": "\u6e9c\u8fbe", "7337": "\u5c4a", "7338": "\u6ee1\u8111\u5b50", "7339": "ppt", "7340": "\u4e00\u5904", "7341": "\u80e1\u4e71", "7342": "\u4e0d\u5728\u610f", "7343": "\u5e74\u521d", "7344": "\u6c11\u56fd", "7345": "52", "7346": "\u7a97\u53e3", "7347": "\u4e00\u5e26", "7348": "\u8ba2", "7349": "\u5c45\u59d4\u4f1a", "7350": "\u505a\u4f5c", "7351": "\u7269\u4f53", "7352": "\u6454\u788e", "7353": "\u884c\u674e", "7354": "\u4e0d\u61c2\u4e8b", "7355": "\u4e0a\u697c", "7356": "\u4e24\u5206\u949f", "7357": "\u4ee5\u514d", "7358": "\u4f5c\u5bb6", "7359": "\u65ad\u7535", "7360": "\u52a0\u62ff\u5927", "7361": "\u5a1c", "7362": "\u6709\u529b", "7363": "\u8fdb\u5ea6", "7364": "\u8363\u8a89", "7365": "\u54ed\u6ce3", "7366": "\u96a7\u9053", "7367": "\u60ca\u9b42\u672a\u5b9a", "7368": "\u4e0d\u6703", "7369": "\u4f60\u522b", "7370": "\u90a3\u53e5", "7371": "\u56fd\u5bb6\u7ea7", "7372": "\u94c1", "7373": "\u6742\u7269", "7374": "\u6c38\u6052", "7375": "\u8179\u6cfb", "7376": "\u59a5\u534f", "7377": "\u5149\u660e", "7378": "\u53cd\u53cd\u590d\u590d", "7379": "\u516c\u516c", "7380": "\u7fc5\u8180", "7381": "\u53e8", "7382": "\u6d17\u6f31", "7383": "\u4ec7", "7384": "\u80e1\u6912\u7c89", "7385": "\u67e0\u6aac", "7386": "IS", "7387": "\u5473\u513f", "7388": "\u7eaa\u5f55\u7247", "7389": "\u5317\u90e8", "7390": "\u5927\u6d0b", "7391": "\u9a9a", "7392": "\u7816", "7393": "\u6574\u5408", "7394": "\u6f5c\u610f\u8bc6", "7395": "\u671f\u672b", "7396": "\u778c\u7761", "7397": "\u70ed\u6c34\u888b", "7398": "\u53d1\u5c04", "7399": "\u7ea2\u706f", "7400": "\u51e0\u4f4d", "7401": "\u508d\u665a", "7402": "\u7387", "7403": "\u62bd\u5c49", "7404": "99", "7405": "\u624b\u81c2", "7406": "\u4e0b\u573a", "7407": "ID", "7408": "\u4e2d\u5e74", "7409": "\u5927\u65b9", "7410": "\u6728", "7411": "\u597d\u65e5\u5b50", "7412": "\u6d3e\u9001", "7413": "\u7ffb\u8eab", "7414": "\u5382", "7415": "\u4e0a\u7ea7", "7416": "\u62cd\u62cd", "7417": "\u540e\u53f0", "7418": "\u623f\u4e1c", "7419": "\u821e", "7420": "\u4e70\u70b9", "7421": "\u96be\u5ea6", "7422": "\u8d70\u52a8", "7423": "\u5012\u4e0b", "7424": "\u622a\u6b62", "7425": "\u6148\u5584", "7426": "\u795e\u5668", "7427": "\u6d17\u7897", "7428": "\u4e4c\u9f9f", "7429": "\u7b49\u7ea7", "7430": "\u643a\u624b", "7431": "\u80c3\u75bc", "7432": "\u7231\u5947\u827a", "7433": "\u4e00\u809a\u5b50\u6c14", "7434": "\u516b\u6708", "7435": "\u7b14\u8bb0\u672c", "7436": "\u8d23\u4efb\u5fc3", "7437": "\u4eb2\u5207", "7438": "\u5434\u4ea6\u51e1", "7439": "\u6291\u90c1\u75c7", "7440": "\u771f\u7231", "7441": "\u4f59", "7442": "\u771f\u8ba9\u4eba", "7443": "\u89c1\u8bc1", "7444": "\u7ba1\u7406\u5458", "7445": "\u78d5", "7446": "\u4e8c\u5b57", "7447": "\u7231\u62a4", "7448": "\u8fd9\u822c", "7449": "\u522b\u95ee", "7450": "\u4e1c\u90e8", "7451": "\u7f51\u70b9", "7452": "\u521a\u5230", "7453": "\u9a7e\u7167", "7454": "\u98d9\u5347", "7455": "\u8db4", "7456": "\u6392\u884c\u699c", "7457": "\u8fde\u73af", "7458": "\u56db\u53f6\u8349", "7459": "\u6c41", "7460": "\u9ad8\u901f\u516c\u8def", "7461": "\u6765\u5f80", "7462": "\u4e09\u5927", "7463": "\u53d1\u660e", "7464": "\u5feb\u6765", "7465": "\u4e00\u697c", "7466": "\u6f5c\u5728", "7467": "\u672c\u547d\u5e74", "7468": "\u70e7\u70e4", "7469": "1300", "7470": "\u6539\u540d", "7471": "\u79bd\u517d", "7472": "\u56f0\u6270", "7473": "\u4e09\u661f", "7474": "\u9986", "7475": "\ud83d\udc95", "7476": "\u7ec8\u6b62", "7477": "\u8a00\u8bed", "7478": "\u597d\u957f", "7479": "\u8fbe\u6210", "7480": "\u661f\u7403", "7481": "\u4e09\u4eba", "7482": "\u96c6\u9f50", "7483": "\u4e00\u5219", "7484": "\u5e97\u94fa", "7485": "\u7231\u8c46", "7486": "\u84dd\u8272", "7487": "\u9884\u8b66", "7488": "\u4e70\u7968", "7489": "\u8d2d\u7269", "7490": "\u98ce\u96e8", "7491": "\u63a8\u52a8", "7492": "\u4e3e\u52a8", "7493": "\u5b66\u5230", "7494": "\u8d81\u7740", "7495": "\u60e6\u8bb0", "7496": "\u4e27\u5c3d\u5929\u826f", "7497": "\u5bb9\u5668", "7498": "\u6e3a\u5c0f", "7499": "\u4e0d\u592a", "7500": "\u660e\u77e5", "7501": "\u866b\u5b50", "7502": "\u4e00\u81f4", "7503": "\u56bc", "7504": "\u8700\u9ecd", "7505": "happy", "7506": "\u5c31\u591f", "7507": "\u8ff7", "7508": "\u51d1\u70ed\u95f9", "7509": "\u6d53\u5ea6", "7510": "\u62d2\u6536", "7511": "girl", "7512": "\u4f11\u95f2", "7513": "\u770b\u56fd\u8db3", "7514": "\u6536\u96c6", "7515": "via", "7516": "\u7a7a\u767d", "7517": "\u5b9e\u7528", "7518": "\u4e00\u7f15", "7519": "\u770b\u5f85", "7520": "\u65e5\u540e", "7521": "\u54a7", "7522": "\u8336\u53f6", "7523": "\u8463\u4e8b\u957f", "7524": "\u6211\u8349", "7525": "\u53e3\u8154", "7526": "\u9634\u9669", "7527": "\u672a\u5fc5", "7528": "\u4e0a\u5e02", "7529": "\u70b9\u4e2a", "7530": "\u5750\u706b\u8f66", "7531": "\u53e3\u6c14", "7532": "\u6df1\u6e0a", "7533": "\u6240\u8bf4", "7534": "\u5e73\u7c73", "7535": "\u8ffd\u5c3e", "7536": "\u65e0\u754f", "7537": "\u4e09\u4ef6", "7538": "\u5145\u65a5", "7539": "\u6b64\u524d", "7540": "\u53fd\u53fd\u55b3\u55b3", "7541": "\u5bb9\u5fcd", "7542": "\u71c3\u70e7", "7543": "\u4eca\u591c", "7544": "\u76f4\u81f3", "7545": "\u6109\u60a6", "7546": "\u7239\u5988", "7547": "\u4e70\u6765", "7548": "\u65c5\u9986", "7549": "\u7a7a\u7a7a", "7550": "\u91cd\u751f", "7551": "\u62cc", "7552": "\u811a\u4e0b", "7553": "\u98a4\u6296", "7554": "\u70e6\u5fc3", "7555": "\u7f5a\u6b3e", "7556": "\u9996\u6279", "7557": "\u849c", "7558": "\u4e0d\u5f97\u597d\u6b7b", "7559": "\u971c", "7560": "\u5df4\u638c", "7561": "\u897f\u65b9", "7562": "\u65ad\u7f51", "7563": "\u957f\u76f8", "7564": "\u5f88\u5f3a", "7565": "\u968f\u673a", "7566": "\u5584\u4e8e", "7567": "\u5fc3\u5f62", "7568": "\u95f7", "7569": "\u5587\u53ed", "7570": "\u62a2\u6551", "7571": "\u4fdd\u4f4f", "7572": "\ud83c\udf3b", "7573": "\u8d85\u5927", "7574": "\u5ae9", "7575": "\u65e5\u8bed", "7576": "\u8bef\u89e3", "7577": "\u7f8e\u5267", "7578": "\u4ed6\u5bb6", "7579": "\u5c40\u9762", "7580": "\u5b89\u629a", "7581": "\u51fa\u8f68", "7582": "\u62a5\u7eb8", "7583": "\u8bd5\u5242", "7584": "\u4e2a\u6027", "7585": "\u964d\u843d", "7586": "\u51fa\u6e38", "7587": "\u9669\u6076", "7588": "\u53cb\u597d", "7589": "\u571f\u58e4", "7590": "\u4e1d", "7591": "\u6740\u624b", "7592": "\u7533\u8bc9", "7593": "\u5443", "7594": "\u805a\u5728\u4e00\u8d77", "7595": "\u8c01\u77e5", "7596": "\u6ce1\u6ce1", "7597": "\u8089\u8089", "7598": "\u5916\u516c", "7599": "\u672c\u60f3", "7600": "\u5c0f\u5b9d", "7601": "\u5341\u4e8c\u6708", "7602": "\u65f6\u5c1a", "7603": "\u6000\u62b1", "7604": "\u957f\u6c5f", "7605": "\u53d7\u8fc7", "7606": "\u72af\u9519", "7607": "\u5efa\u6210", "7608": "\u4e3a\u51c6", "7609": "\u5730\u74dc", "7610": "\u5f62", "7611": "\u6700\u574f", "7612": "\u51a0", "7613": "\u9ebb\u8fa3\u70eb", "7614": "\u963f\u5f25\u9640\u4f5b", "7615": "\u4e2d\u62db", "7616": "\u6781\u7aef", "7617": "\u6700\u5dee", "7618": "\u524d\u65b9", "7619": "\u7f9e\u6127", "7620": "\u7a00\u91cc\u54d7\u5566", "7621": "\u56db\u5904", "7622": "4000", "7623": "\u6551\u4eba", "7624": "\u7ec4\u56e2", "7625": "\u51fa\u56fd", "7626": "\u591a\u94b1", "7627": "\u8c37", "7628": "\u8d4c", "7629": "\u5fc3\u5e73\u6c14\u548c", "7630": "\u90a3\u4f1a", "7631": "\u6388\u6743", "7632": "\u91ca\u6000", "7633": "\u8fdf", "7634": "\u5927\u6865", "7635": "\u5218\u8bd7", "7636": "\u6811\u4e0a", "7637": "\u5bfa\u5e99", "7638": "\u00b4", "7639": "\u53d6\u51b3\u4e8e", "7640": "\u738b\u8005", "7641": "\u597d\u8bc4", "7642": "\u56db\u5ddd\u7701", "7643": "\u5e16\u5b50", "7644": "\u5b98\u535a", "7645": "\u63ea", "7646": "\u4e16\u4eba", "7647": "\u6027\u8d28", "7648": "\u4e8c\u5341\u56db", "7649": "\u592a\u68d2", "7650": "\u56db\u5468", "7651": "\u6c99\u6ee9", "7652": "\u52a8\u5de5", "7653": "\u4e0d\u5feb", "7654": "\u83dc\u5e02\u573a", "7655": "\u8fd9\u56de", "7656": "\u519b\u961f", "7657": "\u6807\u8bed", "7658": "\u6563\u64ad", "7659": "\u9996\u5e2d", "7660": "\u5fcd\u8010", "7661": "\u4ea4\u9645", "7662": "\u819c", "7663": "\u5b89\u5371", "7664": "\u51b2\u51fb", "7665": "\u6ca1\u4e2a", "7666": "\u53d7\u4f24\u5bb3", "7667": "\u53e3\u53f7", "7668": "\u76f8\u53cd", "7669": "\u95ea\u9000", "7670": "\u5ab3\u5987\u513f", "7671": "\u83f2\u5f8b\u5bbe", "7672": "\u5f80\u5e74", "7673": "\u5c40\u957f", "7674": "\u6717\u8bf5", "7675": "\u8001\u592a", "7676": "\u679c\u58f3", "7677": "\u5657", "7678": "\u83dc\u5200", "7679": "\u7b2c\u4e00\u6279", "7680": "\u9e45", "7681": "\u9f50\u5fc3\u534f\u529b", "7682": "\u8d22\u65b0", "7683": "\u5c24\u957f\u9756", "7684": "\u7ef4\u7a33", "7685": "\u75c5\u6bd2\u4f20\u64ad", "7686": "101", "7687": "\u6d88\u6bd2\u5242", "7688": "\u5e72\u54b3", "7689": "\u6d17\u624b\u6db2", "7690": "\u547c\u5438\u79d1", "7691": "\u4e24\u4f8b", "7692": "\u5feb\u624b", "7693": "\u6025\u8bca\u79d1", "7694": "\u6027\u80ba\u708e", "7695": "\u557e", "7696": "1.24", "7697": "\u907f\u96be", "7698": "ali", "7699": "\u66b4\u6bd9", "7700": "\u679c\u5b50\u72f8", "7701": "\u8fd0\u9001", "7702": "kn95", "7703": "\u519c\u8d38\u5e02\u573a", "7704": "\u539f\u6709", "7705": "\u98de\u884c\u5458", "7706": "\u53cc\u773c", "7707": "\u574f\u6b7b", "7708": "\u8be6\u60c5", "7709": "\u8d8a\u5927", "7710": "\u75d5\u8ff9", "7711": "\u82e6\u96be", "7712": "\u5f71", "7713": "\u8bf1\u60d1", "7714": "\u95f4\u9699", "7715": "\u670d\u52a1\u6001\u5ea6", "7716": "\u6dcb", "7717": "\u77e5\u8db3", "7718": "\u6f14\u7ece", "7719": "\u5927\u8d5b", "7720": "\u65e0\u803b", "7721": "\u5fc3\u5fc3\u5ff5\u5ff5", "7722": "\u542c\u529b", "7723": "\u7b54\u8fa9", "7724": "\u9ad8\u538b", "7725": "\u5c0f\u96e8", "7726": "\u556a\u556a", "7727": "\u7c97\u5361", "7728": "\u672a\u89c1", "7729": "\u6676\u4f53", "7730": "\u53ef\u6cbb", "7731": "\u56f0\u610f", "7732": "\u79bb\u5a5a", "7733": "hold", "7734": "\u5168\u573a", "7735": "\u683c\u5f0f", "7736": "\u8be2\u95ee", "7737": "\u66f4\u5e74\u671f", "7738": "\u8d62\u5f97", "7739": "\u6843\u82b1", "7740": "\u4e03\u4e2a", "7741": "\u4e09\u56db\u4e2a", "7742": "\u4e00\u4f53", "7743": "\u9a74", "7744": "\u6469\u6258", "7745": "\u62b5\u5fa1", "7746": "\u4e09\u6708", "7747": "\u52a0\u5feb", "7748": "\u5e94\u6709", "7749": "\u4e3e", "7750": "\u5b66\u59d0", "7751": "\u5916\u5f62", "7752": "\u6253\u5de5", "7753": "\u8d9f", "7754": "\u6253\u6e38\u620f", "7755": "\u52a8\u9759", "7756": "\u55d6\u55d6", "7757": "\u5f88\u4e45\u5f88\u4e45", "7758": "\u548c\u5c1a", "7759": "\u9a8c\u8bc1", "7760": "\u770b\u5427", "7761": "ing", "7762": "\u574e\u5777", "7763": "\u80cc\u53db", "7764": "\u8ba4\u77e5", "7765": "\u56db\u6708", "7766": "\u672c\u79d1", "7767": "\u4e0d\u653e", "7768": "\u771f\u5f97", "7769": "\u7a3f\u5b50", "7770": "\u6ca1\u8fc7", "7771": "\u53c2\u89c2", "7772": "\u63a9\u76d6", "7773": "\u66f4\u6539", "7774": "s", "7775": "\u9999\u8549", "7776": "\u4e4b\u9645", "7777": "\u6fc0\u70c8", "7778": "\u80cc\u9505", "7779": "\u6bcf\u5468", "7780": "\u996e", "7781": "\u6c14\u606f", "7782": "\u4e07\u5428", "7783": "\u75db\u6068", "7784": "\u6211\u6ef4", "7785": "\u4f4f\u623f", "7786": "\u5230\u5934", "7787": "\u80be", "7788": "\u5267\u70c8", "7789": "\u542c\u542c", "7790": "\u53d1\u8fbe", "7791": "\u4e00\u8bf4", "7792": "\u592a\u5929\u771f", "7793": "\u65e0\u610f\u95f4", "7794": "\u6392\u9aa8", "7795": "\u7ef5\u7ef5", "7796": "\u6ca1\u8bfe", "7797": "\u81ea\u52a8\u5316", "7798": "\u4eba\u4e8b", "7799": "\u5c5e\u6027", "7800": "\u4e3b\u610f", "7801": "\u547c\u565c", "7802": "\u8861\u91cf", "7803": "\u7fd8", "7804": "\u8d1f\u8377", "7805": "\u98ce\u5439", "7806": "\u6807\u5fd7", "7807": "\u6cc4\u9732", "7808": "\u771f\u68d2", "7809": "\u5fd2", "7810": "\u7a7f\u8863\u670d", "7811": "\u81f4\u547d", "7812": "\u4e0d\u7ba1\u600e\u6837", "7813": "\u53d1\u9ebb", "7814": "\u7b80\u7b80\u5355\u5355", "7815": "\u8c08\u8c08", "7816": "\u6cb3", "7817": "\u819c\u62dc", "7818": "\u603b\u6536\u5165", "7819": "\u505a\u751f\u610f", "7820": "\u6012\u706b", "7821": "\u6b7b\u4eba", "7822": "\u4eb2\u624b", "7823": "\u8bd5\u5377", "7824": "\u6643", "7825": "\u53f0\u98ce", "7826": "\u4e0d\u5408", "7827": "\u592a\u9ad8", "7828": "\u638f\u51fa", "7829": "\u53ea\u6015", "7830": "\u590d\u5236", "7831": "\u63a9\u9970", "7832": "\u65e0\u58f0", "7833": "\u9171\u6cb9", "7834": "\u6ca1\u8111\u5b50", "7835": "\u7ec6\u81f4", "7836": "\u505a\u8fc7", "7837": "\u4e13", "7838": "\u7814\u7a76\u9662", "7839": "\u76f8\u8bc6", "7840": "\u5185\u5fc3\u6df1\u5904", "7841": "\u4e66\u5305", "7842": "\u68a6\u6c57", "7843": "\u68c9\u8884", "7844": "\u53ea\u7528", "7845": "\u4f2a\u88c5", "7846": "\u597d\u6000\u5ff5", "7847": "12306", "7848": "\u4ee5\u6b64", "7849": "\u7c92", "7850": "\u94bb\u77f3", "7851": "\u517b\u6b96", "7852": "\u80a5\u80d6", "7853": "\u8d75", "7854": "\u97f5\u8fbe", "7855": "\u5fc3\u7231", "7856": "\u7f3a\u9677", "7857": "\u80f8\u53e3", "7858": "\u660e\u665a", "7859": "\u534a\u6708", "7860": "\u751f\u5316", "7861": "\u8d85\u8f66", "7862": "\u6d77\u6d0b", "7863": "f", "7864": "\u96e8\u4f1e", "7865": "\u625b", "7866": "\u516c\u5bd3", "7867": "\u4f8b\u5b50", "7868": "\u5217\u8f66", "7869": "\u4f11", "7870": "\u592a\u8fdc", "7871": "\u592a\u6162", "7872": "\u624d\u884c", "7873": "\u53f7\u7ebf", "7874": "\u987a\u5e26", "7875": "\u8bf4\u4e0d\u5b9a", "7876": "\u804c\u573a", "7877": "\u6ca1\u5403\u8fc7", "7878": "\u8bf4\u9053", "7879": "\u8d56", "7880": "\u5c0f\u9c7c", "7881": "\u4ece\u6b64\u4ee5\u540e", "7882": "\u6c92\u6709", "7883": "\u5927\u59d0", "7884": "\u7b2c\u516d", "7885": "\u6768\u7d2b", "7886": "\u5d07\u62dc", "7887": "\u6ce5\u7164", "7888": "\u6b63\u5e38\u4eba", "7889": "\u8d35\u5dde\u7701", "7890": "\u5f80\u8fd4", "7891": "\u51fa\u53f0", "7892": "\u65e9\u7761\u65e9\u8d77", "7893": "\u5de5\u5730", "7894": "\u81ea\u8c6a", "7895": "\u683c\u683c", "7896": "\u54c1", "7897": "\u73a9\u5bb6", "7898": "\u8fdf\u8fdf", "7899": "\u7ade\u4e89", "7900": "\u7eb3\u95f7", "7901": "\u76ee\u6d4b", "7902": "\u8ddf\u968f", "7903": "\u8def\u7ebf", "7904": "\u4ed8\u94b1", "7905": "\u5185\u759a", "7906": "\u5bfb\u6c42", "7907": "\u9a6c\u52d2", "7908": "\u8bf4\u5b8c", "7909": "\u72d7\u5c4e", "7910": "\u5f90", "7911": "\u4e3b\u7ba1\u90e8\u95e8", "7912": "\u987a\u773c", "7913": "\u961f\u5458", "7914": "\u9b54\u9b3c", "7915": "\u540c\u6b65", "7916": "\u98ce\u7b5d", "7917": "\u6d3b\u8dc3", "7918": "\u53d1\u884c", "7919": "\u63e1", "7920": "\u60f3\u60f3\u4e5f\u662f", "7921": "\u671d\u7740", "7922": "\u60ca\u614c\u5931\u63aa", "7923": "\u4e45\u4e45", "7924": "\u75db\u6b7b", "7925": "\u602a\u7269", "7926": "\u4f1a\u957f", "7927": "\u53d1\u9175", "7928": "\u70ed\u5ea6", "7929": "\u8c01\u8c01\u8c01", "7930": "\u6781\u5927", "7931": "\u6a21\u62df", "7932": "\u7535\u8bdd\u53f7\u7801", "7933": "\u5341\u5c81", "7934": "\u6210\u5929", "7935": "\u5403\u918b", "7936": "\u6709\u6728\u6709", "7937": "\u7cca\u6d82", "7938": "\u56fd\u5185\u5916", "7939": "\u6f6e", "7940": "\u5956\u5b66\u91d1", "7941": "\u795d\u4f60\u4eec", "7942": "\u6e23\u6d6a", "7943": "\u9e2d\u5b50", "7944": "\u5982\u521d", "7945": "\u591a\u52a0", "7946": "\u8f6f\u5f31", "7947": "\u751f\u6001", "7948": "\u5e9c", "7949": "\u56f4\u7740", "7950": "\u8868", "7951": "\u6218\u672f", "7952": "\u53ef\u803b", "7953": "\u53ea\u613f", "7954": "\u4e34\u8fd1", "7955": "\u6b3e", "7956": "\u771f\u60c5", "7957": "\u94f2", "7958": "\u6b27\u7f8e", "7959": "\u63a5\u53e3", "7960": "\u54ed\u95f9", "7961": "\u63d0\u95ee", "7962": "\u4e00\u6b3e", "7963": "\u540e\u65b9", "7964": "\u4e0d\u5c0f", "7965": "\u8086", "7966": "\u6d4b", "7967": "\u4e0a\u8ff0", "7968": "\u7f18\u6545", "7969": "\u54f2\u5b66", "7970": "365", "7971": "\u6cbe", "7972": "\u629b", "7973": "\u6302\u6389", "7974": "\u4e24\u8005", "7975": "\u6cfc\u5987", "7976": "\u5206\u6570", "7977": "\u9760\u9760", "7978": "\u7ae5\u978b", "7979": "\u8bef\u5224", "7980": "\ud83d\udc67", "7981": "\u516d\u5e74", "7982": "\u6ce1\u811a", "7983": "\u591a\u5c81", "7984": "\u7f16\u7a0b", "7985": "\u65e0\u8da3", "7986": "\u95fb\u5230", "7987": "\u6655\u5012", "7988": "\u563b\u563b\u54c8\u54c8", "7989": "\u5c0f\u5b9d\u8d1d", "7990": "\u8584", "7991": "\u8bb2\u6545\u4e8b", "7992": "\u6c38\u4e0d", "7993": "\u70b9\u5fc3", "7994": "\u7537\u5b69\u5b50", "7995": "\u641e\u4e0d\u61c2", "7996": "\u61c2\u4e0d\u61c2", "7997": "\u4f3c", "7998": "\u8fde\u4e2a", "7999": "\u5730\u7406\u4f4d\u7f6e", "8000": "\u5c0f\u547d", "8001": "\u7b2c\u4e09\u4e2a", "8002": "\u6345", "8003": "\u5fb7\u884c", "8004": "\u4e70\u4e0d\u8d77", "8005": "wifi", "8006": "\u5929\u9ed1", "8007": "\u5305\u56f4", "8008": "\u8db4\u5728", "8009": "\u6276", "8010": "\u770b\u4e0a\u53bb", "8011": "\u7f8e\u5999", "8012": "\u9738\u9053", "8013": "\u4e0d\u5927", "8014": "\u5927\u5305", "8015": "\u76db\u5f00", "8016": "\u7f9e\u803b", "8017": "\u6cd5\u5e08", "8018": "\u653e\u6674", "8019": "\u5077\u7aa5", "8020": "\u5927\u597d", "8021": "\u2160", "8022": "\u523b", "8023": "\u4f4e\u8c37", "8024": "\u8fd9\u65b9\u9762", "8025": "\u7f13\u7f13", "8026": "\u7a46\u65af\u6797", "8027": "\u536b\u751f\u9662", "8028": "\u7ec6\u5fc3", "8029": "\u843d\u6cea", "8030": "\u6838\u7535\u7ad9", "8031": "\u4eca\u5929\u4e0a\u5348", "8032": "\u9a6c\u5fb7\u91cc", "8033": "\u897f\u73ed\u7259", "8034": "\u753b\u4e2a", "8035": "\u53e3\u4e2d", "8036": "\u8d27\u7269", "8037": "\u5ac2\u5b50", "8038": "\u865a\u5ea6", "8039": "\u65b0\u5a18", "8040": "\u50a8\u5907", "8041": "\u7cbe\u51c6", "8042": "\u91d1\u94f6", "8043": "\u5c55", "8044": "\u5c42\u6b21", "8045": "\u8bf4\u6765", "8046": "\u55d3\u5b50\u75bc", "8047": "\u5143\u6c14", "8048": "d", "8049": "\u52b2\u513f", "8050": "\u306a", "8051": "\u65e5\u665a", "8052": "\u6b4c\u624b", "8053": "\u7edd\u975e", "8054": "\u4e1a", "8055": "\u5916\u4eba", "8056": "\u73b0\u5df2", "8057": "\u9972\u6599", "8058": "\u4f20\u8a00", "8059": "\u89e3\u7b54", "8060": "\u51ed\u501f", "8061": "kg", "8062": "\u5440\u5440", "8063": "\u5077\u8d70", "8064": "\u8d22\u5bcc", "8065": "\u6536\u53d6", "8066": "\u65e0\u53ef", "8067": "\u5317\u6d77", "8068": "\u5185\u79d1", "8069": "\u9e21\u6bdb", "8070": "\u5fc5\u80dc", "8071": "\u5565\u610f\u601d", "8072": "\u6c11", "8073": "\u4eb2\u751f", "8074": "\u8282", "8075": "\u8bc1\u5238", "8076": "\u591a\u53d1", "8077": "\u503e\u5411", "8078": "\u4e8b\u5b9e\u8bc1\u660e", "8079": "\u4e2d\u65ec", "8080": "\u6b64\u540e", "8081": "\u61ca\u607c", "8082": "\u6bb4\u6253", "8083": "\u63a8\u8bff", "8084": "\u6d88\u6bd2\u6db2", "8085": "\u81ea\u53d1", "8086": "\u4e4b\u65e5\u8d77", "8087": "\u67ff", "8088": "\u98a0\u8986", "8089": "\u5495\u5495", "8090": "\u635e\u51fa", "8091": "\u5192\u9669", "8092": "\u6469\u64e6", "8093": "\u70b8\u85af\u6761", "8094": "\u91d1\u878d", "8095": "\u6d77\u5e95", "8096": "\u5929\u707e", "8097": "\u8106\u76ae", "8098": "\u8d5e\u540c", "8099": "\u75c5\u5e8a", "8100": "\u81ea\u6cbb\u533a", "8101": "\u5403\u5403\u559d\u559d", "8102": "\u9886\u5bfc\u73ed\u5b50", "8103": "\u767b\u673a", "8104": "\u89c9\u609f", "8105": "\u522b\u6015", "8106": "\u5f85\u5728\u5bb6\u91cc", "8107": "\u8ddf\u4e0a", "8108": "\u843d\u843d", "8109": "\u8feb\u5bb3", "8110": "\u4e00\u9178", "8111": "\u7b5b\u9009", "8112": "\u7b2c\u5341", "8113": "\u8bfe\u5802", "8114": "\uff0b", "8115": "\u77ed\u7f3a", "8116": "\u8d70\u4eb2\u8bbf\u53cb", "8117": "\u4e09\u7ec4", "8118": "\u9e66\u9e49\u87ba", "8119": "\u7ebf\u4e0a", "8120": "\u98ce\u606f", "8121": "\u795e\u6cea", "8122": "\u65b0\u6625\u5feb\u4e50", "8123": "\u51a0\u72b6", "8124": "MERS", "8125": "\u7948\u613f", "8126": "\u8bb8\u9b4f\u6d32", "8127": "\u970d\u5c0a", "8128": "\u8303\u4e1e\u4e1e", "8129": "\u904f\u5236", "8130": "\u6d41\u6d6a\u6c49", "8131": "\u5e05\u6843", "8132": "\u8ffd\u98ce", "8133": "\u5218\u5168", "8134": "\u80d6\u7ea2", "8135": "\u4e34\u5371\u53d7\u547d", "8136": "\u677f\u84dd\u6839", "8137": "\u95ee\u8bca", "8138": "\u674e\u6dd1\u82ac", "8139": "\u53f0\u5f53\u5c40", "8140": "\u8f7d", "8141": "\u751f\u610f", "8142": "\u5fcd\u5fcd", "8143": "\u4e0b\u7740\u96e8", "8144": "\u5411\u524d\u8d70", "8145": "\u61c2\u4e8b", "8146": "\u611f\u6069\u8282", "8147": "\u5fd8\u6389", "8148": "\u5f97\u7f6a", "8149": "\u5171\u4eab", "8150": "\u8f85\u52a9", "8151": "\u814c", "8152": "\u7cbe\u9009", "8153": "319", "8154": "02", "8155": "\u533b\u79d1\u5927\u5b66", "8156": "\u6795", "8157": "\u7ecf\u4e0d\u8d77", "8158": "\u7247\u6bb5", "8159": "\u4e07\u5e78", "8160": "\u5e05\u5e05", "8161": "\u81ea\u4e3b", "8162": "\u597d\u6c14", "8163": "\u8986\u76d6", "8164": "\u5728\u751f\u6d3b\u4e2d", "8165": "\u9047\u4e8b", "8166": "app", "8167": "\u6ca1\u6562", "8168": "\u8d2b\u7a77", "8169": "\u5df2\u7136", "8170": "\u5c1a\u672a", "8171": "\u6127\u759a", "8172": "\u5929\u5929\u5411\u4e0a", "8173": "\u6cb9\u6761", "8174": "\u98ce\u6c34", "8175": "\u5927\u9762\u79ef", "8176": "\u601d\u8def", "8177": "\u4e24\u8fb9", "8178": "\u79c1\u5bc6", "8179": "0.5", "8180": "\u5230\u671f", "8181": "\u4e22\u6389", "8182": "\u53cd\u80c3", "8183": "\u7a7a\u6d1e", "8184": "\u5982\u5c65\u8584\u51b0", "8185": "\u5f62\u6001", "8186": "\u5f3a\u52bf", "8187": "\u585e\u585e", "8188": "\u51e1\u4e8b", "8189": "\u4e0d\u7518", "8190": "\u4e0a\u65b9", "8191": "\u53d6\u4ee3", "8192": "\u4e00\u5e74\u7ea7", "8193": "\u56db\u5341", "8194": "\u9ad8\u4e2d\u540c\u5b66", "8195": "\u8718\u86db", "8196": "\u4e2d\u610f", "8197": "\u6284\u88ad", "8198": "\u9010\u6b65", "8199": "\u5077\u62cd", "8200": "\u9634\u6697", "8201": "\u4fd7\u8bdd\u8bf4", "8202": "\u8bd5\u9898", "8203": "\u670d\u52a1\u5668", "8204": "\u6b6a\u6b6a", "8205": "\u7ffb\u7ffb", "8206": "\u5c0f\u59b9\u59b9", "8207": "\u7559\u5b66", "8208": "\u9002\u91cf", "8209": "\u6700\u60f3", "8210": "\u89c1\u9b3c", "8211": "\u72fc", "8212": "\u964d\u4e34", "8213": "no", "8214": "\u7167\u955c\u5b50", "8215": "\u66f4\u5927", "8216": "\u770b\u4e00\u904d", "8217": "\u684c\u4e0a", "8218": "\u4eba\u683c", "8219": "\u9c9c", "8220": "\u9884\u60f3", "8221": "\u8d26\u5355", "8222": "\u5584\u5f85", "8223": "\u4e5d\u4e2a", "8224": "\u8ddf\u4e2a", "8225": "\u60ca\u9669", "8226": "\u52a0\u500d", "8227": "\u4e1a\u7ee9", "8228": "\u618b\u6c14", "8229": "\u4e2d\u534e\u6c11\u65cf", "8230": "\u8bb2\u8bfe", "8231": "\u82b1\u75f4", "8232": "\u8df3\u52a8", "8233": "\u5931\u63a7", "8234": "\u4e00\u4e2a\u534a", "8235": "\u5fc3\u52a8", "8236": "\u656c\u4e1a", "8237": "\u82f1\u4fca", "8238": "\u4e09\u5341", "8239": "\u6402", "8240": "\u4e00\u4ee3", "8241": "\u6df7\u5408", "8242": "\u7231\u7740", "8243": "\u51b2\u7740", "8244": "\u8f7b\u5fae", "8245": "2.5", "8246": "\u5360\u636e", "8247": "\u4e1c\u5357", "8248": "\u7535\u529b", "8249": "\u7ea2\u7eff\u706f", "8250": "\u7406\u4f1a", "8251": "\u5cb3\u7236", "8252": "\u51e0\u904d", "8253": "\u8840\u8165", "8254": "\u9992\u5934", "8255": "\u6539\u4e3a", "8256": "\u68a6\u5883", "8257": "\u5f00\u706f", "8258": "\u522b\u5885", "8259": "\u732b\u54aa", "8260": "\u4e8c\u5341\u5e74", "8261": "\u67b6", "8262": "\u626c\u5dde", "8263": "\u9000\u4f11", "8264": "\u5e73\u677f", "8265": "\u624b\u5de5", "8266": "\u53e0", "8267": "\u5b66\u95ee", "8268": "\u731c\u6d4b", "8269": "\u56db\u6b21", "8270": "\u8fdc\u89c1", "8271": "\u51fb\u5012", "8272": "\u52e4\u5feb", "8273": "\u660e\u513f", "8274": "\u4e27\u5931", "8275": "\u5217", "8276": "\u6de1\u7136", "8277": "\u65e5\u671f", "8278": "\u9057\u4f20", "8279": "\u4e38", "8280": "\u521a\u521a\u5f00\u59cb", "8281": "\u516c\u52a1\u5458", "8282": "\u9ad8\u8fbe", "8283": "\u53e6\u4e00\u65b9\u9762", "8284": "\u6211\u79bb", "8285": "1979", "8286": "\uff1d", "8287": "\u770b\u4e0d\u6e05", "8288": "\u6700\u4f4e", "8289": "\u75db\u5feb", "8290": "\u597d\u60f3", "8291": "\u767b\u9646", "8292": "\u5267\u900f", "8293": "\u8352\u829c", "8294": "\u4f53\u529b", "8295": "\u5370\u5237", "8296": "\u5413\u4e86\u4e00\u8df3", "8297": "\u6253\u7834", "8298": "\u5360\u5730", "8299": "\u4e43\u81f3", "8300": "\u5047\u8bbe", "8301": "\u5931\u4e1a", "8302": "\u7b80\u79f0", "8303": "\u76f4\u89c6", "8304": "\u745c\u4f3d", "8305": "\u56fd\u6c11\u515a", "8306": "\u4e00\u5200", "8307": "\u706b\u70e7", "8308": "\u5927\u697c", "8309": "\u6982\u62ec", "8310": "\u5de7\u5999", "8311": "\u770b\u4e2d", "8312": "\u5bf9\u63a5", "8313": "\u7ec8\u70b9", "8314": "\u914d\u9001", "8315": "\u5fd8\u4e0d\u4e86", "8316": "\u6ca1\u4eba\u80fd", "8317": "\u6700\u68d2", "8318": "\u63d0\u8d77", "8319": "\u4e25\u60e9", "8320": "\u6d77\u8fb9", "8321": "\u8003\u4e0a", "8322": "\u8272", "8323": "\u56fd\u9053", "8324": "\u603b\u4f53", "8325": "\u54aa", "8326": "\u6e38", "8327": "\u9084\u6709", "8328": "\u89c6\u7ebf", "8329": "\u6781\u4e3a", "8330": "\u5984\u60f3", "8331": "\u5e74\u6765", "8332": "\u559c\u6012\u54c0\u4e50", "8333": "\u75af\u72d7", "8334": "\u597d\u7f8e", "8335": "\u5165\u53e3", "8336": "\u83ab\u975e", "8337": "\u6a59\u5b50", "8338": "\u518d\u6765", "8339": "\u521d\u4e00", "8340": "\u9897\u7c92", "8341": "\u5410\u51fa\u6765", "8342": "\u7231\u56fd", "8343": "\u4eba\u60f3", "8344": "\u4e3b\u5bfc", "8345": "\u4e00\u65a4", "8346": "\u4f18\u96c5", "8347": "\u8ff7\u604b", "8348": "\u5510\u50e7", "8349": "\u8e66", "8350": "\u5f90\u5dde", "8351": "\ud83c\udf89", "8352": "\u4e00\u888b", "8353": "\u51c6", "8354": "\u59d3\u540d", "8355": "\u79d1\u7814\u4eba\u5458", "8356": "\u9192\u9192", "8357": "\u60a0\u7136", "8358": "\u5fc3\u773c", "8359": "\u8054\u5408\u56fd", "8360": "\u9910\u684c", "8361": "\u4e00\u5ea6", "8362": "\u4f26\u6566", "8363": "\u8fdb\u653b", "8364": "\u8fdd\u53cd", "8365": "\u6cd5\u89c4", "8366": "\u6700\u4e3a", "8367": "\u4e2d\u534e\u4eba\u6c11\u5171\u548c\u56fd", "8368": "\u52b3\u52a8\u529b", "8369": "\u6405\u62cc", "8370": "\u6253\u6765", "8371": "\u798f\u5efa\u7701", "8372": "\u522b\u60f3", "8373": "\u8c01\u5bb6", "8374": "\u6ca1\u4eba\u4f1a", "8375": "\u52c7\u58eb", "8376": "\u8587", "8377": "\u987a\u7740", "8378": "\u8857\u5934", "8379": "\u592a\u5c11", "8380": "\u51b3\u8d5b", "8381": "\u7c97\u6765", "8382": "\u72d7\u7537\u5973", "8383": "\u8386\u7530", "8384": "\u9646\u519b", "8385": "\u4f5c\u6218", "8386": "\u4fa6\u63a2", "8387": "\u5f15\u8fdb", "8388": "\u4ece\u5bb9", "8389": "\u5ac1\u7ed9", "8390": "\u5b9a\u671f", "8391": "\u73ed\u91cc", "8392": "\u5408\u7740", "8393": "\u4fe1\u5ff5", "8394": "\u65e0\u5173\u7d27\u8981", "8395": "\u8db4\u7740", "8396": "\u534a\u8def", "8397": "\u6270\u4e71", "8398": "\u751f\u65e5\u793c\u7269", "8399": "\u4f20\u5947", "8400": "\u51b0\u51b7", "8401": "\u91cd\u611f\u5192", "8402": "\u4f5b\u6559", "8403": "\u8499", "8404": "\u5feb\u7ed9\u6211", "8405": "\u51fa\u9519", "8406": "\u5199\u5b57", "8407": "\u5f90\u592a\u5b87", "8408": "\u53d8\u4e3a", "8409": "\u6548\u5e94", "8410": "\u70ed\u7ebf", "8411": "\u72b9\u5982", "8412": "\u80af\u5fb7\u57fa", "8413": "\u677e", "8414": "\u77ed\u671f", "8415": "\u6ca1\u8f66", "8416": "\u6e05\u98ce", "8417": "\u592a\u4e11", "8418": "\u51fa\u8840", "8419": "\u5341\u51e0\u5e74", "8420": "\u7334\u5b50", "8421": "\u771f\u5047", "8422": "\u73af", "8423": "\u6ca1\u53d1", "8424": "\u5c3d\u91cf\u907f\u514d", "8425": "\u9003\u7a9c", "8426": "\u91cd\u6f14", "8427": "\u8205\u8205", "8428": "\u7c98", "8429": "\u8584\u8377\u7cd6", "8430": "\u56de\u6536", "8431": "\u6e38\u8d70", "8432": "\u575a\u6301\u4e0b\u53bb", "8433": "\u6276\u8d2b", "8434": "2022", "8435": "\u771f\u4f1a", "8436": "\u52a8\u8f66", "8437": "\u8111\u6b8b\u7c89", "8438": "\u5c0f\u5c41\u5b69", "8439": "\u6674", "8440": "\u539f\u6599", "8441": "\u62ff\u8d70", "8442": "\u5c0a\u656c", "8443": "\u51fa\u7248\u793e", "8444": "\u767d\u8d39", "8445": "10000", "8446": "\u5dee\u5f02", "8447": "\u62d2", "8448": "\u4e13\u6ce8", "8449": "\u6c34\u4e2d", "8450": "\u8fd9\u5957", "8451": "\u6392\u6bd2", "8452": "\u9e21\u817f", "8453": "\u607c\u706b", "8454": "\u604b\u4eba", "8455": "\u6e83\u75a1", "8456": "\u5907\u6848", "8457": "\u767d\u9152", "8458": "\u7edf\u7edf", "8459": "\u5982\u4f55\u662f\u597d", "8460": "\u592a\u539f", "8461": "\u7cbe\u795e\u75c5\u9662", "8462": "\u6beb\u7c73", "8463": "\u6447", "8464": "\u5e73\u65e5", "8465": "\u5341\u4e94", "8466": "\u6539\u7f16", "8467": "\u57ce\u7ba1", "8468": "\u6392\u5217", "8469": "\u6574\u9f50", "8470": "\u5e73\u590d", "8471": "\u5e73\u5eb8", "8472": "3M", "8473": "\uff10", "8474": "\uff11", "8475": "\u9632\u8303\u63aa\u65bd", "8476": "\u4ece\u8f7b", "8477": "\u8ff7\u4eba", "8478": "\u7f16", "8479": "\u6362\u73ed", "8480": "\u56db\u6d77", "8481": "\u516c\u5b89\u5c40", "8482": "\u5ea6\u5047", "8483": "\u9996", "8484": "\u5893", "8485": "1993", "8486": "160", "8487": "\u901a\u901a", "8488": "\u4e00\u65c1", "8489": "\u8fd8\u539f", "8490": "\u5317\u7ea6", "8491": "\u9609", "8492": "\u6d2a\u8352", "8493": "\u8354\u679d", "8494": "\u76f2\u76ee", "8495": "\u9ed1\u767d", "8496": "\u7535\u89c6\u673a", "8497": "\u6ee1\u5206", "8498": "\u9884\u7b97", "8499": "\u7701\u59d4", "8500": "\u6b66\u660c", "8501": "1990", "8502": "\u4e1a\u4e3b", "8503": "\u4eba\u592a\u591a", "8504": "\u624b\u6cd5", "8505": "\u795e\u7ecf\u8870\u5f31", "8506": "\u795e\u79d8", "8507": "\u4e1c\u7ad9", "8508": "\u75c5\u6bd2\u611f\u67d3", "8509": "\u626f\u6de1", "8510": "\u4e4c\u9e26", "8511": "\u771f\u70e6", "8512": "\u533a\u5206", "8513": "\u7f16\u7ec7", "8514": "\u6267\u884c\u529b", "8515": "\u7b2c\u4e00\u4ef6", "8516": "\u592a\u91cd", "8517": "\u7f8a", "8518": "\u51e0\u6761", "8519": "\u8089\u7c7b", "8520": "\u53d1\u8a00", "8521": "\u59a5\u59a5", "8522": "\u61c2\u5417", "8523": "\u671d\u9633", "8524": "\u8d25\u7c7b", "8525": "\u5413\u552c", "8526": "\u7f6e\u9876", "8527": "\u5e8f\u5217", "8528": "\uffe3", "8529": "72", "8530": "\u77e3", "8531": "\u6c99\u5c18\u66b4", "8532": "\u51fa\u5165", "8533": "\u665a\u62a5", "8534": "\u788e\u4e86\u5fc3", "8535": "\u9690\u9690\u7ea6\u7ea6", "8536": "\u5de8", "8537": "04", "8538": "\u5438", "8539": "\u573a\u5408", "8540": "BB", "8541": "\u6781\u597d", "8542": "\u6321\u4e0d\u4f4f", "8543": "\u6076\u68a6", "8544": "\u9633\u5149\u660e\u5a9a", "8545": "\u789f", "8546": "\u6211\u52d2\u4e2a", "8547": "\u4e3b\u89c2", "8548": "\u6539\u7b7e", "8549": "\u96fe\u6c14", "8550": "\u906e\u6321", "8551": "\u516b\u4e07", "8552": "\u5929\u6587",
[...]
