{"idx_to_token": {"0": "[PAD]", "1": "[UNK]", "2": "\uff0c", "3": "\u4e86", "4": "\u3002", "5": "\uff01", "6": "\u6211", "7": "/", "8": " ", "9": "\u662f", "10": "[", "11": "]", "12": "\u4f60", "13": "\u90fd", "14": "#", "15": "\u5728", "16": ":", "17": "@", "18": "?", "19": "\u4e0d", "20": "\u5c31", "21": "\u2026", "22": "\u4eba", "23": "\u3001", "24": "\uff1f", "25": "\u4e5f", "26": "\u597d", "27": "\u6709", "28": "\u81ea\u5df1", "29": "\u8981", "30": "\u548c", "31": "\u554a", "32": "\u52a0\u6cb9", "33": "\u6b66\u6c49", "34": "\u8fd8", "35": "\u8bf4", "36": "\u6211\u4eec", "37": "\u4e00\u4e2a", "38": "\u8fd9", "39": "\u53bb", "40": "\u60f3", "41": "\u5230", "42": "\u6ca1\u6709", "43": "\u53c8", "44": "\u88ab", "45": "\u4ec0\u4e48", "46": "\u4f1a", "47": "\u771f\u7684", "48": "\u5f88", "49": "\u5fc3", "50": "\u7ed9", "51": "\u4ed6", "52": "\u770b", "53": "\u201c", "54": "\uff1a", "55": "\u80fd", "56": "\u75ab\u60c5", "57": "\u6ca1", "58": "\u8ba9", "59": "\u5c31\u662f", "60": "\u4eca\u5929", "61": "\u5403", "62": "\u73b0\u5728", "63": "\u80ba\u708e", "64": "\u591a", "65": "\u81f4\u656c", "66": ".", "67": "\u4e0a", "68": "\u5927\u5bb6", "69": "\u7740", "70": "\u4e00\u8d77", "71": "\u77e5\u9053", "72": "\u628a", "73": "\u8fd9\u4e2a", "74": "\u5bf9", "75": "\u533b\u62a4\u4eba\u5458", "76": "\u505a", "77": "\u65b0\u578b", "78": "\u600e\u4e48", "79": "\u8fd8\u662f", "80": "\u65f6\u5019", "81": "\u4f60\u4eec", "82": "\u53ef\u4ee5", "83": "\u201d", "84": "\u6765", "85": "\u8fd9\u4e48", "86": "\u4e2a", "87": "\u4e0d\u662f", "88": "\u4e3a", "89": "\u5e73\u5b89", "90": "\u4e0d\u8981", "91": "\u592a", "92": "\u5979", "93": "\u4e00", "94": "\u5e74", "95": "\u5e0c\u671b", "96": "\u8fd9\u6837", "97": "\u5f97", "98": "\u6cea", "99": "\u7b49", "100": "\u6700", "101": "\uff08", "102": "\u8fc7", "103": "\u4e0d\u80fd", "104": "\uff5e", "105": "\u518d", "106": "\u53e3\u7f69", "107": "\uff1b", "108": "\uff09", "109": "\u5df2\u7ecf", "110": "\u611f\u89c9", "111": "\u624d", "112": "\u559c\u6b22", "113": "-", "114": "\u6708", "115": "\u5927", "116": "\u4e2d", "117": "\u89c9\u5f97", "118": "\u4f46", "119": "\u90a3\u4e48", "120": "\u4e00\u5b9a", "121": "\u7231", "122": "\u8ddf", "123": "\u4e00\u76f4", "124": "\u771f\u662f", "125": "\u90a3", "126": "\u56e0\u4e3a", "127": "\u524d\u7ebf", "128": "\u4ece", "129": "\u4e0e", "130": "\u770b\u5230", "131": "t", "132": "cn", "133": "http", "134": "~", "135": "\u4e3a\u4ec0\u4e48", "136": "\u7528", "137": "\u4e48", "138": "\u5bb3\u6015", "139": "\u91cc", "140": "\u8c01", "141": "1", "142": "\u613f", "143": "\u786e\u8bca", "144": "\u5c0f", "145": "\u51a0\u72b6\u75c5\u6bd2", "146": "\u522b\u4eba", "147": "\u6b7b", "148": "\u8fd8\u6709", "149": "\u4e0d\u4f1a", "150": "\u540e", "151": "!", "152": "\u5f00\u59cb", "153": "\u4e8b", "154": "\u4eec", "155": "\u4f8b", "156": "\u5411", "157": "\u53d1\u73b0", "158": "\u4e2d\u56fd", "159": "\u800c", "160": "\u4ed6\u4eec", "161": "\u8d70", "162": "\u5f00\u5fc3", "163": "\u2014", "164": "\u4e00\u5929", "165": "\u5065\u5eb7", "166": "\u5566", "167": ",", "168": "\u5de5\u4f5c", "169": "\u8d77\u6765", "170": "\u4e1c\u897f", "171": "\u8fd9\u79cd", "172": "\u4e0b", "173": "\u4f46\u662f", "174": "\u5374", "175": "\u4e70", "176": "\u771f", "177": "\u66f4", "178": "\u903c", "179": "\u75c5\u4f8b", "180": "\u300b", "181": "\u51fa\u6765", "182": "\u300a", "183": "\u65f6\u95f4", "184": "\u5c45\u7136", "185": "\u7136\u540e", "186": "\u5982\u679c", "187": "\u00b7", "188": "\u65e5", "189": "\u6bcf\u5929", "190": "\u65f6", "191": "_", "192": "\u5b8c", "193": "\u4e00\u6837", "194": "\u751f\u6d3b", "195": "\u8f9b\u82e6", "196": "\u4fdd\u62a4", "197": "\u53ea", "198": "\u4e00\u4e0b", "199": "\u53ef\u6015", "200": "\u6240\u6709", "201": "\u5fc3\u60c5", "202": "\u4e8b\u60c5", "203": "\u533b\u9662", "204": "\u4e0d\u60f3", "205": "\u5988", "206": "2", "207": "\u3010", "208": "\u670b\u53cb", "209": "\u6bd4", "210": "\u50cf", "211": "\u7761", "212": "\u53ef", "213": "\u597d\u597d", "214": "\"", "215": "\u5b83", "216": "\u665a\u4e0a", "217": "\u8fd9\u573a", "218": "\u5feb", "219": "\u5e76", "220": "\u4ee5\u540e", "221": "\u6700\u8fd1", "222": "\u7ed3\u679c", "223": "\u5f53", "224": "\u3011", "225": "\u70b9", "226": "\u5f88\u591a", "227": "\u5168\u56fd", "228": "\u627e", "229": "\u8bf7", "230": "\u611f\u67d3", "231": "\u6234", "232": "\u6253\u8d62", "233": "\u7a81\u7136", "234": "3", "235": "\u5fae\u535a", "236": "\u5e94\u8be5", "237": "\u660e\u5929", "238": "\u4e16\u754c", "239": "\u7adf\u7136", "240": "\u4e0d\u597d", "241": "\u6240\u4ee5", "242": "\u4e00\u6b21", "243": "\u5730", "244": "\u53ef\u80fd", "245": "\u90a3\u4e2a", "246": "\u9700\u8981", "247": "\u624b\u673a", "248": "\u53ea\u662f", "249": "\u53ef\u662f", "250": "\u54ed", "251": "\u4e00\u70b9", "252": "\u6700\u540e", "253": "\u7761\u89c9", "254": "...", "255": "\u6253", "256": "\u53eb", "257": "\u5e26", "258": "\u50bb", "259": "\u7279\u522b", "260": "\u5929", "261": "\u533b\u751f", "262": "\u53ea\u6709", "263": "\u505a\u597d", "264": "\u8be5", "265": "\u4e00\u7ebf", "266": "\u95ee\u9898", "267": "\u9632\u62a4", "268": "\u5730\u65b9", "269": "\u5b9d\u5b9d", "270": "\u56de\u5bb6", "271": "\u5fc3\u91cc", "272": "\u51fa\u95e8", "273": "\u5176\u5b9e", "274": "\u6709\u4eba", "275": "\u554a\u554a\u554a", "276": "\u56de\u6765", "277": "\u65b0", "278": "\u8fd9\u4e9b", "279": "\u75c5\u6bd2", "280": "\u90a3\u4e9b", "281": "\u5c06", "282": "\u7ec8\u4e8e", "283": "\u5c0f\u65f6", "284": "##", "285": "(", "286": "\u4e24\u4e2a", "287": "\u95ee", "288": "\u8fd8\u8981", "289": "\u60ca\u6050", "290": "\u51fa", "291": "\u5b69\u5b50", "292": ")", "293": "\u4ee5\u4e3a", "294": "\u542c", "295": "\u8fc7\u53bb", "296": "\u4e3a\u4e86", "297": "\u6709\u70b9", "298": "\u8dd1", "299": "\u5df2", "300": "\u867d\u7136", "301": "\u54c8\u54c8\u54c8", "302": "\u4e00\u5207", "303": "\u5565", "304": "\u8ba8\u538c", "305": "\u52aa\u529b", "306": "\u603b\u662f", "307": "\u53f7", "308": "\u6bcf\u6b21", "309": "\u8d5e", "310": "\u5e78\u798f", "311": "\u94b1", "312": "\u5988\u5988", "313": "\u5404\u79cd", "314": "\u9632\u75ab", "315": "10", "316": "\u662f\u4e0d\u662f", "317": "\u62ff", "318": "\u65e9\u4e0a", "319": "\u6ce8\u610f", "320": "\u8fd9\u662f", "321": "\u522b", "322": "\u72d7", "323": "\u5c81", "324": "\u611f\u8c22", "325": "\u91cd\u8981", "326": "\u524d", "327": "\u51fa\u73b0", "328": "\u4ee5", "329": "\u6216", "330": "\u8fde", "331": "\u6709\u4e9b", "332": "\u76f8\u4fe1", "333": "4", "334": "\u6050\u6016", "335": "\u5fae\u7b11", "336": "\u5199", "337": "\u6218", "338": "5", "339": "\u7b2c\u4e00\u6b21", "340": "\u6c38\u8fdc", "341": "\u54e6", "342": "\u9694\u79bb", "343": "\u6628\u5929", "344": "\u60c5\u51b5", "345": "\u60a3\u8005", "346": "\u73a9", "347": "\u770b\u770b", "348": "\u7b80\u76f4", "349": "\u4e00\u79cd", "350": "\u665a\u5b89", "351": "\u5b66\u6821", "352": "\u544a\u8bc9", "353": "\u4e0d\u5230", "354": "\u76f4\u63a5", "355": "\u539f\u6765", "356": "\u9632\u63a7", "357": "\u6211\u8981", "358": "\u5230\u5e95", "359": "\u4e00\u4e9b", "360": "\u51e0\u5929", "361": "\u56fd\u5bb6", "362": "\u6015", "363": "\u8fd9\u6b21", "364": "\u4e4b", "365": "\u516c\u53f8", "366": "\u5929\u5929", "367": "good", "368": "6", "369": "\u4e0a\u73ed", "370": "\u611f\u5192", "371": "\u561b", "372": "\u4e4b\u524d", "373": "\u53ea\u80fd", "374": "\u4e4b\u540e", "375": "\u4eba\u751f", "376": "\u4e8e", "377": "\u8eab\u8fb9", "378": "\u653f\u5e9c", "379": "\u5c3c\u739b", "380": "\u8bdd", "381": "11", "382": "\u4e0d\u8fc7", "383": "\u5c01\u57ce", "384": "\u6bcf", "385": "\u6e56\u5317", "386": "\u6218\u6597", "387": "\u8c22\u8c22", "388": "\u5317\u4eac", "389": "\u5bb6", "390": "\u597d\u50cf", "391": "\u591a\u5c11", "392": "\u975e\u5e38", "393": "\u7761\u4e0d\u7740", "394": "\u7535\u8bdd", "395": "\u8001\u5e08", "396": "\u6050\u60e7", "397": "\u6bcf\u4e2a", "398": "\u8d8a\u6765\u8d8a", "399": "\u4e0a\u6d77", "400": "\u7b11", "401": "\u60f3\u8981", "402": "\u4eba\u6c11", "403": "\u60b2\u4f24", "404": "\u51c6\u5907", "405": "\u51e0\u4e2a", "406": "\u65e0", "407": "\u8bf4\u8bdd", "408": "\u53d1\u751f", "409": "\u633a", "410": "\u62cd", "411": "\u4ee5\u524d", "412": "\u53ef\u7231", "413": "\u5feb\u9012", "414": "\u7d2f", "415": "\u770b\u7740", "416": "\u4e0d\u4e86", "417": "\u6240\u6709\u4eba", "418": "\u4e00\u53e5", "419": "\u8bb0\u5f97", "420": "\u8001", "421": "\u8dea", "422": "\u89c6\u9891", "423": "\u800c\u4e14", "424": "\u5bb6\u91cc", "425": "\u7ee7\u7eed", "426": "\u7ad9", "427": "\u8521", "428": "\u4e25\u91cd", "429": "9", "430": "\u65e5\u5b50", "431": "\u5367\u69fd", "432": "\u5141\u60b2", "433": "\u51fa\u53bb", "434": "\u91ce\u5473", "435": "12", "436": "\u4fe1\u606f", "437": "\u5403\u996d", "438": "\u8d8a", "439": "TFBOYS", "440": "\u9047\u5230", "441": "\u9009\u62e9", "442": "\u603b", "443": "\u6574\u4e2a", "444": "\u8279", "445": "\u7535\u5f71", "446": "\u5fc5\u987b", "447": "7", "448": "\u5e73\u5e73\u5b89\u5b89", "449": "\u7684\u8bdd", "450": "\u624d\u80fd", "451": "\u61c2", "452": "\u5f90\u5764", "453": "\u672c\u6765", "454": "\u6210", "455": "\u5f00", "456": "\u65e0\u6cd5", "457": "\u53d1", "458": "\u751f\u6c14", "459": "\u5c0f\u5fc3", "460": "\u521a", "461": "\u4e0d\u7528", "462": "\u6b7b\u4ea1", "463": "\u5bb6\u4eba", "464": "\u641e", "465": "\u62f3\u5934", "466": "\u65b0\u95fb", "467": "\u8fdb\u884c", "468": "\u5c11\u5e74", "469": "8", "470": "\u96be\u8fc7", "471": "\u00a0", "472": "\u9ad8", "473": "\u82f1\u96c4", "474": "\u8fd9\u91cc", "475": "\u75af", "476": "\u957f", "477": "\u4f1f\u5927", "478": "\u63aa\u65bd", "479": "\u5176\u4ed6", "480": "\u773c\u775b", "481": "\u6050\u614c", "482": "\u652f\u6301", "483": "\u4e00\u5e74", "484": "\u5feb\u4e50", "485": "20", "486": "\u6210\u4e3a", "487": "\u559d", "488": "\u54ea", "489": "\u76ee\u524d", "490": "\u6628\u665a", "491": "\u6700\u597d", "492": "\u53ca", "493": "\u5982\u6b64", "494": "\u68a6", "495": "\u4e2a\u4eba", "496": "\u751f\u547d", "497": "\u56de", "498": "\u8def", "499": "\u660e\u660e", "500": "\u7f8e\u597d", "501": "\u4e0d\u6562", "502": "\u4e0d\u884c", "503": "\u4f5c\u63d6", "504": "\u5bb9\u6613", "505": "\u9760", "506": "\u9189", "507": "\u966a", "508": "\u5fd9", "509": "\u6839\u672c", "510": "\u793e\u4f1a", "511": "\u5750", "512": "\u8863\u670d", "513": "\u4f5c\u4e3a", "514": "\u82b1", "515": "\u9886\u5bfc", "516": "\u9a82", "517": "24", "518": "\u54d2", "519": "\u53d8\u6210", "520": "\u54c8\u54c8", "521": "\u7531", "522": "\u521a\u521a", "523": "\u591f", "524": "\u5413", "525": "\u6837\u5b50", "526": "\u4e0b\u5348", "527": "\u5b8c\u5168", "528": "\u5982\u4f55", "529": "\u597d\u591a", "530": "\u89c1", "531": "\u60f3\u5230", "532": "\u54ce", "533": "\u8d77", "534": "\u6d88\u606f", "535": "\u738b\u4e00\u535a", "536": "\u8eab\u4f53", "537": "\u5bf9\u4e8e", "538": "\u518d\u4e5f", "539": "\u5e72", "540": "\u75bc", "541": "\u4efb\u4f55", "542": "\ud83d\ude02", "543": "\u7269\u8d44", "544": "\u9001", "545": "\u57ce\u5e02", "546": "\u4f20\u64ad", "547": "\u5f71\u54cd", "548": "\u6253\u7535\u8bdd", "549": "\u5973\u4eba", "550": "\u6389", "551": "\u8f6c\u53d1", "552": "X", "553": "\u60f3\u60f3", "554": "\u5669\u68a6", "555": "\u7b80\u5355", "556": "\u800c\u662f", "557": "\u55b5", "558": "\u5185", "559": "\u51ac\u5929", "560": "\u6216\u8005", "561": "\u600e\u4e48\u529e", "562": "\u6731\u4e00\u9f99", "563": "\u540c\u65f6", "564": "\u53d1\u5c55", "565": "\u8d85\u7ea7", "566": "\u5410", "567": "\u5728\u5bb6", "568": "\u6240", "569": "\u5c31\u8981", "570": "\u5de5\u4f5c\u8005", "571": "\u54ea\u91cc", "572": "\u53ea\u8981", "573": "\u96be\u9053", "574": "\u6076\u5fc3", "575": "\u672c", "576": "\u7537\u4eba", "577": "\u96be\u53d7", "578": "\u4e22", "579": "\u5176", "580": "\u80fd\u529b", "581": "\u5185\u5fc3", "582": "\u795d\u798f", "583": "\u8981\u6c42", "584": "\u672a\u6765", "585": "17", "586": "\u4eba\u5bb6", "587": "\u5e2e", "588": "\u8fc7\u5e74", "589": "\u63a7\u5236", "590": "\u5931\u671b", "591": "\u5f97\u5230", "592": "\u4eca\u5e74", "593": "\u63a5\u53d7", "594": "\u4e0b\u53bb", "595": "\u7167\u987e", "596": "\u5927\u5b66", "597": "\u5c11", "598": "\u8001\u5b50", "599": "DAYTOY", "600": "\u540c\u5b66", "601": "\u7167\u7247", "602": "\u4eca\u665a", "603": "\u5c31\u7b97", "604": "\u4e0d\u591f", "605": "\u5413\u6b7b", "606": "\u624b", "607": "\u7ed3\u675f", "608": "\u4e2d\u5348", "609": "\u795d", "610": "UNIQ", "611": "\u5b66\u4e60", "612": "\u7396", "613": "\u53d1\u70ed", "614": "\u51b3\u5b9a", "615": "\u5931\u7720", "616": "\u5206\u949f", "617": "\u6012", "618": "\u8fc7\u6765", "619": "\u80fd\u591f", "620": "\u7b2c\u4e00", "621": "\u4f4f", "622": "\u660e\u767d", "623": "\u8005", "624": "\u4e0d\u8ba9", "625": "\u56e2\u8096\u6218", "626": "\u7136\u800c", "627": "\u65e9", "628": "\u5413\u4eba", "629": "\u751f\u65e5\u5feb\u4e50", "630": "\u62dc\u62dc", "631": "\u5b89\u5168", "632": "\u7a7f", "633": "\u4e0d\u7ba1", "634": "\u4e24\u5929", "635": "15", "636": "\u770b\u89c1", "637": "\u7814\u7a76", "638": "\u5148", "639": "\u9b3c", "640": "\u91cc\u9762", "641": "\u6709\u65f6\u5019", "642": "\u6b63\u5e38", "643": "\u62c5\u5fc3", "644": "\u90a3\u79cd", "645": "\u8d76\u7d27", "646": "\u662f\u56e0\u4e3a", "647": "\u4e5f\u8bb8", "648": "\u5f53\u65f6", "649": "\u91cd\u89c6", "650": "\u529e\u6cd5", "651": "\u4f5c\u4e1a", "652": "\u5de5\u4f5c\u5ba4", "653": "\u7406\u89e3", "654": "\u7537", "655": "\u79bb\u5f00", "656": "\u9664\u4e86", "657": "\u8ba4\u8bc6", "658": "\u771f\u5fc3", "659": "\u5e72\u561b", "660": "\u8bb2", "661": "\u5b9e\u5728", "662": "\u5dee", "663": "\u8138", "664": "\u4e3b\u8981", "665": "\u751f\u65e5", "666": "\u7f8e\u56fd", "667": "\u4e00\u53ea", "668": "\u5206", "669": "\u997f", "670": "\u4ee5\u53ca", "671": "\u901a\u8fc7", "672": "\u653e", "673": "\u5168\u90e8", "674": "\u5982", "675": "\u611f\u53d7", "676": "\u9762\u5bf9", "677": "\u613f\u610f", "678": "\u70ed", "679": "\u6211\u4f1a", "680": "\u5475\u5475", "681": "\u6700\u5927", "682": "\u5bf9\u4e0d\u8d77", "683": "\u6362", "684": "\u56de\u5230", "685": "\u5b66\u751f", "686": "\u5b8c\u6210", "687": "\u53ef\u601c", "688": "\u6545\u4e8b", "689": "\u6570\u636e", "690": "\u644a\u624b", "691": "\u5b57", "692": "\u6210\u529f", "693": "\u4e00\u4ef6", "694": "\u54b1\u4eec", "695": "\u75c5", "696": "\u4e0b\u96e8", "697": "\u75c5\u4eba", "698": "\u533b\u7597", "699": "\u533b\u62a4", "700": "\u6e29\u6696", "701": "\u5176\u4e2d", "702": "\u54e5\u54e5", "703": "\u7ec4\u7ec7", "704": "\u8f66", "705": "\u5509", "706": "\u6025", "707": "\u53d1\u5e03", "708": "\u80af\u5b9a", "709": "\u5f04", "710": "\u652f\u63f4", "711": "\u9632\u5fa1\u6218", "712": "\u4eba\u5458", "713": "\u751a\u81f3", "714": "\u7761\u7740", "715": "\u548b", "716": "\u6c14\u6b7b\u6211\u4e86", "717": "\u7ecf\u5386", "718": "\u8212\u670d", "719": "\u542c\u5230", "720": "\u5b9d\u8d1d", "721": "\u60f3\u8d77", "722": "\u653e\u5f03", "723": "\u6cbb\u7597", "724": "\u54cd\u5e94", "725": "SARS", "726": "\u540e\u6765", "727": "\u51b7", "728": "\u80fd\u91cf", "729": "\u575a\u6301", "730": "\u4e00\u7ea7", "731": "\u6bd4\u8f83", "732": "\ud83d\ude2d", "733": "\u771f\u6b63", "734": "\u8003\u8bd5", "735": "\ufe0f", "736": "\u4e4b\u95f4", "737": "\u6c14", "738": "\u81ea\u6211", "739": "2020", "740": "\u4f7f\u7528", "741": "\u513f\u5b50", "742": "\u65b0\u589e", "743": "\u7238\u7238", "744": "\u7236\u6bcd", "745": "\u60c5\u7eea", "746": "\u5973", "747": "\u4f11\u606f", "748": "\u4ed6\u5988\u7684", "749": "\u5b58\u5728", "750": "\u8d85\u8bdd", "751": "\u8001\u516c", "752": "\u6d3b\u52a8", "753": "\u65b9\u5f0f", "754": "\u59d0\u59d0", "755": "\u6625\u8282", "756": "\u90a3\u6837", "757": "\u8868\u793a", "758": "\u6162\u6162", "759": "\u6765\u81ea", "760": "\u6c42", "761": "\u4e0d\u540c", "762": "\u975e\u5178", "763": "\u773c\u6cea", "764": "\u4e00\u6761", "765": "\u75c7\u72b6", "766": "\u60a8", "767": "\u9884\u9632", "768": "\u4e0d\u9519", "769": "\u6e56\u5317\u7701", "770": "\u9192\u6765", "771": "\u5fd8", "772": "\u4f24\u5fc3", "773": "\u949f\u5357\u5c71", "774": "\u53d8", "775": "\u8d77\u5e8a", "776": "\u611f\u52a8", "777": "\u8def\u4e0a", "778": "\u4e00\u4e2a\u6708", "779": "\u8bc4\u8bba", "780": "\u6211\u5bb6", "781": "\u54c8\u54c8\u54c8\u54c8", "782": "\u58f0\u97f3", "783": "\u5e02\u573a", "784": "\u5efa\u8bae", "785": "\u6ce8\u610f\u5b89\u5168", "786": "\u5355\u4f4d", "787": "\u8d1f\u8d23", "788": "\u5173\u4e8e", "789": "\u7231\u60c5", "790": "\u7ed3\u5a5a", "791": "\u65e9\u5b89", "792": "\u66fe\u7ecf", "793": "\u6709\u6ca1\u6709", "794": "\u96be", "795": "\u597d\u770b", "796": "\u597d\u5403", "797": "\u786e\u5b9e", "798": "\u4e00\u8fb9", "799": "\u4f20\u67d3", "800": "\u6b63", "801": "\u5fc3\u75bc", "802": "\u5173\u7cfb", "803": "\u72b6\u6001", "804": "\u5feb\u70b9", "805": "\u5b89\u5fbd", "806": "\u539f\u56e0", "807": "\u540c", "808": "\u6c14\u6b7b", "809": "\u4e13\u5bb6", "810": "\u73cd\u60dc", "811": "\u4e00\u822c", "812": "\u5fd8\u8bb0", "813": "30", "814": "\u7535\u8111", "815": "\u8fd8\u597d", "816": "\u5237", "817": "\u6297\u51fb", "818": "\u670d\u52a1", "819": "\u70e6", "820": "\u63a5\u89e6", "821": "\u91ce\u751f\u52a8\u7269", "822": "\u63d0\u9192", "823": "\u56fe", "824": "\u5ba3\u4f20", "825": "\u5e2e\u52a9", "826": "\u540d\u5b57", "827": "\u7ba1\u7406", "828": "\u6253\u5f00", "829": "\u7279", "830": "\u7ea6", "831": "\u751f\u75c5", "832": "\u53ca\u65f6", "833": "\u5bbf\u820d", "834": "\u4f01\u4e1a", "835": "\u75db\u82e6", "836": "\u6536\u5230", "837": "\u6539\u53d8", "838": "\u8981\u662f", "839": "\u540c\u4e8b", "840": "\u6cb3\u5357", "841": "\u4e0d\u77e5", "842": "\u533b\u52a1\u4eba\u5458", "843": "\u679c\u7136", "844": "\u600e\u6837", "845": "\u62b1\u62b1", "846": "\u592a\u9633", "847": "\u4ed8\u51fa", "848": "\u5934\u53d1", "849": "\u6709\u4e2a", "850": "\u6b63\u5728", "851": "\u4e13\u4e1a", "852": "\u9ed1", "853": "\u6625\u665a", "854": "\u52e4\u6d17\u624b", "855": "\u671f\u5f85", "856": "\u9519", "857": "\u4e0d\u518d", "858": "\u751f", "859": "\u627e\u5230", "860": "\u76f8\u5173", "861": "\u671f\u95f4", "862": "\u4e0b\u6765", "863": "\u7cfb\u7edf", "864": "\u56de\u53bb", "865": "\u57fa\u672c", "866": "\u5916\u9762", "867": "\u8ba4\u771f", "868": "\u8eab\u4e0a", "869": "\u5012", "870": "\u4f7f", "871": "\u5c0f\u65f6\u5019", "872": "\u7cbe\u795e", "873": "\u5356", "874": "\u54b3\u55fd", "875": "\u5148\u751f", "876": "\u4eba\u7c7b", "877": "\u7d27\u5f20", "878": "\u996d", "879": "\u56fd\u5185", "880": "\u5d29\u6e83", "881": "\u8f6c", "882": "\u540d", "883": "\u4e45", "884": "\u6ca1\u60f3\u5230", "885": "\u732b", "886": "\u5395\u6240", "887": "\u8fdb", "888": "\u9879\u76ee", "889": "\u5783\u573e", "890": "\u9192", "891": "23", "892": "\u54ea\u4e2a", "893": "\u662f\u5426", "894": "\u6280\u672f", "895": "\u545c\u545c", "896": "\u5389\u5bb3", "897": "\u81f3", "898": "\u6559\u80b2", "899": "\u4e2d\u5fc3", "900": "\u4e86\u89e3", "901": "\u4f30\u8ba1", "902": "\u884c\u4e3a", "903": "\u5b66\u4f1a", "904": "\u5c71\u4e1c", "905": "\u5931\u53bb", "906": "\u5f80", "907": "\u4e0a\u8bfe", "908": "\u8fdb\u5165", "909": "\u8054\u7cfb", "910": "\u65b9\u6cd5", "911": "\u62a5\u544a", "912": "\u5173\u6ce8", "913": "\u4e00\u7fa4", "914": "\u574f", "915": "\u70e6\u6b7b", "916": "\u6765\u8bf4", "917": "\u62e5\u6709", "918": "\u4e8b\u4ef6", "919": "\u957f\u5927", "920": "\u7206\u53d1", "921": "\u66fe", "922": "\u538b\u529b", "923": "\u77ac\u95f4", "924": "\u670b\u53cb\u5708", "925": "\u55ef", "926": "\u4e00\u573a", "927": "\u6709\u6548", "928": "\u771f\u60f3", "929": "\u62b1", "930": "\u611f\u60c5", "931": "\u5bf9\u65b9", "932": "\u6c34", "933": "\u9632\u8303", "934": "\u70e6\u8e81", "935": "\u4e09\u4e2a", "936": "\u6ca1\u4e8b", "937": "22", "938": "\u75db", "939": "\u96ea", "940": "\u7edd\u5bf9", "941": "+", "942": "\u52a0\u73ed", "943": "\u9a82\u4eba", "944": "18", "945": "\u9002\u5408", "946": "\u8bdd\u7b52", "947": "\u5973\u751f", "948": "\u63d0\u4f9b", "949": "\u534a\u591c", "950": "\u8282\u594f", "951": "\u5927\u6982", "952": "\u4eba\u4eec", "953": "\u503c\u5f97", "954": "\u53d6\u6d88", "955": "\u4e0d\u5982", "956": "\u4e0b\u73ed", "957": "\u53cd\u5e94", "958": "21", "959": "\u5206\u4eab", "960": "\u4ece\u6765", "961": "\u8eba", "962": "\u59d4\u5c48", "963": "\u62c9", "964": "\u4ed6\u4eba", "965": "\u4e00\u5f20", "966": "14", "967": "\u66f4\u65b0", "968": "\u542c\u8bf4", "969": "\u673a\u4f1a", "970": "\u65c1\u8fb9", "971": "\u8bfe", "972": "\u4f24\u5bb3", "973": "\u611f\u5230", "974": "\u884c", "975": "\u542f\u52a8", "976": "\u633a\u4f4f", "977": "\u3000", "978": "\u529e\u516c\u5ba4", "979": "\u53cc\u5341", "980": "\u4e09", "981": "\u738b\u4fca\u51ef", "982": "\u9996\u4f8b", "983": "\u68c0\u67e5", "984": "\u4e60\u60ef", "985": "\u4e0d\u505c", "986": "\u5904\u7406", "987": "\u65e5\u672c", "988": "\u9762\u524d", "989": "\u5404", "990": "\u8981\u6b7b", "991": "\u6d3b", "992": "\u7238\u5988", "993": "\u4e3a\u5565", "994": "\u534a\u4e2a", "995": "\u81ea\u7136", "996": "\u62a5\u9053", "997": "\u5934", "998": "\u56fd\u9645", "999": "\u8ba4\u4e3a", "1000": "\u5de5\u8d44", "1001": "\u6839\u636e", "1002": "\u5dee\u70b9", "1003": "\u5e7f\u5dde", "1004": "\u7ec4\u5408", "1005": "\u5730\u94c1", "1006": "\u8111\u5b50", "1007": "\u5e7f\u4e1c", "1008": "\u97e9\u56fd", "1009": "\u6b21", "1010": "\u5927\u7237", "1011": "\u4f20\u4eba", "1012": "\u6b66\u6c49\u5e02", "1013": "\u6e05\u695a", "1014": "\u778e", "1015": "\u56e0", "1016": "\u66f4\u597d", "1017": "\u4e0d\u65ad", "1018": "\u9999\u6e2f", "1019": "\u4e8e\u662f", "1020": "\u8fc7\u7a0b", "1021": "\u8bf4\u597d", "1022": "\u4e8c", "1023": "\u91cd\u70b9", "1024": "100", "1025": "\u53d8\u5f97", "1026": "\u6211\u5988", "1027": "\u5b98\u65b9", "1028": "\u8096\u6218", "1029": "\u4e00\u5806", "1030": "\u81ea", "1031": "\u9ad8\u5174", "1032": "\u597d\u4e45", "1033": "\u90e8\u5206", "1034": "\u751f\u4ea7", "1035": "\u8d39\u89e3", "1036": "\u6eda", "1037": "\u5730\u533a", "1038": "\u5404\u4f4d", "1039": "\u6bd5\u4e1a", "1040": "\u4e0b\u96ea", "1041": "\u4fdd\u6301", "1042": "\u56e0\u6b64", "1043": "\u5446", "1044": "\u54fc", "1045": "\u7834", "1046": "\u725b", "1047": "\u73b0\u5b9e", "1048": "\u7b2c", "1049": "\u610f\u8bc6", "1050": "\u6562", "1051": "\u602a", "1052": "\u534e\u6668", "1053": "\u53e6", "1054": "\u5927\u534a\u591c", "1055": "\u62d2\u7edd", "1056": "\u601d\u8003", "1057": "\u7f51\u7edc", "1058": "\u8870", "1059": "\u53d1\u70e7", "1060": "\u9c9c\u82b1", "1061": "\u5b87", "1062": "\u5bb6\u5ead", "1063": "\u4e07", "1064": "\u4e00\u8def", "1065": "\u5373\u4f7f", "1066": "\u2192", "1067": "\u521a\u624d", "1068": "\u5173\u952e", "1069": "\u90e8\u95e8", "1070": "\u8089", "1071": "\u8ba1\u5212", "1072": "\u4e00\u4f4d", "1073": "\u5ea6\u8fc7", "1074": "\u966a\u4f34", "1075": "\u786e\u5b9a", "1076": "\u4eac\u4e1c", "1077": "\u591a\u4e48", "1078": "TM", "1079": "\u666e\u901a", "1080": "\u4e01\u9999", "1081": "\u597d\u4e0d\u5bb9\u6613", "1082": "\u8001\u677f", "1083": "\u6309", "1084": "\u4ea7\u54c1", "1085": "\u552f\u4e00", "1086": "\u52a0", "1087": "\u4e00\u751f", "1088": "\u5143", "1089": "\u8282\u76ee", "1090": "\u5973\u5b69", "1091": "\u901a\u77e5", "1092": "\u529b\u91cf", "1093": "\u75be\u75c5", "1094": "\u6293", "1095": "\u5fc3\u4e2d", "1096": "\u4f4e", "1097": "\u771f\u5b9e", "1098": "\u4ee3\u8868", "1099": "\u6587\u5316", "1100": "\u5c5e\u4e8e", "1101": "\u767d\u6761", "1102": "\u4e4b\u4e00", "1103": "\u88c5", "1104": "\u67d0", "1105": "\u9633\u5149", "1106": "25", "1107": "\u53c2\u52a0", "1108": "\u5b64\u72ec", "1109": "\u5219", "1110": "\u70b8", "1111": "\u5f52\u6765", "1112": "\u7531\u4e8e", "1113": "\u5305\u62ec", "1114": "\u5b66", "1115": "\u4e00\u4f1a", "1116": "\u6709\u5173", "1117": "\u4e66", "1118": "yu", "1119": "\u79bb", "1120": "\u5bfc\u81f4", "1121": "\u5fc5\u8981", "1122": "\u963f", "1123": "\u641c", "1124": "\u4e00\u5927\u65e9", "1125": "\u7535\u89c6\u5267", "1126": "\u817f", "1127": "\u6ca1\u4ec0\u4e48", "1128": "\u4e0d\u4ec5", "1129": "\ud83d\ude4f", "1130": "\u7b97", "1131": "\u4e0d\u723d", "1132": "\u6700\u7ec8", "1133": "\u9a6c\u4e0a", "1134": "\u5e74\u8f7b", "1135": "\u5e73\u65f6", "1136": "\u90a3\u91cc", "1137": "\u518d\u6b21", "1138": "\u7b2c\u4e00\u7ebf", "1139": "\u505a\u5230", "1140": "\u522b\u7684", "1141": "\u800c\u5df2", "1142": "\u4e0d\u7136", "1143": "\u6d17", "1144": "\u4e8b\u513f", "1145": "\u5b89\u6170", "1146": "\u4e00\u4efd", "1147": "\u6e38\u620f", "1148": "\u5e26\u6765", "1149": "\u95e8", "1150": "\u56de\u590d", "1151": "\u53cd\u6b63", "1152": "\u4f9d\u7136", "1153": "\u56fe\u7247", "1154": "\u9047\u89c1", "1155": "\u4e00\u8f88\u5b50", "1156": "\u65e9\u70b9", "1157": "\u98de\u673a", "1158": "\u660e\u663e", "1159": "\u5f53\u5e74", "1160": "\u5c24\u5176", "1161": "\u813e\u6c14", "1162": "\u60f3\u8c61", "1163": "\u533a", "1164": "\u80d6", "1165": "\u89e3\u51b3", "1166": "\u5185\u5bb9", "1167": "\u65f6\u4ee3", "1168": "\u79d2", "1169": "\u5173\u5fc3", "1170": "\u9ebb\u75f9", "1171": "\u6bd5\u7adf", "1172": "\u4f3c\u7684", "1173": "\u516c\u4ea4", "1174": "\u5a92\u4f53", "1175": "13", "1176": "\u7701", "1177": "\u70ca", "1178": "\u5979\u4eec", "1179": "\u6700\u65b0", "1180": "\u563b\u563b", "1181": "\u81f3\u5c11", "1182": "\u7f8e\u4e3d", "1183": "\u91cd\u65b0", "1184": "\u610f\u601d", "1185": "\u540e\u9762", "1186": "\u809a\u5b50", "1187": "\u770b\u6765", "1188": "\u8868\u73b0", "1189": "\u5c11\u5973", "1190": "\u8d31", "1191": "\u8fdc", "1192": "......", "1193": "\u65c5\u6e38", "1194": "doge", "1195": "\u4e00\u770b", "1196": "\u6218\u6218\u5162\u5162", "1197": "\u603b\u6709", "1198": "\u6709\u79cd", "1199": "\u5e76\u4e14", "1200": "\u4f4d\u7f6e", "1201": "\u7ffb", "1202": "\u64cd", "1203": "\u5168", "1204": "\u5f00\u8f66", "1205": "\u5404\u5730", "1206": "\u5065\u5065\u5eb7\u5eb7", "1207": "\u95f9", "1208": "\u53f8\u673a", "1209": "\u68a6\u60f3", "1210": "....", "1211": "\u8bb8\u591a", "1212": "\u7c73", "1213": "\u8003\u8651", "1214": "\u79d1\u5b66", "1215": "\u73b0\u573a", "1216": "\u4fbf", "1217": "\u89e3\u91ca", "1218": "\u53d7", "1219": "\u975e", "1220": "\u5988\u86cb", "1221": "\u79f0", "1222": "\u558a", "1223": "\u6d88\u5931", "1224": "\u4e00\u540d", "1225": "\u672a", "1226": "\u73af\u5883", "1227": "'", "1228": "\u89c1\u5230", "1229": "\u4fe9", "1230": "\u540e\u6094", "1231": "\u603b\u4f1a", "1232": "\u5931\u8d25", "1233": "\u5371\u9669", "1234": "\u60f3\u7740", "1235": "\u6548\u679c", "1236": "\u4e9b", "1237": "\u5386\u53f2", "1238": "\u5f85", "1239": "\u5e8a\u4e0a", "1240": "\u66f4\u52a0", "1241": "\u8bbe\u8ba1", "1242": "\u5343\u4e07", "1243": "\u5de6\u53f3", "1244": "\u5b9e\u73b0", "1245": "\u5973\u513f", "1246": "16", "1247": "\u63d0\u524d", "1248": "\u5077", "1249": "\u767d\u8863\u5929\u4f7f", "1250": "\u68a6\u89c1", "1251": "|", "1252": "\u6210\u957f", "1253": "\u4e00\u904d", "1254": "\u96e8", "1255": "\u5145\u6ee1", "1256": "\u5fcd\u4e0d\u4f4f", "1257": "\u5fcd", "1258": "\u5f88\u5927", "1259": "\u7ecf\u5e38", "1260": "\u8349\u6ce5\u9a6c", "1261": "\u67d0\u4e9b", "1262": "\u5916\u51fa", "1263": "\u9655\u897f", "1264": "\u5b83\u4eec", "1265": "\u5747", "1266": "\u60f3\u6cd5", "1267": "\u8001\u5a18", "1268": "\ud83d\ude21", "1269": "\u8d44\u6e90", "1270": "\u6216\u8bb8", "1271": "\u7279\u6b8a", "1272": "\u6000\u7591", "1273": "\u6613", "1274": "\u9662\u58eb", "1275": "\u4f20\u67d3\u75c5", "1276": "\u7b97\u4e86", "1277": "\u73ed", "1278": "\u5fc3\u7406", "1279": "\u62a5", "1280": "\u53d7\u4e0d\u4e86", "1281": "\u5373", "1282": "\u65e0\u804a", "1283": "\u8001\u5a46", "1284": "\u6293\u72c2", "1285": "\u610f\u4e49", "1286": "\u8fd1", "1287": "\u7ecf\u6d4e", "1288": "\u300e", "1289": "\u54d4", "1290": "\u5730\u56fe", "1291": "\u63a5", "1292": "\u591a\u5e74", "1293": "\u753b", "1294": "\u7279\u4e48", "1295": "\u54ea\u6015", "1296": "\u5e78\u8fd0", "1297": "\u5168\u4e16\u754c", "1298": "\u5c0f\u4f19\u4f34", "1299": "\u5976\u5976", "1300": "\u9ebb\u70e6", "1301": "\u4eba\u7fa4", "1302": "\u300f", "1303": "\u536b\u751f", "1304": "\u8bb0\u8005", "1305": "\u53bb\u5e74", "1306": "\u56de\u5fc6", "1307": "\u78b0\u5230", "1308": "\u4f5c\u7528", "1309": "\u597d\u5f00\u5fc3", "1310": "\u5634", "1311": "\u51cf\u5c11", "1312": "\u6e23", "1313": "\u65e9\u6668", "1314": "\u59d1\u5a18", "1315": "\u7a7a\u95f4", "1316": "\u91cd\u5e86", "1317": "\u5f20", "1318": "\u5c3d\u91cf", "1319": "\u8e22", "1320": "\u5c0f\u5b69", "1321": "\u6c5f\u82cf", "1322": "\u5168\u662f", "1323": "\u8df3", "1324": "\u81ed", "1325": "\u5f53\u521d", "1326": "\u5b8c\u7f8e", "1327": "\u4eb2\u7231", "1328": "\u5b89\u6392", "1329": "\u5e02\u6c11", "1330": "\u6bd4\u8d5b", "1331": "\u5c4e", "1332": "\u53e3", "1333": "\u7a7a\u6c14\u8d28\u91cf", "1334": "\u8fde\u7eed", "1335": "\u60f9", "1336": "\u7ecf\u8fc7", "1337": "\u64e6", "1338": "40", "1339": "\u5f7b\u5e95", "1340": "\u4e0d\u6015", "1341": "\u7d20\u8d28", "1342": "\u5efa\u8bbe", "1343": "\u54c7", "1344": "\u9ed8\u9ed8", "1345": "\u5757", "1346": "\u83ab\u540d", "1347": "\u88c1\u5224", "1348": "\u6559\u6388", "1349": "\u901f\u5ea6", "1350": "\u8ddf\u7740", "1351": "\u8fdb\u53bb", "1352": "\u534a\u5929", "1353": "\u62dc\u6258", "1354": "\u5b9e\u65f6", "1355": "\u65e0\u8bba", "1356": "\u597d\u6d88\u606f", "1357": "\u6539", "1358": "\u505c", "1359": "\u4e0d\u89c1", "1360": "\u6709\u65f6", "1361": "\u7537\u670b\u53cb", "1362": "\u505a\u68a6", "1363": "\u6240\u8c13", "1364": "\u661f\u671f", "1365": "\u5750\u5728", "1366": "\u5168\u7403", "1367": "\u6ca1\u7528", "1368": "\u5229\u7528", "1369": "\u589e\u52a0", "1370": "\u51cc\u6668", "1371": "\u9053", "1372": "\u6d59\u6c5f", "1373": "\u5230\u5904", "1374": "\u7591\u4f3c", "1375": "\u4f17\u5fd7\u6210\u57ce", "1376": "\u82f1\u8bed", "1377": "\u4ee5\u4e0a", "1378": "\u5f15\u8d77", "1379": "\u4e14", "1380": "\u665a", "1381": "\u7f8e", "1382": "\u673a\u573a", "1383": "\u53cc", "1384": "\u8ffd", "1385": "\u786e\u8ba4", "1386": "\u907f\u514d", "1387": "\u536b\u5065\u59d4", "1388": "2015", "1389": "\u8d85", "1390": "\u611f\u6069", "1391": "\u706b", "1392": "\u5236\u9020", "1393": "\u7626", "1394": "\u5904", "1395": "\u5177\u6709", "1396": "\u4fc4\u7f57\u65af", "1397": "\u804a\u5929", "1398": "\u6c42\u6c42", "1399": "\u7b49\u5f85", "1400": "\u65f6\u5149", "1401": "\u7b2c\u4e00\u4e2a", "1402": "\u963f\u59e8", "1403": "\u5e02", "1404": "\u8721\u70db", "1405": "\u71ac\u591c", "1406": "\u4ea7\u751f", "1407": "\u8bb0\u4f4f", "1408": "\u5947\u602a", "1409": "\u4e00\u9897", "1410": "\u4e71", "1411": "\u65f6\u671f", "1412": "\u793c\u7269", "1413": "\u6001\u5ea6", "1414": "\u5154\u5b50", "1415": ";", "1416": "\u51ed", "1417": "\u53d8\u5316", "1418": "\u5e94", "1419": "\u65f6\u523b", "1420": "\u4e00\u6b65", "1421": "\u670d", "1422": "\u5ba2\u6237", "1423": "\u540c\u6837", "1424": "19", "1425": "\u4f69\u5170", "1426": "\u6c57", "1427": "\u97f3\u4e50", "1428": "\u5c0f\u533a", "1429": "\u7b49\u5230", "1430": "\u6302", "1431": "\u4e00\u90e8", "1432": "\u5343\u73ba", "1433": "\u7206", "1434": "\u6298\u78e8", "1435": "\u8fbe\u5230", "1436": "\u7ea0\u7ed3", "1437": "\u7838", "1438": "\u6211\u7231\u4f60", "1439": "\u6bdb", "1440": "\u5947\u8469", "1441": "\u9020\u6210", "1442": "\u9ebb\u9ebb", "1443": "\u5168\u5bb6", "1444": "\u901a\u62a5", "1445": "1000", "1446": "\u9020\u8c23", "1447": "\u653e\u5728", "1448": "\u811a", "1449": "\u575a\u5f3a", "1450": "\u5012\u9709", "1451": "\u63d0\u9ad8", "1452": "\u54af", "1453": "\u4e0b\u6b21", "1454": "\u5269\u4e0b", "1455": "\u6254", "1456": "\u55e8", "1457": "\u6454", "1458": "\u81ea\u7531", "1459": "\u623f\u95f4", "1460": "\u4e56\u4e56", "1461": "A", "1462": "\u7f51\u53cb", "1463": "\u75c5\u60c5", "1464": "\u53d6\u73b0", "1465": "\u592e\u89c6", "1466": "..", "1467": "\u4e3b\u52a8", "1468": "\u4f3c\u4e4e", "1469": "\u53ea\u60f3", "1470": "\u5473\u9053", "1471": "\u6b63\u786e", "1472": "\u614c", "1473": "\u6655", "1474": "\u611f", "1475": "\u795e\u7ecf\u75c5", "1476": "\u738b", "1477": "\u79ef\u6781", "1478": "\u68d2", "1479": "\u89c4\u5b9a", "1480": "\u6211\u7238", "1481": "\u732a", "1482": "\u7948\u7977", "1483": "\u8f83", "1484": "\u6d88\u6bd2", "1485": "\u5e74\u9f84", "1486": "\u5168\u6587", "1487": "\u6fc0\u52a8", "1488": "\u5357\u65b9", "1489": "\u5982\u4eca", "1490": "\u65e2\u7136", "1491": "\u505a\u51fa", "1492": "\u5582", "1493": "\u6df1\u591c", "1494": "\u767d", "1495": "50", "1496": "\u6e29\u67d4", "1497": "\u884c\u52a8", "1498": "\u6f02\u4eae", "1499": "\u53e6\u5916", "1500": "\u51e0\u5e74", "1501": "\u80cc", "1502": "\u5bb6\u957f", "1503": "\u5403\u60ca", "1504": "\u4e0d\u53bb", "1505": "\u4e0d\u8981\u8138", "1506": "\u53d7\u5230", "1507": "\u6df1\u5733", "1508": "\u5de5\u4f5c\u4eba\u5458", "1509": "\u7a7a\u6c14", "1510": "\u7528\u6237", "1511": "\u7ecf\u9a8c", "1512": "\u533b\u7528", "1513": "\u7d2f\u8ba1", "1514": "\u65b0\u51a0", "1515": "\u8138\u4e0a", "1516": "\u6027", "1517": "\u5ba4\u53cb", "1518": "\u6696", "1519": "\u7ecf", "1520": "\u5c0a\u91cd", "1521": "\u89c9", "1522": "\u9752\u6625", "1523": "\u7591\u95ee", "1524": "\u4e2d\u592e", "1525": "\u77ed\u4fe1", "1526": "\u5b89\u9759", "1527": "\u65b9\u9762", "1528": "\u8bba\u6587", "1529": "\u9694\u58c1", "1530": "\u663e\u793a", "1531": "\u597d\u70e6", "1532": "\u8bb0\u5f55", "1533": "\u4e2d\u95f4", "1534": "\u7406\u7531", "1535": "\u547d", "1536": "\u5514", "1537": "\u5751", "1538": "\u6a21\u5f0f", "1539": "\u77e5\u8bc6", "1540": "\u4e00\u5468", "1541": "\u5435", "1542": "\u600e\u4e48\u6837", "1543": "*", "1544": "\u6295\u7968", "1545": "\u8759\u8760", "1546": "\u4e24", "1547": "\u4eca\u65e5", "1548": "\u5f3a", "1549": "\u6d41\u91cf", "1550": "\u5ea6", "1551": "\u526f", "1552": "\u4f5c", "1553": "\u514d\u8d39", "1554": "\u52b3\u8d44", "1555": "\u8bb0\u5fc6", "1556": "\u83ab\u540d\u5176\u5999", "1557": "\u83dc", "1558": "\u51e0\u4e4e", "1559": "\u8ddd\u79bb", "1560": "\u53c2\u4e0e", "1561": "\u61c2\u5f97", "1562": "\u51b2", "1563": "\u6ca1\u6cd5", "1564": "\u6536\u62fe", "1565": "\u4e11", "1566": "\u5bdd\u5ba4", "1567": "\u56db\u4e2a", "1568": "\u52a0\u5165", "1569": "\u5efa\u7acb", "1570": "\u76f4\u64ad", "1571": "\u65e9\u9910", "1572": "\u513f", "1573": "\u4ecd", "1574": "\u6050\u6016\u7247", "1575": "\u82e5", "1576": "\u4ef7\u683c", "1577": "\u5584\u826f", "1578": "\u7537\u751f", "1579": "\u8d34", "1580": "\u793e\u533a", "1581": "\u9f3b", "1582": "\u68d2\u68d2", "1583": "\u5361", "1584": "\u795e\u5947", "1585": "\u5168\u8eab", "1586": "\u76ee\u6807", "1587": "\u513f\u7ae5", "1588": "\u56f0\u96be", "1589": "\u968f\u4fbf", "1590": "\u8d1f", "1591": "\u82f1\u56fd", "1592": "\u987a\u5229", "1593": "\u524d\u9762", "1594": "\u50cf\u662f", "1595": "\u6d17\u6fa1", "1596": "\u53d1\u51fa", "1597": "\u62bd", "1598": "\u4e00\u628a", "1599": "\u6ef4", "1600": "\u9000", "1601": "\u4f18\u79c0", "1602": "\u767d\u5929", "1603": "\u53ef\u60dc", "1604": "\u5929\u6d25", "1605": "\u649e", "1606": "\u62a2", "1607": "\u4e0d\u53ef", "1608": "\u4ecb\u7ecd", "1609": "\u4f4d\u4e8e", "1610": "\u7167", "1611": "\u8001\u4eba", "1612": "\u4e00\u7247", "1613": "\u52a8", "1614": "\u6d77\u5357", "1615": "\u52a8\u6001", "1616": "\u56db\u5e74", "1617": "\u6210\u7acb", "1618": "\u54ac", "1619": "\u5c81\u6708", "1620": "\u5e2e\u5fd9", "1621": "\u4e5f\u597d", "1622": "\u5f3a\u5927", "1623": "\u8fbe", "1624": "\u8001\u5988", "1625": "\u7ea2", "1626": "\u5e73\u53f0", "1627": "\u4fdd\u8bc1", "1628": "\u65e9\u65e5", "1629": "\u653f\u7b56", "1630": "\u6551\u6cbb", "1631": "\u5f7c\u6b64", "1632": "\u6ca1\u89c1", "1633": "\u6d3b\u7740", "1634": "\u4e3b\u4efb", "1635": "\u5fc3\u6709\u4f59\u60b8", "1636": "\u5927\u90e8\u5206", "1637": "\u8868\u8fbe", "1638": "\u65b9\u5411", "1639": "\u6b3a\u8d1f", "1640": "\u529f\u80fd", "1641": "\u65e9\u8d77", "1642": "\u4fe1\u4efb", "1643": "\u56f0", "1644": "\u7206\u70b8", "1645": "\u5173", "1646": "\u8c08", "1647": "\u59b9\u59b9", "1648": "\u56fe\u4e66\u9986", "1649": "\u4f9d\u65e7", "1650": "\u6bcf\u5e74", "1651": "\u90e8", "1652": "\u5171\u540c", "1653": "\u6ee1\u8db3", "1654": "\u5341\u5206", "1655": "\u9519\u8fc7", "1656": "\u6298\u817e", "1657": "\u6b4c", "1658": "\u9e21", "1659": "\u594b\u6597", "1660": "\u4e0d\u5f97", "1661": "\u4e24\u6b21", "1662": "\u7535\u89c6", "1663": "\u60f3\u5ff5", "1664": "\u4e0a\u5348", "1665": "\u51cf\u80a5", "1666": "\u6570\u5b57", "1667": "\u5468", "1668": "\u516c\u91cc", "1669": "\u8c22\u8c22\u4f60\u4eec", "1670": "\u6073\u8bf7", "1671": "\u8bc1\u660e", "1672": "\u7559\u4e0b", "1673": "\u4e0d\u5c11", "1674": "\ud83d\udcaa", "1675": "\u65e0\u8bed", "1676": "\u5fc3\u6001", "1677": "\u5f53\u7136", "1678": "\u7f51\u4e0a", "1679": "\u5916", "1680": "\u4e00\u534a", "1681": "\u706b\u8f66", "1682": "\u6218\u80dc", "1683": "\u5fc3\u597d", "1684": "\u9ad8\u901f", "1685": "\u5835", "1686": "\u89c2\u5bdf", "1687": "\u6218\u4e89", "1688": "\u6c34\u5e73", "1689": "\u6d41\u611f", "1690": "\u300d", "1691": "\u4e0a\u6b21", "1692": "\u4ef6", "1693": "\u8d85\u8fc7", "1694": "\u868a\u5b50", "1695": "\u6211\u80fd", "1696": "\u98de", "1697": "\u9a97", "1698": "\u6ca1\u4eba", "1699": "\u8981\u4e48", "1700": "\u6210\u719f", "1701": "\u4e00\u6bb5", "1702": "\u6027\u683c", "1703": "\u5973\u6027", "1704": "\u9152\u7cbe", "1705": "\u7528\u4e8e", "1706": "\u660e\u661f", "1707": "\u8c23\u8a00", "1708": "\u4e00\u6025", "1709": "\u4eba\u5fc3", "1710": "\u56de\u5934", "1711": "\u6574\u5929", "1712": "\u518d\u89c1", "1713": "\u8eb2", "1714": "\u7ed3\u5c40", "1715": "\u8003", "1716": "\u52c7\u6562", "1717": "0", "1718": "\u5bb3", "1719": "\u52a8\u7269", "1720": "\u63a8\u8350", "1721": "\u4e00\u58f0", "1722": "\u623f\u5b50", "1723": "\u2019", "1724": "\u4e2d\u5b66", "1725": "\u4e00\u5bb6", "1726": "\u6cd5\u5f8b", "1727": "\u22ef", "1728": "\u6316", "1729": "\u65e2", "1730": "\u7f8e\u7f8e", "1731": "\u64cd\u4f5c", "1732": "\u4eba\u6027", "1733": "\u795e", "1734": "\u53d8\u6001", "1735": "\u5662", "1736": "\u90a3\u5929", "1737": "\u7237\u7237", "1738": "\u5360", "1739": "\u8bfb\u4e66", "1740": "\u591a\u4eba", "1741": "\u5b9d", "1742": "\u5305", "1743": "\u7b97\u662f", "1744": "\u5bf9\u8c61", "1745": "\u591a\u4e45", "1746": "\u7fa1\u6155", "1747": "\u5b89\u5fc3", "1748": "\u770b\u8fc7", "1749": "TMD", "1750": "\u636e\u8bf4", "1751": "\u4eab\u53d7", "1752": "\u4e00\u676f", "1753": "\u67d0\u4eba", "1754": "\u4e00\u70b9\u70b9", "1755": "\u8d23\u4efb", "1756": "\u6dd8\u5b9d", "1757": "\u95e8\u53e3", "1758": "\u4e09\u5929", "1759": "\u62d6", "1760": "\u5450", "1761": "\u6324", "1762": "\u80cc\u540e", "1763": "\u82e6", "1764": "\u6350\u6b3e", "1765": "\u6cb3\u5317", "1766": "\u62dc\u5e74", "1767": "\u539f\u8c05", "1768": "\u975e\u8981", "1769": "\u897f", "1770": "\u8d31\u4eba", "1771": "\u6761\u4ef6", "1772": "\u75af\u72c2", "1773": "\u505a\u4e8b", "1774": "\u65c5\u884c", "1775": "\u5e7f\u544a", "1776": "=", "1777": "\u6682\u65f6", "1778": "\u611f\u67d3\u8005", "1779": "\u5f62\u6210", "1780": "\u70e6\u607c", "1781": "\u6210\u90fd", "1782": "\u5317\u65b9", "1783": "\u8fa3", "1784": "\u51fa\u884c", "1785": "\u6559\u5ba4", "1786": "\u7c89", "1787": "\u4eba\u53e3", "1788": "\u60ca\u5446", "1789": "\u95f4", "1790": "\u52a0\u5f3a", "1791": "\u4efb\u52a1", "1792": "\u9762", "1793": "\u6740", "1794": "\u4e1c", "1795": "\u9ed1\u6697", "1796": "\u519c\u6751", "1797": "\u836f", "1798": "\u7ba1", "1799": "\u5c1d\u8bd5", "1800": "\u4e0d\u5403", "1801": "\u6b64\u523b", "1802": "\u56ed", "1803": "\u5047", "1804": "tm", "1805": "\u5e97", "1806": "\u7231\u5fc3", "1807": "\u54c8", "1808": "\u767e\u5ea6", "1809": "\u51f8\u51f8", "1810": "\u65b0\u5e74", "1811": "\u68a6\u91cc", "1812": "\u516c\u4f17", "1813": "\u754f\u60e7", "1814": "\ud83d\ude14", "1815": "\u6b64", "1816": "\u2764", "1817": "\u5468\u4e8c", "1818": "\u4ee5\u4e0b", "1819": "\u8fb9", "1820": "\u68a6\u5230", "1821": "\u4fdd\u969c", "1822": "\u4e3a\u4f55", "1823": "\u524d\u884c", "1824": "\u8fd8\u4f1a", "1825": "\u8868\u60c5", "1826": "\u4f53\u4f1a", "1827": "\u8001\u662f", "1828": "\u5206\u6790", "1829": "\u53d7\u4f24", "1830": "\u4e0b\u96e8\u5929", "1831": "\u4e0d\u5fc5", "1832": "\u7edd\u671b", "1833": "\u50ac", "1834": "\u8d28\u91cf", "1835": "\u4fe1\u7528\u5361", "1836": "\u6d6a\u8d39", "1837": "\u5988\u5440", "1838": "\u6807\u51c6", "1839": "\u674e\u6613\u5cf0", "1840": "\u5408\u4f5c", "1841": "\u4e8b\u5b9e", "1842": "\u5dee\u4e0d\u591a", "1843": "\u4ee5\u6765", "1844": "\u4e0d\u8be5", "1845": "\u4e0a\u9762", "1846": "\u7537\u795e", "1847": "\u6162", "1848": "\u6bd4\u5982", "1849": "\u6ee1\u6ee1\u7684", "1850": "\u8bf4\u660e", "1851": "\u91cd\u5927", "1852": "\u79d1\u666e", "1853": "\u7740\u6025", "1854": "\u53ea\u4f1a", "1855": "\u5144\u5f1f", "1856": "\u59cb\u7ec8", "1857": "\u7ebf", "1858": "\u59b9\u5b50", "1859": "\u716e", "1860": "\u5435\u67b6", "1861": "\u65e0\u5948", "1862": "B", "1863": "\u594b\u6218", "1864": "\u7f51", "1865": "\u9876", "1866": "\u4e0d\u5f97\u4e0d", "1867": "\u7a0b\u5ea6", "1868": "\u5ba3\u5e03", "1869": "\u57f9\u8bad", "1870": "\ud83d\udc36", "1871": "\u516c\u5f00", "1872": "\u53cd\u800c", "1873": "\u5468\u56f4", "1874": "\u636e", "1875": "\u6587\u7ae0", "1876": "\u9707\u60ca", "1877": "\u70c2", "1878": "\u82f9\u679c", "1879": "\u5927\u53d4", "1880": "\u541b", "1881": "\u4e00\u4e2a\u4e2a", "1882": "\u9152", "1883": "\u9ad8\u4e2d", "1884": "\u5c01", "1885": "\u571f", "1886": "\u7fa4\u4f17", "1887": "\u5f53\u5730", "1888": "\u4e3e\u529e", "1889": "\u8fd0\u6c14", "1890": "\u697c\u4e0b", "1891": "\u613f\u671b", "1892": "\u79cd", "1893": "\u5bc6\u96c6", "1894": "\u5fc3\u9178", "1895": "\u8111\u888b", "1896": "\u8db3\u591f", "1897": "\u529d", "1898": "\u81ea\u79c1", "1899": "\u6309\u7167", "1900": "\u5458\u5de5", "1901": "\u65e9\u5c31", "1902": "\u4eb2\u621a", "1903": "\u820d\u4e0d\u5f97", "1904": "\u9644\u8fd1", "1905": "\u5e74\u7eaa", "1906": "\u7c89\u4e1d", "1907": "\u9e2d", "1908": "\u8fc7\u5f97", "1909": "\u7528\u6765", "1910": "\u6068", "1911": "\u5e74\u524d", "1912": "\u805a\u96c6", "1913": "\u5c31\u533b", "1914": "\u592a\u591a", "1915": "\u8d75\u4e3d\u9896", "1916": "\u8fdc\u79bb", "1917": "\u5435\u9192", "1918": "\u9632\u6cbb", "1919": "\u76f4\u5230", "1920": "\u6536", "1921": "\u4f5c\u54c1", "1922": "\u5531", "1923": "\u5934\u75bc", "1924": "\u5496\u5561", "1925": "\u4e0d\u6b62", "1926": "\u5e74\u8f7b\u4eba", "1927": "\u9c7c", "1928": "\u8bc5\u5492", "1929": "\u516c\u4ea4\u8f66", "1930": "\u91c7\u7528", "1931": "\u699c", "1932": "\u6307\u6570", "1933": "\u9e21\u86cb", "1934": "\u6495", "1935": "\u798f\u5efa", "1936": "\u56de\u7b54", "1937": "\u526a", "1938": "\u300c", "1939": "\u5ffd\u7136", "1940": "\u86ee", "1941": "\u7238", "1942": "500", "1943": "\u5c31\u8bca", "1944": "\u4eba\u6c11\u65e5\u62a5", "1945": "90", "1946": "\u5b50", "1947": "\u5feb\u8981", "1948": "\u5ba2\u670d", "1949": "\u5927\u4eba", "1950": "\u7adf", "1951": "\u6b20", "1952": "\u770b\u4e0d\u5230", "1953": "\u7b49\u7b49", "1954": "\u5a46\u5a46", "1955": "\u5f88\u5feb", "1956": "\u6062\u590d", "1957": "\u547c\u5438", "1958": "\u62a4\u58eb", "1959": "\u4e00\u5757", "1960": "\u5220", "1961": "\u94f6\u884c", "1962": "\u4eba\u6570", "1963": "\u516c\u76ca", "1964": "\u68c0\u6d4b", "1965": "\u6234\u597d", "1966": "\u8bbe\u5907", "1967": "\u8fd0\u52a8", "1968": "\u539f\u672c", "1969": "\u6751", "1970": "\u4e00\u773c", "1971": "\u57fa\u7840", "1972": "\u72af", "1973": "\u5730\u4e0a", "1974": "\u601d\u60f3", "1975": "\u719f\u6089", "1976": "\u81ea\u4ece", "1977": "\u4f1e", "1978": "\u8036", "1979": "\u81ea\u52a8", "1980": "\u6124\u6012", "1981": "\u529b", "1982": "\u53bf", "1983": "\u7092", "1984": "\u5c3d", "1985": "\u95e8\u8bca", "1986": "\u4f60\u597d", "1987": "\u5c3d\u5feb", "1988": "\u8d5a", "1989": "\u8054\u76df", "1990": "\u52c7\u6c14", "1991": "\u4fe1", "1992": "\u5929\u4f51", "1993": "\u4f60\u5bb6", "1994": "\u65b0\u5e74\u5feb\u4e50", "1995": "\u7792\u62a5", "1996": "\u5bc6\u5207\u63a5\u89e6", "1997": "\u65a4", "1998": "\u559d\u9152", "1999": "\u4e00\u8eab", "2000": "\u60ca\u8bb6", "2001": "\u7968", "2002": "\u4e00\u5927", "2003": "\u5c71\u897f", "2004": "\u71ac", "2005": "\u534a", "2006": "\u6750\u6599", "2007": "\u4e00\u65e6", "2008": "\u653e\u4e0b", "2009": "\u8fd9\u4f4d", "2010": "\u65e0\u529b", "2011": "\u968f\u7740", "2012": "\u7ecf\u8425", "2013": "\u6765\u770b", "2014": "\u4efb\u6027", "2015": "\u4eca\u65e9", "2016": "\u8349", "2017": "\u7acb\u9a6c", "2018": "\u4e00\u4f1a\u513f", "2019": "\u8f9f\u8c23", "2020": "N95", "2021": "\u516c\u5171\u536b\u751f", "2022": "\u7591\u4f3c\u75c5\u4f8b", "2023": "\u54df", "2024": "\u4e92\u76f8", "2025": "\u8c03\u67e5", "2026": "\u4e24\u5e74", "2027": "\u751c", "2028": "\u88ab\u5b50", "2029": "\u98ce\u9669", "2030": "\u6548\u7387", "2031": ".....", "2032": "\u4f24", "2033": "\u52a0\u4e0a", "2034": "\u62cd\u7167", "2035": "\u770b\u8d77\u6765", "2036": "\u4e00\u5230", "2037": "\u627f\u53d7", "2038": "\u8bdd\u9898", "2039": "\u79fb\u52a8", "2040": "\u5dee\u8bc4", "2041": "\u6740\u4eba", "2042": "\u9152\u5e97", "2043": "\u989c\u8272", "2044": "\u5c0f\u670b\u53cb", "2045": "\u516c\u5e03", "2046": "\u53f0", "2047": "\u9762\u79ef", "2048": "\u6e05\u6670", "2049": "\u8c03\u6574", "2050": "\u98df\u7269", "2051": "\u5fae", "2052": "\u676d\u5dde", "2053": "\u6c11\u4f17", "2054": "\u7559", "2055": "\u4e70\u4e2a", "2056": "\u4e2d\u533b", "2057": "\u6536\u6cbb", "2058": "\u59bb\u5b50", "2059": "\u5e74\u4ee3", "2060": "\u4e00\u987f", "2061": "\u7ea7", "2062": "\u4eb2", "2063": "\u4e09\u5e74", "2064": "\u4fdd\u4f51", "2065": "\u5f0f", "2066": "\u8c31", "2067": "\u62c5\u60ca\u53d7\u6015", "2068": "\u7a81\u53d1", "2069": "\u6700\u9ad8", "2070": "\u8bf7\u95ee", "2071": "\u671b", "2072": "\u5f00\u4f1a", "2073": "\u914d\u5408", "2074": "\u591a\u6b21", "2075": "\u6307", "2076": "\u8e29", "2077": "\u672c\u4e8b", "2078": "\u7a7a\u8c03", "2079": "\u5241", "2080": "\u5bb3\u7f9e", "2081": "\u653e\u5fc3", "2082": "\u6301\u7eed", "2083": "\u5373\u53ef", "2084": "\u6d6a\u522b", "2085": "\u4eff\u4f5b", "2086": "\u529e", "2087": "\u5e7f\u897f", "2088": "\u7cdf\u7cd5", "2089": "\u5374\u662f", "2090": "\u53d1\u8868", "2091": "\u8d70\u8def", "2092": "\u590d\u6742", "2093": "\u5fb7\u56fd", "2094": "\u51b2\u52a8", "2095": "\u91cd\u75c7", "2096": "\u6e05\u9192", "2097": "\u9547", "2098": "\u8303\u56f4", "2099": "\u59b9", "2100": "\u73b0\u8c61", "2101": "\u820d\u53cb", "2102": "\u4eba\u624d", "2103": "C", "2104": "\u63a5\u7740", "2105": "\u653e\u5165", "2106": "\u6e29\u5ea6", "2107": "\u6beb\u65e0", "2108": "\u81ea\u89c9", "2109": "\ud83d\udd25", "2110": "\u770b\u4e66", "2111": "\u4e0a\u5b66", "2112": "\u517b", "2113": "\u5224\u65ad", "2114": "\u66f4\u662f", "2115": "\u70b9\u8d5e", "2116": "\u5e94\u6025", "2117": "\u51e0\u6b21", "2118": "\u8fd9\u4e48\u4e45", "2119": "\u86cb\u7cd5", "2120": "\u4ecd\u7136", "2121": "\u53f0\u6e7e", "2122": "\u8d85\u5e02", "2123": "\u6765\u6e90", "2124": "\u771f\u4ed6\u5988", "2125": "\u8fd9\u8f88\u5b50", "2126": "\u6559\u7ec3", "2127": "\u88ab\u7a9d", "2128": "\u5973\u5b50", "2129": "\u5b66\u9662", "2130": "\u5624", "2131": "\u4eba\u7269", "2132": "\u6768\u6d0b", "2133": "\u653e\u5047", "2134": "\u4ec0\u4e48\u6837", "2135": "\u5141\u8bb8", "2136": "\u56db\u5ddd", "2137": "\u500d", "2138": "\u9006", "2139": "\u9f13\u638c", "2140": "\u739b\u5c3c", "2141": "\u751f\u7269", "2142": "\u7b54\u6848", "2143": "\u91cd", "2144": "\u6709\u610f\u601d", "2145": "\u6652", "2146": "\u6ca1\u9519", "2147": "\u7f51\u7ad9", "2148": "\u5bf9\u9762", "2149": "\u8d62", "2150": "\u8eab\u4f53\u5065\u5eb7", "2151": "\u6709\u75c5", "2152": "\u5468\u672b", "2153": "\u773c\u795e", "2154": "\u722c", "2155": "\u5b9e\u9a8c", "2156": "\u672a\u77e5", "2157": "\u697c\u4e0a", "2158": "\u5c0f\u5b66", "2159": "\u627e\u4e2a", "2160": "\u81ea\u4fe1", "2161": "\u6295\u8d44", "2162": "\u4e00\u7897", "2163": "\u8e6d", "2164": "\u8fdf\u5230", "2165": "\u6765\u5230", "2166": "\u7b2c\u4e00\u540d", "2167": "\u9605\u8bfb", "2168": "\u6b64\u6b21", "2169": "zf", "2170": "\u4efb", "2171": "\u6587\u5b57", "2172": "\u5927\u54e5", "2173": "\u8fd9\u624d", "2174": "\u573a\u666f", "2175": "\u6109\u5feb", "2176": "\u70e6\u70e6", "2177": "\u52a8\u529b", "2178": "\u7ed3\u6784", "2179": "\u90c1\u95f7", "2180": "\u547c\u5401", "2181": "\u4ee4\u4eba", "2182": "\u805a\u4f1a", "2183": "\u8f6f\u4ef6", "2184": "\u8ba8\u8bba", "2185": "\u9519\u8bef", "2186": "\u5355\u8eab", "2187": "\u8bed", "2188": "\u2018", "2189": "\u6700\u521d", "2190": "\u63a8", "2191": "\u667a\u5546", "2192": "\u6284", "2193": "\u62b1\u6028", "2194": "\u5177\u4f53", "2195": "\u5076\u5c14", "2196": "\u5954", "2197": "\u7761\u7720", "2198": "\u5c0f\u8bf4", "2199": "\u8001\u7238", "2200": "\u8865", "2201": "\u5f1f\u5f1f", "2202": "\u6e56\u5357", "2203": "\u5575", "2204": "\u5168\u9762", "2205": "\u6536\u83b7", "2206": "\u957f\u8f88", "2207": "\u6545\u610f", "2208": "\u57f9\u517b", "2209": "\u505a\u4eba", "2210": "\u8822", "2211": "\u6307\u5bfc", "2212": "\u5174\u594b", "2213": "\u63a5\u4e0b\u6765", "2214": "\u591c\u665a", "2215": "\u7206\u7c97", "2216": "2003", "2217": "\u56fd", "2218": "\u610f\u5916", "2219": "\u4e0d\u987a", "2220": "\u9a97\u5b50", "2221": "\u60ca\u559c", "2222": "\u8bed\u8a00", "2223": "\u65e5\u5e38", "2224": "\u504f\u504f", "2225": "\u672c\u4e66", "2226": "\u9f3b\u5b50", "2227": "\u5355\u7eaf", "2228": "\u56de\u4e0d\u53bb", "2229": "\u5feb\u901f", "2230": "\u5439", "2231": "\u56f4\u89c2", "2232": "\u6761", "2233": "\u9664\u5915", "2234": "\u804c\u4e1a", "2235": "\u9009", "2236": "\u4e16\u7eaa", "2237": "\u9053\u7406", "2238": "\u4e00\u4e0b\u5b50", "2239": "\u56fd\u52a1\u9662", "2240": "\u6253\u7b97", "2241": "\u8fc7\u540e", "2242": "\u9171", "2243": "\u6253\u55b7\u568f", "2244": "\u6b63\u5f0f", "2245": "\u7cbe\u5f69", "2246": "\u5fc3\u75db", "2247": "\u4f1a\u5458", "2248": "\u8fd9\u4ef6", "2249": "\u5916\u5356", "2250": "\u901b", "2251": "\u597d\u4e45\u6ca1", "2252": "\u4e0b\u9762", "2253": "\u8d70\u8fc7", "2254": "\u660e\u5e74", "2255": "\u53ef\u6076", "2256": "\u4f20\u7edf", "2257": "\u9ad8\u94c1", "2258": "\u98ce", "2259": "\u4e0d\u4f4f", "2260": "\u79c0", "2261": "\u5e72\u51c0", "2262": "\u8d44\u6599", "2263": "\u957f\u6c99", "2264": "\u8d21\u732e", "2265": "\u622a\u81f3", "2266": "\u6f5c\u4f0f\u671f", "2267": "\u4e00\u4f8b", "2268": "\u597d\u4e0d\u597d", "2269": "\u4e00\u53e3", "2270": "\u6628\u5929\u665a\u4e0a", "2271": "\u8d76", "2272": "\u78b0", "2273": "\u4e0d\u613f", "2274": "\u804a", "2275": "\u6211\u6015", "2276": "\u77eb\u60c5", "2277": "\u5c31\u8ba9", "2278": "\u56db", "2279": "\u5341\u5e74", "2280": "\u5f31", "2281": "\u7126\u8651", "2282": "\u91cf", "2283": "\u5403\u5c4e", "2284": "\u592a\u597d\u4e86", "2285": "\u4e00\u591c", "2286": "\u86cb", "2287": "\u76d0", "2288": "\u9996\u9875", "2289": "\u8fd9\u8fb9", "2290": "\ud83d\ude31", "2291": "60", "2292": "\u6000\u5b55", "2293": "\u6696\u6c14", "2294": "\u65e0\u6bd4", "2295": "\u53bb\u8fc7", "2296": "\u5e38\u5e38", "2297": "\u5173\u95ed", "2298": "\u9a6c", "2299": "\u7d27\u6025", "2300": "03", "2301": "\u6625\u8fd0", "2302": "\u542c\u8bdd", "2303": "\u884c\u8005", "2304": "\u6350\u8d60", "2305": "\u4f20\u8c23", "2306": "\u5267", "2307": "\u65e0\u6240\u8c13", "2308": "\u80c3", "2309": "\u5269", "2310": "\u8fd8\u7ed9", "2311": "\u4ef7\u503c", "2312": "\u4f1a\u8bae", "2313": "\u89d2\u8272", "2314": "\u59d0", "2315": "\u81ea\u8eab", "2316": "\u8fd9\u6761", "2317": "\u81ea\u884c\u8f66", "2318": "\u534a\u5e74", "2319": "\u505c\u6b62", "2320": "\u8def\u8fc7", "2321": "\u5230\u4f4d", "2322": "26", "2323": "\u4ea6", "2324": "\u53d1\u73b0\u81ea\u5df1", "2325": "\u697c", "2326": "\u56e2\u961f", "2327": "\u6574\u7406", "2328": "\u4e16\u4e0a", "2329": "\u4e00\u6574\u5929", "2330": "\u5171", "2331": "\u5230\u8fbe", "2332": "\u7b2c\u4e00\u5929", "2333": "\u673a\u6784", "2334": "\u98df\u54c1", "2335": "\u65e5\u8bb0", "2336": "\u8fd1\u671f", "2337": "\u4ffa", "2338": "\u7f3a\u53e3", "2339": "\u4ea4\u901a", "2340": "\u77ed", "2341": "\u5fae\u4fe1", "2342": "\u65b0\u6d6a", "2343": "\u5410\u69fd", "2344": "\u9488\u5bf9", "2345": "\u673a", "2346": "\u7edf\u4e00", "2347": "\u6709\u7528", "2348": "\u707e\u96be", "2349": "\u5e94\u5bf9", "2350": "\u4e00\u8138", "2351": "\u4e2d\u534e", "2352": "\u6f14\u5458", "2353": "\u65b9\u4fbf", "2354": "\u6559", "2355": "\u8d27", "2356": "\u76ef", "2357": "\u51fa\u53d1", "2358": "\u8001\u9f20", "2359": "\u4f53\u9a8c", "2360": "\u9996\u5148", "2361": "\u67d0\u4e2a", "2362": "\u5c4f\u5e55", "2363": "\u9057\u61be", "2364": "\u604b\u7231", "2365": "\u753b\u9762", "2366": "\u590f\u5929", "2367": "\u6bc1", "2368": "\u5b9a", "2369": "\u8c8c\u4f3c", "2370": "\u8fc5\u901f", "2371": "\u660e", "2372": "\u8b66\u5bdf", "2373": "\u7761\u4e2a", "2374": "\u66ff", "2375": "\u901a\u98ce", "2376": "\u9017", "2377": "\u624b\u672f", "2378": "\u4e00\u5929\u5929", "2379": "\u94a5\u5319", "2380": "\u60e7\u6015", "2381": "\u6c64", "2382": "200", "2383": "\u86cb\u767d\u8d28", "2384": "\u788e", "2385": "\u8ffd\u6c42", "2386": "\u968f\u65f6", "2387": "\u5192", "2388": "\u5f00\u901a", "2389": "\u618b", "2390": "\u65e0\u52a9", "2391": "\u90a3\u8fb9", "2392": "\u773c", "2393": "\u5357\u4eac", "2394": "\u59d4\u5458\u4f1a", "2395": "\u65c5\u5ba2", "2396": "\u5267\u60c5", "2397": "\u5f3a\u8c03", "2398": "\u89c4\u6a21", "2399": "\u5927\u5e74\u4e09\u5341", "2400": "\u547c\u5438\u9053", "2401": "\u98df\u5802", "2402": "\u673a\u7968", "2403": "\u53cd", "2404": "\u8d76\u4e0a", "2405": "\u603b\u4e4b", "2406": "\u706b\u8f66\u7ad9", "2407": "\u54ea\u513f", "2408": "\u5929\u4e0b", "2409": "\u6210\u7ee9", "2410": "\u4e2b", "2411": "\u8bf7\u6c42", "2412": "\u5f80\u5f80", "2413": "\u4e1a\u52a1", "2414": "\u672c\u8eab", "2415": "\u76ae\u80a4", "2416": "\u5bf9\u5f85", "2417": "\u96be\u5f97", "2418": "\u4f4f\u9662", "2419": "\u8d35", "2420": "\u4e0a\u6765", "2421": "\u5c34\u5c2c", "2422": "\u7b2c\u4e8c\u5929", "2423": "\u514b", "2424": "\u6c89\u9ed8", "2425": "\u8f93", "2426": "\u6e10\u6e10", "2427": "\u6253\u6b7b", "2428": "\u540c\u610f", "2429": "\u9500\u552e", "2430": "\u8bc4\u4ef7", "2431": "\u957f\u5f97", "2432": "\u5e8a", "2433": "\u53ea\u597d", "2434": "\u6768", "2435": "\u9632", "2436": "\u5b98\u5458", "2437": "\u5f00\u53d1", "2438": "\u641e\u7b11", "2439": "\u5e73\u9759", "2440": "\u91c7\u53d6", "2441": "\u7956\u56fd", "2442": "\u627f\u62c5", "2443": "\u8d2d\u4e70", "2444": "\u653e\u677e", "2445": "\u771f\u76f8", "2446": "\u5206\u624b", "2447": "\u5973\u670b\u53cb", "2448": "\u4e0a\u53bb", "2449": "80", "2450": "\u5927\u578b", "2451": "\u6f14\u5531\u4f1a", "2452": "\u7403", "2453": "\u4f53\u91cd", "2454": "\u601d\u5ff5", "2455": "\u5acc\u5f03", "2456": "\u4ea4\u6d41", "2457": "\u4e09\u6b21", "2458": "\u72ec\u7acb", "2459": "\ud83d\ude12", "2460": "\u5408\u9002", "2461": "\u60ca\u9192", "2462": "\u5e78\u597d", "2463": "\u7406\u8bba", "2464": "\u718a", "2465": "\u6bdb\u75c5", "2466": "\u5f88\u5c11", "2467": "\u901a\u9053", "2468": "\u7b2c\u4e8c", "2469": "\u5565\u65f6\u5019", "2470": "\u4ea4", "2471": "\u6295\u8bc9", "2472": "\u5c71", "2473": "\u51fa\u751f", "2474": "\u5728\u4e8e", "2475": "\u600e\u4e48\u56de\u4e8b", "2476": "\u627f\u8ba4", "2477": "\u5b63\u8282", "2478": "\u5730\u9707", "2479": "\u9634\u5f71", "2480": "\u79c1\u4fe1", "2481": "\u7ed9\u529b", "2482": "\u6d51\u8eab", "2483": "\u6e90", "2484": "\u7c91", "2485": "\u6d41\u884c\u75c5\u5b66", "2486": "\u9690\u7792", "2487": "\u5171\u6e21\u96be\u5173", "2488": "\u653f\u6cbb", "2489": "\u603b\u7ed3", "2490": "\u5e05", "2491": "\u5927\u4e8b", "2492": "\u7a33\u5b9a", "2493": "\u80bf", "2494": "\u5077\u5077", "2495": "\u5934\u50cf", "2496": "\u60f4\u60f4\u4e0d\u5b89", "2497": "\u5c0f\u4eba", "2498": "\u4eba\u4e3a", "2499": "\u771f\u662f\u592a", "2500": "\u62fc", "2501": "\u7ed3\u5408", "2502": "\u5168\u90fd", "2503": "\u5728\u4e4e", "2504": "\u4ece\u6765\u4e0d", "2505": "\u671f", "2506": "\u661f\u661f", "2507": "\u5927\u54ed", "2508": "\u6211\u7279", "2509": "\u4e00\u79d2", "2510": "\u6d77\u9c9c", "2511": "\u6253\u51fb", "2512": "\u7761\u524d", "2513": "\u5fc3\u810f", "2514": "\u836f\u7269", "2515": "\u540d\u5355", "2516": "\u591a\u591a", "2517": "\u89c1\u9762", "2518": "\u6c9f\u901a", "2519": "\u5e94\u5f53", "2520": "\u4fe1\u5fc3", "2521": "\u8bf4\u51fa", "2522": "\u54ce\u5440", "2523": "27", "2524": "\u5168\u4f53", "2525": "\u4eba\u95f4", "2526": "\u6848\u4f8b", "2527": "\u7f8e\u7684", "2528": "\u52bf\u529b", "2529": "\u4e9f\u5f85", "2530": "\u7ea2\u5341\u5b57", "2531": "\u6cbb\u6108", "2532": "\u597d\u4eba", "2533": "\u7d2f\u6b7b", "2534": "\u660e\u786e", "2535": "\u7686", "2536": "\u6653\u5f97", "2537": "\u7528\u5fc3", "2538": "\u65e9\u7761", "2539": "\u684c\u5b50", "2540": "\u89c4\u5212", "2541": "\u8840", "2542": "\u7834\u574f", "2543": "\u5973\u795e", "2544": "\u4eba\u4eba", "2545": "\u5fd9\u788c", "2546": "\u4eca", "2547": "\u5531\u6b4c", "2548": "\u5a5a\u793c", "2549": "\u8bf6", "2550": "\u5634\u5df4", "2551": "\u6cd5\u56fd", "2552": "\u8336", "2553": "\u7b2c\u4e8c\u6b21", "2554": "\u6eda\u86cb", "2555": "\u6050\u60e7\u75c7", "2556": "\u76f8\u5904", "2557": "\u8bd7", "2558": "\ud83d\udc7f", "2559": "\u6bb5", "2560": "2000", "2561": "\u51fa\u5dee", "2562": "\u571f\u8033\u5176", "2563": "\u5236\u5ea6", "2564": "\u4e30\u5bcc", "2565": "\u5927\u58f0", "2566": "\u4e00\u526f", "2567": "\u4e1c\u5317", "2568": "\u51e1", "2569": "\u4eb2\u4eb2", "2570": "\u624b\u91cc", "2571": "\u57ce", "2572": "\u5927\u91cf", "2573": "\u60ca\u5413", "2574": "\u767d\u773c", "2575": "\u53d1\u6296", "2576": "\u8033\u6735", "2577": "\u8bfb", "2578": "\u6ee1\u610f", "2579": "^", "2580": "\u4e00\u6279", "2581": "\u94c1\u8def", "2582": "\u57fa\u91d1\u4f1a", "2583": "\u5fc3\u585e", "2584": "\u52a8\u4f5c", "2585": "\u521d\u4e2d", "2586": "\u795e\u9a6c", "2587": "\u70ed\u60c5", "2588": "\u8fd9\u53e5", "2589": "\u4e00\u90e8\u5206", "2590": "\u975e\u5f97", "2591": "\u5c0f\u5b69\u5b50", "2592": "\u79d8\u5bc6", "2593": "\u53f2", "2594": "\u5c0f\u5c0f\u7684", "2595": "\u6df1\u6df1", "2596": "\u5370\u8c61", "2597": "\u8aaa", "2598": "\u8033\u673a", "2599": "\u7eaa\u5ff5", "2600": "\u6709\u4e8b", "2601": "\u65e0\u8f9c", "2602": "\u521a\u597d", "2603": "\u7c7b\u4f3c", "2604": "\u8fdb\u6765", "2605": "\u5927\u5927", "2606": "\u665a\u996d", "2607": "\u6bcd\u4eb2", "2608": "\u8be5\u6b7b", "2609": "\u73a9\u610f\u513f", "2610": "\u6709\u94b1", "2611": "\u4e66\u8bb0", "2612": "\u5faa\u73af", "2613": "\u6559\u8bad", "2614": "\u978b", "2615": "\u81f4", "2616": "\u5c0f\u5077", "2617": "\u8010\u5fc3", "2618": "\u54ea\u4e9b", "2619": "\u4e58\u5ba2", "2620": "\u5403\u74dc", "2621": "\u6253\u5361", "2622": "\u4fdd\u5b89", "2623": "\u8f7b\u677e", "2624": "\u6ce8\u5b9a", "2625": "\u5b9e\u9645", "2626": "\u6280\u80fd", "2627": "\u7248", "2628": "\u5acc", "2629": "\u8457\u540d", "2630": "\u76ee\u7684", "2631": "\u8bf4\u6cd5", "2632": "\u5973\u5b69\u5b50", "2633": "\u4ed4\u7ec6", "2634": "\u9001\u5230", "2635": "\u4e0b\u8bfe", "2636": "\u63d0\u51fa", "2637": "\u544a\u77e5", "2638": "\u4f4d", "2639": "\u5708", "2640": "\u9003\u79bb", "2641": "\u85cf", "2642": "\u4e0a\u5e8a", "2643": "\u4e34\u65f6", "2644": "\u62ff\u5230", "2645": "\u81ea\u62cd", "2646": "\u5e72\u4ec0\u4e48", "2647": "\u5bc6\u7801", "2648": "\u755c\u751f", "2649": "\u6cbb", "2650": "\u5de8\u5927", "2651": "\u4e00\u77ac\u95f4", "2652": "x", "2653": "\u9f13\u52b1", "2654": "\u98ce\u683c", "2655": "\u6795\u5934", "2656": "\u5f00\u542f", "2657": "\u6da8", "2658": "440", "2659": "\u533b\u5b66\u89c2\u5bdf", "2660": "\u50bb\u5b50", "2661": "\u7ec4\u6210", "2662": "\u61a7\u61ac", "2663": "\u6362\u4e2a", "2664": "\u5f97\u77e5", "2665": "\u5426\u5219", "2666": "\u8868\u6f14", "2667": "\u7406", "2668": "\u505a\u996d", "2669": "\u533a\u522b", "2670": "\u964c\u751f", "2671": "\u805a\u9910", "2672": "\u83b7\u5f97", "2673": "\u6211\u56fd", "2674": "\u6c34\u679c", "2675": "\u5fc3\u7d2f", "2676": "\u5fc3\u614c", "2677": "\u7236\u4eb2", "2678": "\u534a\u5c0f\u65f6", "2679": "\u5c41", "2680": "\u5341\u6708", "2681": "\u6233", "2682": "\u4e91\u5357", "2683": "\u5b9e\u65bd", "2684": "\u4fbf\u5b9c", "2685": "\u5757\u94b1", "2686": "&", "2687": "\u7537\u5b69", "2688": "\u2103", "2689": "\u8db3\u7403", "2690": "\u63a5\u5230", "2691": "\u76ae", "2692": "\u8f93\u5165", "2693": "\u53cb\u60c5", "2694": "\u5ba2\u8fd0", "2695": "\u4e0d\u4fe1", "2696": "\u8f7b\u6613", "2697": "\u505a\u4e0d\u4e86", "2698": "\u9000\u7968", "2699": "\u55d2", "2700": "\u547d\u8fd0", "2701": "\u6700\u7f8e", "2702": "\u53ef\u63a7", "2703": "\u5b89\u597d", "2704": "\u5728\u610f", "2705": "--", "2706": "\u7981\u6b62", "2707": "\u6dfb\u9ebb\u70e6", "2708": "\u6a31\u82b1", "2709": "\u534f\u548c", "2710": "\u6570\u5b66", "2711": "\u89c9\u9192", "2712": "\u7acb\u523b", "2713": "\u5f53\u4e0b", "2714": "\u95fa\u871c", "2715": "\u4e00\u4e0a\u5348", "2716": "\u51b7\u9759", "2717": "\u4eba\u4f53", "2718": "\u4e00\u5bf9", "2719": "\u58f0", "2720": "\u6293\u4f4f", "2721": "\u6d6a\u6f2b", "2722": "\u4e03\u70b9", "2723": "\u6bb5\u65f6\u95f4", "2724": "\u662f\u4ece", "2725": "\u501f", "2726": "\u8fc7\u4e2a", "2727": "\u6c7d\u8f66", "2728": "\u674e", "2729": "\u61f5", "2730": "\u6000\u5ff5", "2731": "\u7761\u9192", "2732": "\u518d\u8bf4", "2733": "\u5883\u5185", "2734": "\u6b64\u65f6", "2735": "\u4e0d\u5b89", "2736": "\u585e", "2737": "\u597d\u5fc3", "2738": "\u7cd6", "2739": "\u6708\u4eae", "2740": "\u6551", "2741": "\u79d1\u6280", "2742": "\u80d6\u5b50", "2743": "\u51fa\u53e3", "2744": "\u59d0\u59b9", "2745": "\u70e7", "2746": "\u7a9d", "2747": "\u91cd\u590d", "2748": "\u4efb\u4f55\u4eba", "2749": "\u72b6\u51b5", "2750": "\u63d0", "2751": "\u706b\u9505", "2752": "\u963b\u6b62", "2753": "\u6392\u961f", "2754": "\u7239", "2755": "\u4e00\u5708", "2756": "\u5728\u7ebf", "2757": "\u666e\u901a\u4eba", "2758": "\u8c08\u604b\u7231", "2759": "\u4e00\u5e55", "2760": "\u524d\u5f80", "2761": "\u5546\u5bb6", "2762": "\u6d17\u624b", "2763": "\u5f20\u4e91\u96f7", "2764": "\u6d3e", "2765": "\u6e05", "2766": "\u4e94\u4e2a", "2767": "\u5927\u591a\u6570", "2768": "\u70e6\u4eba", "2769": "\u6b63\u597d", "2770": "\u8270\u96be", "2771": "\u773c\u524d", "2772": "\u62fc\u547d", "2773": "\u7ffb\u8bd1", "2774": "\u53d1\u4e86", "2775": "28", "2776": "\u501f\u53e3", "2777": "\u7a76\u7adf", "2778": "\u4e0d\u7b97", "2779": "\u5b89\u5168\u611f", "2780": "\u4eba\u4f1a", "2781": "\u4e00\u8f86", "2782": "\u955c\u5934", "2783": "\u5929\u5450", "2784": "\u770b\u4e0d\u89c1", "2785": "\u542c\u89c1", "2786": "\u9999", "2787": "\u6267\u884c", "2788": "\u5404\u4e2a", "2789": "\u5c5e", "2790": "\u9e7f\u6657", "2791": "\u578b", "2792": "\u563f\u563f", "2793": "\u5b9e\u884c", "2794": "\u5f15\u53d1", "2795": "\u505a\u4e2a", "2796": "\u80ba", "2797": "\u67e5", "2798": "\u884c\u653f", "2799": "\u540e\u679c", "2800": "\u7ec4", "2801": "\u54c4", "2802": "\u4e00\u6b21\u6027", "2803": "\u592a\u96be", "2804": "\u7247", "2805": "\u8fdb\u6b65", "2806": "\u6253\u6270", "2807": "\u5927\u5b66\u751f", "2808": "\u4e00\u5929\u5230\u665a", "2809": "\u5f62\u5f0f", "2810": "\u4e16\u754c\u676f", "2811": "\u54e5", "2812": "\u4e0b\u8f66", "2813": "\u5398\u7c73", "2814": "\u5bb6\u91cc\u4eba", "2815": "MD", "2816": "\u540e\u63f4\u4f1a", "2817": "\u5168\u5e02", "2818": "\u6210\u5458", "2819": "\u8dd1\u6b65", "2820": "\ud83c\udffb", "2821": "\u4f20", "2822": "\u5fe7\u4f24", "2823": "\u5f3a\u70c8", "2824": "\u65e0\u77e5", "2825": "\u548c\u8c10", "2826": "\u597d\u51e0\u4e2a", "2827": "\u94b1\u5305", "2828": "\u4e8b\u4e1a", "2829": "\u8fd9\u70b9", "2830": "\u4f60\u59b9", "2831": "\u827a\u672f", "2832": "\u8fc7\u654f", "2833": "\u770b\u5f97", "2834": "\u98ce\u666f", "2835": "\u6c5f\u897f", "2836": "\u5145\u7535", "2837": "\u5927\u9646", "2838": "\u8868\u9762", "2839": "\u53d1\u6cc4", "2840": "\u798f", "2841": "\u5fc3\u7075", "2842": "\u5408\u7406", "2843": "\u533b\u5b66", "2844": "\u7535\u68af", "2845": "\u6ce1", "2846": "\u5934\u75db", "2847": "\u539f\u5219", "2848": "\u7897", "2849": "\u4e13\u95e8", "2850": "\u897f\u5b89", "2851": "84", "2852": "\u8f66\u4e0a", "2853": "\u4f69\u670d", "2854": "\u5373\u5c06", "2855": "\u5b9e\u9a8c\u5ba4", "2856": "\u4e00\u4e2a\u591a", "2857": "\u4e70\u4e0d\u5230", "2858": "\u5b88\u62a4", "2859": "\u81ea\u884c", "2860": "\u5206\u79bb", "2861": "\u8001\u767e\u59d3", "2862": "\u4e3e\u62a5", "2863": "\u6551\u6551", "2864": "\u6307\u6325\u90e8", "2865": "\u6c6a\u82cf", "2866": "\u6cf7", "2867": "\u806a\u660e", "2868": "\u5176\u4ed6\u4eba", "2869": "\u516c\u5e73", "2870": "\u9a84\u50b2", "2871": "\u6361", "2872": "\u6253\u4e2a", "2873": "\u7a77", "2874": "\u5e26\u7ed9", "2875": "\u6311\u6218", "2876": "\u672c\u4eba", "2877": "\u9650\u5236", "2878": "\u65e9\u996d", "2879": "\u5149", "2880": "\u5466", "2881": "\u516c\u5171", "2882": "\u4e0a\u5e1d", "2883": "\u9700", "2884": "\u7231\u4eba", "2885": "\u7537\u5b50", "2886": "\u5bc4", "2887": "\u90a3\u4e00\u523b", "2888": "\u592a\u5feb", "2889": "\u4e00\u65e9", "2890": "\u53e5", "2891": "\u88ab\u76d7", "2892": "\u5f81\u96c6", "2893": "\u7cfb\u5217", "2894": "\u8106\u5f31", "2895": "\u4e07\u5143", "2896": "\u2744", "2897": "\u6a21\u7cca", "2898": "\u63d0\u793a", "2899": "\u5f88\u957f", "2900": "\u5fc3\u60f3", "2901": "\u535a\u58eb", "2902": "\u6b22\u8fce", "2903": "\u5206\u5f00", "2904": "\u8170", "2905": "\u7ec8\u7a76", "2906": "\u5f88\u96be", "2907": "\u65e9\u5df2", "2908": "\u4f5c\u8005", "2909": "\u9002\u5e94", "2910": "\u96be\u4ee5", "2911": "c", "2912": "\u601d\u7ef4", "2913": "\u4e00\u9053", "2914": "\u4e4b\u4e2d", "2915": "\u65ad", "2916": "\u53d1\u75c5", "2917": "\u6b27\u6d32", "2918": "\u7fa4", "2919": "\u59e5\u7237", "2920": "\u5efa\u6a21", "2921": "\u6012\u9a82", "2922": "\u5ef6\u671f", "2923": "\u62ff\u4e0b", "2924": "\u533b\u52a1", "2925": "\u4f20\u64ad\u8005", "2926": "\u6323\u624e", "2927": "\u4ece\u5c0f", "2928": "\u5f8b\u5e08", "2929": "\u62cd\u6444", "2930": "\u95f9\u5fc3", "2931": "\u5357", "2932": "\u6444\u5f71", "2933": "\u7269\u6d41", "2934": "\u5927\u738b", "2935": "\u96c6\u56e2", "2936": "\u521d\u96ea", "2937": "\u5c06\u6765", "2938": "\u5145\u5b9e", "2939": "\u591a\u4e2a", "2940": "\u8bb2\u8bdd", "2941": "\u653e\u8fc7", "2942": "\u4e00\u7bc7", "2943": "\u4ea9", "2944": "\u539f", "2945": "\u5c45\u6c11", "2946": "\u706f", "2947": "\u8d44\u683c", "2948": "\u5594", "2949": "\u7533\u8bf7", "2950": "\u6076\u610f", "2951": "\u60c5\u4fa3", "2952": "\u4fee", "2953": "\u4e0d\u8db3", "2954": "\u8bbe\u7f6e", "2955": "\u5730\u7403", "2956": "\u725b\u8089", "2957": "\u4e0d\u7231", "2958": "\u6709\u9650\u516c\u53f8", "2959": "\u8e0f\u5b9e", "2960": "\u5c06\u8fd1", "2961": "\u5904\u4e8e", "2962": "\u73a9\u610f", "2963": "\u516c\u4e3b", "2964": "\u4e0d\u8bf4", "2965": "\u7269\u8d28", "2966": "\u6781\u5ea6", "2967": "\u952e\u76d8", "2968": "\u964d\u4f4e", "2969": "\uff0e", "2970": "\u96c6\u4e2d", "2971": "\u5de6", "2972": "\u5f88\u68d2", "2973": "\u6587\u4ef6", "2974": "\u75d8\u75d8", "2975": "\u5475", "2976": "\u9ad8\u8003", "2977": "\u4e2d\u56fd\u961f", "2978": "\u5176\u5b83", "2979": "\u8fd9\u4efd", "2980": "\u4e16\u536b", "2981": "\u62ef\u6551", "2982": "\u2193", "2983": "\u5468\u8fb9", "2984": "291", "2985": "\u9177", "2986": "\u7279\u70b9", "2987": "\u82f1\u6587", "2988": "\u6c11\u65cf", "2989": "\u624b\u6bb5", "2990": "\u5305\u5b50", "2991": "\u8fc7\u5206", "2992": "\u51fa\u79df\u8f66", "2993": "\u4ebf\u5143", "2994": "\u4e00\u7cfb\u5217", "2995": "\u4e0d\u6765", "2996": "\u5988\u4e2a", "2997": "\u62e5\u62b1", "2998": "\u95ed\u5634", "2999": "\u5165\u7761", "3000": "\u9ed1\u9f99\u6c5f", "3001": "\u8ff7\u832b", "3002": "\u5bb6\u5c5e", "3003": "\u66f0", "3004": "\u76f8\u5dee", "3005": "\u800d", "3006": "P", "3007": "\u5438\u5f15", "3008": "\u4e0d\u9760", "3009": "\u573a\u6240", "3010": "\u6d4b\u8bd5", "3011": "\u5f97\u4e0d\u5230", "3012": "\u9759\u9759", "3013": "\u88c5\u4fee", "3014": "\u4e94\u5e74", "3015": "\u62a5\u8b66", "3016": "\u5343\u4e07\u522b", "3017": "\u5230\u6765", "3018": "\u5bc2\u5bde", "3019": "\u529e\u4e8b", "3020": "\u56e2", "3021": "\u53eb\u505a", "3022": "\u6572", "3023": "\u4fdd\u5b58", "3024": "\u4e0a\u5929", "3025": "\u5047\u671f", "3026": "\u65e0\u9650", "3027": "\u5416", "3028": "\u5fae\u535a\u4e0a", "3029": "\u54c6", "3030": "\u7f62\u4e86", "3031": "\u5c41\u80a1", "3032": "\u643a\u5e26", "3033": "\u7cfb", "3034": "\u6df1", "3035": "\u7530", "3036": "\u6da8\u4ef7", "3037": "\u7c7b", "3038": "\u4e0a\u6f14", "3039": "\u75c5\u6bd2\u6027", "3040": "\u4e0d\u9002", "3041": "\u76f4\u51fb", "3042": "\u6682\u505c", "3043": "\u7ba1\u8f76", "3044": "\u6f2b\u753b", "3045": "\u4e00\u500b", "3046": "\u6478", "3047": "\u4e24\u53ea", "3048": "\u6de1\u5b9a", "3049": "\u6728\u6709", "3050": "\u6b63\u662f", "3051": "\u4e0d\u77e5\u4e0d\u89c9", "3052": "\u957f\u671f", "3053": "\u771f\u8bda", "3054": "\u4e71\u4e03\u516b\u7cdf", "3055": "\u5347\u7ea7", "3056": "\u8bf7\u5047", "3057": "\u4f55\u5fc5", "3058": "\u5f3a\u5978", "3059": "\u591c\u91cc", "3060": "\u72d7\u72d7", "3061": "\u521b\u9020", "3062": "\u7559\u5728", "3063": "\u4ea4\u6613", "3064": "\u7279\u8272", "3065": "\u771f\u7279", "3066": "\u6cd5", "3067": "\u53cd\u590d", "3068": "\u4e86\u4e0d\u8d77", "3069": "\u7f8e\u98df", "3070": "\u884c\u4e1a", "3071": "\u68ee\u6797", "3072": "\u8bf4\u5b9e\u8bdd", "3073": "\u60b2\u54c0", "3074": "\u5feb\u5feb", "3075": "\u7075\u9b42", "3076": "\u56de\u62a5", "3077": "\u6c88\u9633", "3078": "\u4e00\u6bb5\u65f6\u95f4", "3079": "\u540c\u4e00\u4e2a", "3080": "\u8fd9\u4e00", "3081": "\u826f\u5fc3", "3082": "\u5e7f\u5927", "3083": "\u5473", "3084": "\u7206\u68da", "3085": "\u95ee\u95ee", "3086": "\u95fa\u5973", "3087": "\u8db3", "3088": "\u5154", "3089": "\u597d\u4e8b", "3090": "\u6d6a", "3091": "\u4f20\u9012", "3092": "\u65b0\u7586", "3093": "\u505c\u8f66", "3094": "\u597d\u5947", "3095": "\u8fdb\u4e00\u6b65", "3096": "\u9ad8\u5ea6", "3097": "\u76d1\u7763", "3098": "\u4f20\u67d3\u6027", "3099": "\u6700\u7231", "3100": "\u4fdd\u5b88", "3101": "\u6e20\u9053", "3102": "\u8fbd\u5b81", "3103": "\u65b9\u6848", "3104": "\u90d1\u723d", "3105": "\u6211\u5927", "3106": "\u5c0f\u8fab\u513f", "3107": "\u4e71\u8dd1", "3108": "\u5f00\u653e", "3109": "\u5c0f\u4e8b", "3110": "\u906d", "3111": "\u6709\u8da3", "3112": "2006", "3113": "\u6587\u660e", "3114": "\u5f3a\u5236", "3115": "\u8116\u5b50", "3116": "\u4e0d\u7406", "3117": "\u5e7f\u573a", "3118": "\u533a\u57df", "3119": "\u8f66\u7ad9", "3120": "\u6696\u6696\u7684", "3121": "\u4e00\u5957", "3122": "\u590d\u4e60", "3123": "\u8d74", "3124": "\u9ed1\u8272", "3125": "\u523a\u6fc0", "3126": "\u4fbf\u662f", "3127": "\u7ed9\u4e88", "3128": "\u5c45\u5bb6", "3129": "\u6559\u5b66", "3130": "\u6625\u5929", "3131": "\u8fd9\u4e48\u665a", "3132": "\u53d6", "3133": "\u6709\u7740", "3134": "\u75bc\u75db", "3135": "\u6570", "3136": "\u53f3", "3137": "\u53d1\u813e\u6c14", "3138": "\u5ff5", "3139": "\u62c6", "3140": "\u65e0\u8bba\u662f", "3141": "\u620f", "3142": "\u5c3f", "3143": "\u53bb\u4e16", "3144": "\u7a7f\u7740", "3145": "\u7a97\u5916", "3146": "\u5373\u4fbf", "3147": "\u5317", "3148": "\u5148\u8fdb", "3149": "\u5b8c\u6574", "3150": "\u597d\u542c", "3151": "\u8003\u7814", "3152": "\u5c0f\u5bb6\u4f19", "3153": "\u2022", "3154": "\u8bd5\u8bd5", "3155": "\u653e\u5927", "3156": "\u2460", "3157": "\u533b\u7597\u673a\u6784", "3158": "\u9053\u5fb7", "3159": "\u6323\u94b1", "3160": "\u7529", "3161": "\u9762\u8bd5", "3162": "\u4e00\u672c", "3163": "\u8857\u9053", "3164": "\u5f00\u5f00\u5fc3\u5fc3", "3165": "\u67aa\u6bd9", "3166": "\u6559\u5e08", "3167": "\u50bb\u773c", "3168": "\u5404\u7c7b", "3169": "\u5706\u901a", "3170": "\u5f53\u9009", "3171": "\u591a\u5929", "3172": "\u8d28\u7591", "3173": "\u5b87\u5b99", "3174": "\u56fd\u5916", "3175": "\u81f3\u4e8e", "3176": "\u4e4b\u5916", "3177": "\u4eba\u5fc3\u60f6\u60f6", "3178": "Mr", "3179": "\u5927\u5988", "3180": "\u4e0d\u5e26", "3181": "\u200d", "3182": "\u8b66\u60d5", "3183": "\u6dda", "3184": "\u9ed1\u7ebf", "3185": "\u8513\u5ef6", "3186": "WHO", "3187": "\u70ed\u5df4", "3188": "\u8d22\u65b0\u7f51", "3189": "\u767b\u8bb0", "3190": "\u6e05\u6668", "3191": "\u6709\u9650", "3192": "\u5377", "3193": "\u624b\u4e0a", "3194": "\u60c5\u5546", "3195": "\u786c", "3196": "\u6b64\u5916", "3197": "\u4e0d\u597d\u610f\u601d", "3198": "\u4e0d\u660e", "3199": "\u4ec0\u9ebc", "3200": "\u867d", "3201": "\u53ea\u4e0d\u8fc7", "3202": "\u9a91", "3203": "\u955c\u5b50", "3204": "00", "3205": "\u70ba", "3206": "\u5a4a", "3207": "\u80c6\u602f", "3208": "\u7f8e\u5973", "3209": "\ud83d\ude33", "3210": "2010", "3211": "\ud83c\udf82", "3212": "\u8d8a\u662f", "3213": "\u5185\u90e8", "3214": "\u6982\u5ff5", "3215": "\u4ee4", "3216": "\u4e00\u4eba", "3217": "\u5927\u5c0f", "3218": "\u5927\u6e05\u65e9", "3219": "\u4e94", "3220": "\u4e61", "3221": "\u4e3b\u5e2d", "3222": "\u73b0\u4ee3", "3223": "\u5305\u88c5", "3224": "\u4e34\u5e8a", "3225": "\u516c\u56ed", "3226": "\u55b7", "3227": "\u5927\u96ea", "3228": "\u6263", "3229": "\u63d0\u5347", "3230": "\u522b\u8bf4", "3231": "\u4eba\u6e23", "3232": "\u4ece\u672a", "3233": "\u973e", "3234": "\u73b0\u6709", "3235": "\u51fa\u9662", "3236": "\u8fc7\u5ea6", "3237": "\u89c4\u5f8b", "3238": "n", "3239": "\u8fd9\u65f6\u5019", "3240": "\u5f53\u524d", "3241": "\u7ca5", "3242": "\u836f\u5e97", "3243": "\u961f", "3244": "\u5348\u996d", "3245": "\u6ca1\u5230", "3246": "\u5954\u817e", "3247": "\u597d\u68d2", "3248": "\u5206\u522b", "3249": "\u561a", "3250": "\u7701\u957f", "3251": "\u535a\u4e3b", "3252": "\u738b\u6e90", "3253": "\u9ec4\u5188", "3254": "\u6c5f\u5b81", "3255": "A6vBv3yL", "3256": "\u5b81\u613f", "3257": "\u904d", "3258": "\u8fdc\u8fdc", "3259": "\u521d", "3260": "\u6240\u5728", "3261": "\u524d\u8fdb", "3262": "\u4e09\u904d", "3263": "\u7535\u5b50", "3264": "\u8f6c\u79fb", "3265": "\u4e0d\u5229", "3266": "\u62c5\u4efb", "3267": "\u7b54\u5e94", "3268": "\u903b\u8f91", "3269": "\u817e\u8baf", "3270": "\u7406\u60f3", "3271": "\u90a3\u65f6", "3272": "\u7761\u4e00\u89c9", "3273": "\u7761\u5f97", "3274": "\u6574", "3275": "70%", "3276": "\u8111\u5b50\u91cc", "3277": "\u5348\u4f11", "3278": "\u5212", "3279": "70", "3280": "\u964c\u751f\u4eba", "3281": "\u8d76\u5feb", "3282": "\u6765\u56de", "3283": "\u6c92", "3284": "\u6392\u540d", "3285": "\u5047\u88c5", "3286": "\u8857", "3287": "\u9700\u6c42", "3288": "\u6b32\u671b", "3289": "\u8650", "3290": "\u505c\u4e0d\u4e0b\u6765", "3291": "\u505c\u7559", "3292": "\u76f8\u4e92", "3293": "\u953b\u70bc", "3294": "\u6ca1\u5173\u7cfb", "3295": "\u8f66\u8f86", "3296": "\u843d\u5b9e", "3297": "\u987f\u65f6", "3298": "\u5e26\u4e0a", "3299": "\u676f\u5b50", "3300": "\u538b\u6291", "3301": "\u8f9c\u8d1f", "3302": "\u9001\u7ed9", "3303": "\u4ece\u6b64", "3304": "\u8d77\u7801", "3305": "\u5341\u4e8c\u70b9", "3306": "\u7c7b\u578b", "3307": "\u901a\u5e38", "3308": "\u64ad\u653e", "3309": "\u5404\u81ea", "3310": "\u6c14\u70b8", "3311": "\u6211\u6765", "3312": "\u7ec6\u8282", "3313": "\u5f71\u7247", "3314": "\u4e24\u79cd", "3315": "\u592a\u4e45", "3316": "\u4e3b\u9898", "3317": "\u4e0a\u62a5", "3318": "\u96be\u5173", "3319": "\u4f69\u6234", "3320": "ok", "3321": "\u6218\u53cb", "3322": "\u5916\u79d1", "3323": "\u8fea\u4e3d", "3324": "\u535a\u8096", "3325": "\u5c11\u53bb", "3326": "\u4f24\u533b", "3327": "Do", "3328": "\u4e32\u95e8", "3329": "\u592e\u89c6\u6625\u665a", "3330": "\u97a0\u5a67", "3331": "\u794e", "3332": "\u76d1\u63a7", "3333": "\u4eb2\u4eba", "3334": "\u575a\u5b9a", "3335": "\u826f\u597d", "3336": "\u773c\u91cc", "3337": "\u654f\u611f", "3338": "\u8bfe\u7a0b", "3339": "\u96c6", "3340": "\u719f", "3341": "\u8981\u8bf4", "3342": "\u663e\u5f97", "3343": "\u9119\u89c6", "3344": "\u7ec3\u4e60", "3345": "\u538b", "3346": "\u8d5a\u94b1", "3347": "xxx", "3348": "\u6cf0\u56fd", "3349": "\u6bcf\u5929\u665a\u4e0a", "3350": "\u4e11\u964b", "3351": "\u810f\u8bdd", "3352": "\u7b26\u5408", "3353": "\u8be6\u7ec6", "3354": "\u8ba1\u8f83", "3355": "N", "3356": "\u597d\u5904", "3357": "\u5c0f\u59d0", "3358": "\u534f\u4f1a", "3359": "\u76f8\u9047", "3360": "\u7cbe\u529b", "3361": "\u6674\u5929", "3362": "\u5fc3\u70e6", "3363": "\u9752\u5e74", "3364": "\u54ea\u6765", "3365": "b", "3366": "\u5927\u96e8", "3367": "\u89c2\u4f17", "3368": "\u592a\u68d2\u4e86", "3369": "\u5b9e\u4e60", "3370": "\u5f00\u95e8", "3371": "\u6210\u679c", "3372": "\u6562\u4e0d\u6562", "3373": "\u91c7\u8bbf", "3374": "\u597d\u73a9", "3375": "\u7814\u7a76\u751f", "3376": "\u725b\u5976", "3377": "\u91dc\u5c71", "3378": "\u6123", "3379": "\u540e\u6015", "3380": "\u6d88\u5316", "3381": "\u8bcd", "3382": "\u5929\u7a7a", "3383": "\u53d1\u5e03\u4f1a", "3384": "\u515a", "3385": "\u9633\u53f0", "3386": "\u5148\u662f", "3387": "\u00d7", "3388": "\u9505", "3389": "\u745f\u745f", "3390": "\u5927\u5927\u7684", "3391": "\u5e94\u7528", "3392": "\u9762\u5305", "3393": "\u50ac\u4fc3", "3394": "\u6069\u7231", "3395": "\u9ec4", "3396": "\u6574\u4f53", "3397": "\u7247\u5b50", "3398": "\u6ee1\u6ee1", "3399": "\ud83d\udca3", "3400": "\u5bb6\u4e61", "3401": "\u5f00\u5b66", "3402": "\u5929\u4f7f", "3403": "\u8d8a\u8fc7", "3404": "L", "3405": "\u5341\u4e00", "3406": "\u7701\u7ea7", "3407": "\u6234\u4e0a", "3408": "\u6025\u6025", "3409": "\u9632\u62a4\u670d", "3410": "2019", "3411": "\u75ab\u533a", "3412": "\u968f\u610f", "3413": "\u5a5a\u59fb", "3414": "\u6d41\u6cea", "3415": "\u6b64\u65f6\u6b64\u523b", "3416": "\u73b0", "3417": "\u5218\u6d77", "3418": "\u5220\u9664", "3419": "\u4e03", "3420": "\u7ec6\u80de", "3421": "\u5976\u7c89", "3422": "\u76d7", "3423": "\u900f\u660e", "3424": "\u6210\u672c", "3425": "\u597d\u591a\u597d\u591a", "3426": "\u592b\u59bb", "3427": "\u82b1\u94b1", "3428": "\u60f6\u6050", "3429": "\u7fa4\u91cc", "3430": "\u5939", "3431": "\u561e", "3432": "\u73bb\u7483", "3433": "\u638c\u63e1", "3434": "\u5229\u76ca", "3435": "\u7ed9\u6211\u53d1", "3436": "\u62ac\u5934", "3437": "\u54a9", "3438": "\u5fc3\u788e", "3439": "\u6781\u5176", "3440": "\u5e26\u8d70", "3441": "\u5f02\u5e38", "3442": "\u7ebf\u7d22", "3443": "\u4eba\u6709", "3444": "\u73a9\u513f", "3445": "\u4e0d\u80af", "3446": "\u7535", "3447": "\u7a0b\u5e8f", "3448": "\u7238\u7238\u5988\u5988", "3449": "\u524d\u5929", "3450": "\u86c7", "3451": "\u9057\u5fd8", "3452": "\u5f00\u73a9\u7b11", "3453": "\u4e00\u9635", "3454": "\u8bad\u7ec3", "3455": "\u2462", "3456": "\u4e2a\u522b", "3457": "\u8981\u4e0d\u662f", "3458": "\u7a0d\u5fae", "3459": "\u53d1\u6325", "3460": "\u79d1\u5b66\u5bb6", "3461": "\u5b64\u5355", "3462": "\u96fe", "3463": "\u8001\u5929", "3464": "\u5a03", "3465": "\u51bb", "3466": "\u81f3\u4eca", "3467": "\u65e0\u4eba", "3468": "800", "3469": "\u4e2a\u5934", "3470": "\u5916\u5730", "3471": "\u65e0\u80fd\u4e3a\u529b", "3472": "\u4e0a\u5e8a\u7761\u89c9", "3473": "\u56e7", "3474": "\u8425\u9500", "3475": "\u5ef6\u8fdf", "3476": "\u610f\u5473\u7740", "3477": "\u4e0d\u6613", "3478": "\u4e25\u683c", "3479": "\ud83d\udc4f", "3480": "\u53ca\u5176", "3481": "\u5f62\u8c61", "3482": "\u516c\u544a", "3483": "\u76fc", "3484": "\u5c55\u5f00", "3485": "\u4e70\u5355", "3486": "\u6bcf\u65e5", "3487": "\u9a91\u8f66", "3488": "\u5bf9\u8bdd", "3489": "\u8868\u660e", "3490": "\u7efc\u5408", "3491": "\u597d\u53cb", "3492": "\u727a\u7272", "3493": "\u8857\u4e0a", "3494": "\u4f9d\u9760", "3495": "\u75ab\u82d7", "3496": "\u4f53\u6e29", "3497": "\u53bf\u57ce", "3498": "\u957f\u9014", "3499": "\u5927\u5e74\u521d\u4e00", "3500": "\u4ea4\u53c9\u611f\u67d3", "3501": "\u7f9e\u55d2", "3502": "\u5de5\u7a0b", "3503": "\u7acb\u5373", "3504": "\u4e00\u5ea7", "3505": "\u4e07\u4e00", "3506": "\u6ee1", "3507": "\u54b1", "3508": "\u597d\u56f0", "3509": "\u53a6\u95e8", "3510": "\u642c", "3511": "\u90bb\u5c45", "3512": "M", "3513": "\u795e\u7ecf", "3514": "\u60f3\u4e0d\u5230", "3515": "\u5730\u5740", "3516": "\u69fd", "3517": "\u8fc7\u751f\u65e5", "3518": "\u7a7a", "3519": "\u7ffb\u51fa\u6765", "3520": "\u5f71\u54cd\u529b", "3521": "\u7406\u6027", "3522": "\u60ca", "3523": "\u5927\u8fde", "3524": "\ud83d\ude0a", "3525": "\u9694", "3526": "\u66f4\u6362", "3527": "\u4e5d", "3528": "\u5c4b\u91cc", "3529": "\u6068\u4e0d\u5f97", "3530": "35", "3531": "\u573a", "3532": "\u9053\u8def", "3533": "\u624b\u6307", "3534": "\u65b0\u9c9c", "3535": "\u5e38", "3536": "\u7a81\u7834", "3537": "\u4e00\u6839", "3538": "\u7f18\u5206", "3539": "\u6d3b\u8be5", "3540": "\u65e0\u654c", "3541": "\u8fd0\u884c", "3542": "\u8003\u9a8c", "3543": "\u61d2\u5f97", "3544": "\u60f3\u8fc7", "3545": "\u4e00\u5206\u949f", "3546": "\u63a5\u8fd1", "3547": "\u76f8", "3548": "\u5236\u4f5c", "3549": "\u4e00\u523b", "3550": "\u6821\u56ed", "3551": "\u5c11\u5973\u65f6\u4ee3", "3552": "\u4e0b\u964d", "3553": "\u9047\u4e0a", "3554": "\u9e1f", "3555": "\u5165\u51ac", "3556": "\u5543", "3557": "\u5de5\u4e1a", "3558": "\u2461", "3559": "\u51b7\u6f20", "3560": "1500", "3561": "\u5403\u9971", "3562": "\u5947\u8ff9", "3563": "\u60f6\u6050\u4e0d\u5b89", "3564": "\u53d7\u5bb3\u8005", "3565": "\u6df1\u523b", "3566": "\u5185\u8499\u53e4", "3567": "T", "3568": "\u73ab\u7470", "3569": "\u76f8\u7231", "3570": "\u4eba\u6c11\u653f\u5e9c", "3571": "\u5e7b\u60f3", "3572": "\u8425\u517b", "3573": "\u4e00\u67b6", "3574": "V", "3575": "\u62fd", "3576": "\u56fd\u8db3", "3577": "\u95f9\u949f", "3578": "\u7279\u610f", "3579": "\u5a31\u4e50", "3580": "\u8eab\u4efd\u8bc1", "3581": "\u6d4e\u5357", "3582": "\u5e86\u5e78", "3583": "\u770b\u75c5", "3584": "\u53d1\u8d77", "3585": "\u91d1", "3586": "\u5730\u6b65", "3587": "\u7eb3\u5165", "3588": "\u95ed\u4e0a", "3589": "\u5b59", "3590": "\u9009\u624b", "3591": "\u540c\u884c", "3592": "\u7701\u5e02", "3593": "\u6073\u6c42", "3594": "\u8bd7\u6717\u8bf5", "3595": "\u66b4\u8e81", "3596": "\u7684\u786e", "3597": "\u5927\u8857", "3598": "\u8d44\u91d1", "3599": "\u62d6\u5ef6", "3600": "\u75c7", "3601": "\u5927\u5e08", "3602": "\u94fe", "3603": "\u961f\u53cb", "3604": "\u7ffb\u6765\u8986\u53bb", "3605": "\u77db\u76fe", "3606": "\u8457", "3607": "\u987e\u5ba2", "3608": "\u8001\u5927", "3609": "\u4e24\u4eba", "3610": "\u76d6", "3611": "\u770b\u7535\u89c6", "3612": "\u771f\u4e0d\u77e5\u9053", "3613": "\u72c2", "3614": "\u901b\u8857", "3615": "\u5206\u4e3a", "3616": "\u5fcd\u4f4f", "3617": "\u5165", "3618": "\u5357\u5b81", "3619": "\u4e0d\u4e0b", "3620": "\u9677\u5165", "3621": "\u5938\u5f20", "3622": "\u574f\u4eba", "3623": "\u62a5\u5e94", "3624": "\u4ece\u524d", "3625": "\u5bf9\u6bd4", "3626": "29", "3627": "\u2795", "3628": "\u5916\u5a46", "3629": "\u4f9b\u6696", "3630": "\u6446", "3631": "\u505c\u7535", "3632": "\u5f62\u5bb9", "3633": "\u5589\u5499", "3634": "\u9003\u907f", "3635": "\u7ec3", "3636": "\u627f\u8bfa", "3637": "\u9014\u5f84", "3638": "\u62c5\u5fe7", "3639": "\u65e0\u9700", "3640": "\u8c46\u6d46", "3641": "\u4e0d\u80fd\u4e0d\u8981", "3642": "\u592a\u96be\u53d7", "3643": ">", "3644": "\u66b4\u529b", "3645": "\u539a", "3646": "\u60e9\u7f5a", "3647": "\u5bb6\u4e2d", "3648": "\u5e9f", "3649": "\u8bed\u97f3", "3650": "\u5e95\u7ebf", "3651": "\u6f14", "3652": "\u65e9\u4e0a\u597d", "3653": "\u6297", "3654": "\u7537\u6027", "3655": "\u59e5\u59e5", "3656": "\u767d\u8272", "3657": "\u635f\u5931", "3658": "\u575a\u51b3", "3659": "\u8fdb\u7403", "3660": "\u5b58", "3661": "\u8ddd", "3662": "\u7b2c\u4e00\u573a", "3663": "\u6c42\u52a9", "3664": "\u8001\u5bb6", "3665": "\u4e2d\u836f", "3666": "\u5145\u8db3", "3667": "\u84dd", "3668": "\u51c9", "3669": "\u7597\u6cd5", "3670": "\u6551\u547d", "3671": "\u5de5\u4f5c\u91cf", "3672": "\u5de8\u4eba", "3673": "\u6392\u67e5", "3674": "\u8d77\u8df3", "3675": "\u5b66\u5b66", "3676": "\u5c0f\u6c64\u5c71", "3677": "\u4e25\u91cd\u6027", "3678": "\u4ea4\u901a\u8fd0\u8f93", "3679": "\u4e0d\u4fe1\u8c23", "3680": "\u65fa\u65fa", "3681": "\u63cf\u8ff0", "3682": "\u5546\u54c1", "3683": "\u5e02\u653f\u5e9c", "3684": "\u60c5", "3685": "\u76d2\u5b50", "3686": "\u503c", "3687": "\u8111", "3688": "300", "3689": "\u5c3d\u7ba1", "3690": "\u83b7", "3691": "\u73a9\u800d", "3692": "\u5341\u70b9", "3693": "\u6784\u6210", "3694": "\u6cea\u6d41\u6ee1\u9762", "3695": "\u7b2c\u4e09\u6b21", "3696": "\u6ef4\u6ef4", "3697": "\u840c\u840c", "3698": "\u61d2", "3699": "\u6838\u5fc3", "3700": "\u5c4c", "3701": "\u8bb0\u6027", "3702": "\u4e3b", "3703": "\u7741\u773c", "3704": "\u7b80\u4ecb", "3705": "\u65b9", "3706": "\u7f16\u5267", "3707": "\u6570\u91cf", "3708": "\u5f88\u70e6", "3709": "\u5200", "3710": "\u51fa\u7248", "3711": "\u57fa\u5730", "3712": "\u897f\u85cf", "3713": "\u5e72\u8106", "3714": "\u4e00\u5934", "3715": "\u7c97", "3716": "\u00b0", "3717": "\u9898", "3718": "\u5927\u795e", "3719": "\u4e00\u5c81", "3720": "\u6d89\u53ca", "3721": "\u5e05\u6c14", "3722": "\u4e00\u5c0f", "3723": "\u5076\u50cf", "3724": "\u6ca6\u9677", "3725": "\u5929\u4eae", "3726": "\u5171\u6709", "3727": "\u6b3a\u9a97", "3728": "\u978b\u5b50", "3729": "\u5b89\u5229", "3730": "\u9886\u57df", "3731": "\u6e29\u99a8", "3732": "\u89c4\u5219", "3733": "\u6837", "3734": "\u5e38\u89c1", "3735": "\u519c\u4e1a", "3736": "\u6ca1\u5e26", "3737": "\u4e24\u4e09\u4e2a", "3738": "\u773c\u778e", "3739": "\u5904\u7f5a", "3740": "\u4e0d\u914d", "3741": "\u8131\u79bb", "3742": "\u7f3a", "3743": "\u4e08\u592b", "3744": "\u5e73\u8861", "3745": "60%", "3746": "\u56fd\u5e86", "3747": "\u5468\u4e00", "3748": "\u666f\u533a", "3749": "\u6f14\u6280", "3750": "\u7535\u52a8\u8f66", "3751": "\u964d\u6e29", "3752": "\u8f9e\u804c", "3753": "\u597d\u8f6c", "3754": "\u89d2\u5ea6", "3755": "\u6d41\u52a8", "3756": "\u5e7f\u6cdb", "3757": "\u7231\u4e0a", "3758": "\u8eab\u4efd", "3759": "\u9020\u578b", "3760": "\u4fe1\u53f7", "3761": "\u8fd9\u90e8", "3762": "\u5957", "3763": "\u5230\u5bb6", "3764": "\u987b", "3765": "\u6492", "3766": "\u5df2\u6709", "3767": "\u6742\u5fd7", "3768": "\u822a\u73ed", "3769": "\u62db\u6536", "3770": "\u90d1\u5dde", "3771": "\u5a01\u6b66", "3772": "\u5408\u5f71", "3773": "\u8fd9\u7fa4", "3774": "\u7948\u798f", "3775": "\u5316\u5986\u54c1", "3776": "\u804c\u5de5", "3777": "\u9ed1\u540d\u5355", "3778": "\u52a9\u529b", "3779": "\u6350", "3780": "\u4e13\u5bb6\u7ec4", "3781": "\u6218\u4e89\u53f2", "3782": "WHS", "3783": "\u57c3", "3784": "\u9f20\u5e74", "3785": "\u706b\u7bad", "3786": "\u56db\u5929", "3787": "\u4e0a\u8f88\u5b50", "3788": "\u5f71\u5b50", "3789": "\u80dc\u5229", "3790": "\u7406\u667a", "3791": "\u543c", "3792": "\u6210\u5c31", "3793": "\u524d\u540e", "3794": "\u6a21\u6837", "3795": "\u80a1\u7968", "3796": "\u7275\u6302", "3797": "\u843d", "3798": "\u6101", "3799": "\u6e38\u6cf3", "3800": "tmd", "3801": "\u5b66\u671f", "3802": "\u4e00\u53cc", "3803": "\u4e00\u5bb6\u4eba", "3804": "\u611f\u6168", "3805": "\u4eca\u540e", "3806": "\u793c\u62dc", "3807": "\u4e0d\u5f97\u4e86", "3808": "\u5177\u5907", "3809": "\u724c\u5b50", "3810": "\u521b\u610f", "3811": "\u7f13\u89e3", "3812": "\u8d1d", "3813": "\u671d", "3814": "\u989d", "3815": "\u9002\u5f53", "3816": "\u53d1\u5fae\u535a", "3817": "\u53bb\u6b7b\u5427", "3818": "\u8d44\u672c", "3819": "\u7537\u53cb", "3820": "\u5c0f\u5973\u5b69", "3821": "\u4efd", "3822": "\u4e89\u53d6", "3823": "\u4e94\u70b9", "3824": "\u4e0d\u4e45", "3825": "\u4ec5", "3826": "\u4e00\u4e07", "3827": "\u8865\u5145", "3828": "\u6d4b\u91cf", "3829": "\u8eab", "3830": "\u56e0\u7d20", "3831": "\u7a97\u6237", "3832": "\u79f0\u4e3a", "3833": "\u9003", "3834": "\u6f2b\u957f", "3835": "\u503c\u73ed", "3836": "\u4e00\u5305", "3837": "\u6536\u85cf", "3838": "\u543e", "3839": "p", "3840": "\u6491", "3841": "\u751f\u957f", "3842": "\u4e8b\u7269", "3843": "\u4e91", "3844": "\u6d17\u5b8c", "3845": "\u96f6", "3846": "\u5f52", "3847": "\u4e24\u70b9", "3848": "\u606d\u559c", "3849": "\u961f\u4f0d", "3850": "\u52c9\u5f3a", "3851": "\u5931\u843d", "3852": "\u5938", "3853": "\u4e0a\u5347", "3854": "\u592a\u8fc7\u5206", "3855": "\u6392", "3856": "\u8f66\u53a2", "3857": "2015.11", "3858": "\u65e0\u6570", "3859": "\uff0d", "3860": "\u4e00\u4e1d", "3861": "\u8fdd\u6297", "3862": "\u7b28", "3863": "\u9910\u5385", "3864": "\u8010\u9ad8\u6e29", "3865": "\u5403\u836f", "3866": "\u673a\u68b0", "3867": "\u516b\u70b9", "3868": "\u653b\u51fb", "3869": "\u9ec4\u91d1", "3870": "\u5927\u4f17", "3871": "\u4fc4\u519b", "3872": "\u62bd\u70df", "3873": "\u822a\u7a7a", "3874": "\u66dd\u5149", "3875": "amp", "3876": "\u4e3a\u4e3b", "3877": "\u6fa1", "3878": "\u8bc4\u4f30", "3879": "\u5e95\u4e0b", "3880": "\u767d\u8863", "3881": "\u536b", "3882": "\u6392\u9664", "3883": "\u5428", "3884": "\u795d\u613f", "3885": "\u8b66\u544a", "3886": "\u54d0", "3887": "\u6cb3\u5357\u7701", "3888": "\u75ca\u6108", "3889": "\u5317\u56fd", "3890": "\u535a\u62c9", "3891": "\u62a4\u76ee\u955c", "3892": "R1SE", "3893": "\u519b", "3894": "\u73ed\u4e3b\u4efb", "3895": "\u9ed1\u591c", "3896": "\u5b55\u5987", "3897": "\u7978\u5bb3", "3898": "2009", "3899": "\u4e25\u8083", "3900": "\u516c\u6c11", "3901": "\u9053\u6b49", "3902": "\u6e34\u671b", "3903": "\u9178", "3904": "\u53ec\u5f00", "3905": "\u5934\u4e0a", "3906": "\u6216\u662f", "3907": "\u5207", "3908": "\u53d1\u4e2a", "3909": "\u4e00\u5927\u5806", "3910": "\u80f3\u818a", "3911": "\u5355", "3912": "\u5b89\u5b89\u9759\u9759", "3913": "\u770b\u597d", "3914": "\u5b9e\u9645\u4e0a", "3915": "\u55ce", "3916": "\u76f8\u5bf9", "3917": "\u6211\u5fc3", "3918": "SB", "3919": "\u6323", "3920": "\u4e0d\u52a8", "3921": "\u751f\u4e8e", "3922": "\u4ed6\u5988", "3923": "\u51bb\u6b7b", "3924": "\u90fd\u8fd8\u6ca1", "3925": "\u865a\u4f2a", "3926": "\u60c5\u8282", "3927": "\u54c1\u724c", "3928": "\u76f8\u5f53", "3929": "\u56db\u70b9", "3930": "32", "3931": "\u731c", "3932": "\u597d\u611f", "3933": "\u4ece\u800c", "3934": "\u671f\u671b", "3935": "\u5e73\u6de1", "3936": "\u63cd", "3937": "\u8c03", "3938": "\u722c\u8d77\u6765", "3939": "\u4e00\u56de", "3940": "\u60b2\u5267", "3941": "\u6cb9", "3942": "\u4e0b\u4e2a\u6708", "3943": "\u65e0\u610f", "3944": "45", "3945": "\u5348\u89c9", "3946": "\u665a\u4f1a", "3947": "\u70df", "3948": "\u5348\u7761", "3949": "\u4e4b\u7c7b", "3950": "\u635e", "3951": "\u559d\u6c34", "3952": "\u592a\u592a", "3953": "\u2015", "3954": "\u5bb6\u4f19", "3955": "\u8d22\u52a1", "3956": "I", "3957": "\u6700\u4f73", "3958": "\u6fc0\u60c5", "3959": "\u4e0d\u770b", "3960": "\u7403\u5458", "3961": "\u6865", "3962": "\u533b\u8005", "3963": "\u7096", "3964": "\u6c89\u91cd", "3965": "\u5403\u4e2a", "3966": "\u4e00\u5207\u90fd\u662f", "3967": "\u56de\u5f52", "3968": "\u6d3b\u5728", "3969": "\u900f\u9732", "3970": "\u5730\u70b9", "3971": "\u52a0\u5de5", "3972": "\u8981\u547d", "3973": "\u52e4", "3974": "\u6ca1\u5b8c\u6ca1\u4e86", "3975": "\u62a4\u7406", "3976": "\u4f53\u7cfb", "3977": "\u8bba", "3978": "\u79d1\u5ba4", "3979": "\u8bb0", "3980": "\u4f53\u5185", "3981": "\u64b8", "3982": "\u7ef4\u62a4", "3983": "\ud83d\ude04", "3984": "\u7eb8", "3985": "\u770b\u4f3c", "3986": "\u4eb2\u60c5", "3987": "\u6700\u5feb", "3988": "\u5b81\u6ce2", "3989": "\u4f46\u613f", "3990": "\u4e00\u89c9", "3991": "\u5408\u80a5", "3992": "\u6551\u52a9", "3993": "\u95ee\u5019", "3994": "\u51fa\u53bb\u73a9", "3995": "\u8fd9\u5e2e", "3996": "\u4f1a\u8ba1", "3997": "\u540e\u9057\u75c7", "3998": "\u65e7", "3999": "36", "4000": "\u6765\u4e0d\u53ca", "4001": "\u54c8\u6b20", "4002": "\u8de8\u5883", "4003": "\u63e1\u624b", "4004": "\u677f", "4005": "\u5427\u5527", "4006": "\u6253\u8138", "4007": "\u5de5\u4eba", "4008": "\u7ba1\u597d", "4009": "\u536b\u751f\u9632\u62a4", "4010": "\u5eb7\u8f89", "4011": "\u4e0d\u51c6", "4012": "\u4e00\u4e0d\u5c0f\u5fc3", "4013": "\u516d\u70b9", "4014": "\u6c99\u53d1", "4015": "\u957f\u65f6\u95f4", "4016": "\u5de5\u5382", "4017": "\u7fbd\u7ed2\u670d", "4018": "\u6002", "4019": "\u6211\u8be5", "4020": "\u5f88\u4e45\u6ca1", "4021": "\u559c", "4022": "\u5929\u6c14", "4023": "\u5a36", "4024": "\u4e24\u4f4d", "4025": "\u5e8a\u4f4d", "4026": "\u2299", "4027": "\u524d\u53d1", "4028": "\u9f50\u9c81\u665a\u62a5", "4029": "\u4e4b\u89c1", "4030": "\u6c42\u8bc1", "4031": "\u5f53\u5929", "4032": "\u793c\u8c8c", "4033": "\u5403\u8d27", "4034": "\u7ea2\u8272", "4035": "\u5df4\u9ece", "4036": "\u9875", "4037": "\u5c0f\u5fc3\u7ffc\u7ffc", "4038": "400", "4039": "\u5348\u540e", "4040": "\u6050\u6016\u5206\u5b50", "4041": "\u597d\u60f3\u4f60", "4042": "\u5e74\u5e95", "4043": "\u5012\u5165", "4044": "\u821e\u53f0", "4045": "\u5478", "4046": "\u8d81", "4047": "\u4ed4", "4048": "\u4e00\u80a1", "4049": "\u6700\u70e6", "4050": "\u7537\u7968", "4051": "\u535a\u7269\u9986", "4052": "\u76f8\u540c", "4053": "\u75b2\u60eb", "4054": "\u5f88\u60f3", "4055": "\u4f24\u53e3", "4056": "\u62c9\u809a\u5b50", "4057": "\u610f\u89c1", "4058": "\u4f34", "4059": "\u5236\u5b9a", "4060": "\u76f8\u673a", "4061": "\u4e00\u4e70", "4062": "\u5de7\u514b\u529b", "4063": "\u51b0\u7bb1", "4064": "\u6f14\u51fa", "4065": "\u53d1\u8a93", "4066": "\u6700\u591a", "4067": "2008", "4068": "\u5a03\u5a03", "4069": "\u5e7c\u7a1a", "4070": "\u5ba2\u5385", "4071": "\u9752\u5c9b", "4072": "\u5fc3\u5e95", "4073": "\u4e0d\u6210", "4074": "\u5173\u673a", "4075": "\u5e9f\u8bdd", "4076": "\u95f2", "4077": "\u9707\u64bc", "4078": "\u4e50", "4079": "\u8fd9\u5bb6", "4080": "\u90e8\u961f", "4081": "\u5f00\u53e3", "4082": "\u5e7f\u64ad", "4083": "\u4f18\u52bf", "4084": "\u4ec5\u4ec5", "4085": "\u5174\u8da3", "4086": "\u2600", "4087": "\u8fce\u63a5", "4088": "\u53d1\u706b", "4089": "\u5f04\u6e7f", "4090": "\u738b\u51ef", "4091": "\u624e", "4092": "\u5c11\u8bb8", "4093": "\u4e00\u5171", "4094": "\u6b66\u5668", "4095": "\u60c5\u611f", "4096": "\u7279\u5f81", "4097": "\u6e05\u7406", "4098": "\u514b\u670d", "4099": "\u7956\u5b97", "4100": "\u6267\u7740", "4101": "\u6ecb\u5473", "4102": "\u8ba1\u7b97", "4103": "\u4f20\u8bf4", "4104": "\u4e0d\u8d77", "4105": "\u8ffd\u8e2a", "4106": "\u53cd\u6620", "4107": "\u4f53\u68c0", "4108": "\u535a", "4109": "\u5df4\u83f2\u7279", "4110": "\u70e4", "4111": "\u770b\u4e0d\u61c2", "4112": "\u4e2d\u6bd2", "4113": "\u4e00\u767e\u4e07\u4e2a", "4114": "\u753b\u753b", "4115": "\u5ba4\u5185", "4116": "\u809a\u5b50\u75bc", "4117": "\u62a5\u590d", "4118": "\u4e00\u65f6", "4119": "\u94fe\u63a5", "4120": "\u56fd\u4eba", "4121": "sb", "4122": "\u6c89\u7761", "4123": "\u61a8", "4124": "\u97f3\u54cd", "4125": "\u91c7\u8d2d", "4126": "\u5409\u6797", "4127": "\u65b0\u52a0\u5761", "4128": "sars", "4129": "\u5df2\u81f4", "4130": "\u5c01\u5835", "4131": "\u5168\u9762\u94fa\u5f00", "4132": "\u963f\u4e91\u560e", "4133": "\u8d3a", "4134": "\u7ea2\u6885", "4135": "\u4e0a\u706b", "4136": "\u5305\u5bb9", "4137": "\u5b9e\u529b", "4138": "\u5fc3\u5bd2", "4139": "\u597d\u5927", "4140": "\u4e0d\u80fd\u4e0d", "4141": "\u5448", "4142": "o", "4143": "\u9632\u6b62", "4144": "\u518d\u6709", "4145": "\u592a\u5927", "4146": "\u6d4b\u5e8f", "4147": "\u629b\u5f03", "4148": "\u5c0f\u7c73", "4149": "\u5343\u91cc", "4150": "\u8bf4\u4e0d\u51fa", "4151": "\u4fdd\u91cd", "4152": "\u9636\u6bb5", "4153": "\u5468\u6770\u4f26", "4154": "\u53cc\u65b9", "4155": "\u5357\u65b9\u5468\u672b", "4156": "\u8bfb\u8005", "4157": "\u60e8", "4158": "\u6050\u6016\u88ad\u51fb", "4159": "\u6296", "4160": "\u8def\u8fb9", "4161": "\u780d", "4162": "\u7a7f\u8d8a", "4163": "\u5931\u604b", "4164": "\u51bb\u6210", "4165": "\u5206\u914d", "4166": "\u60b2", "4167": "\u8d77\u5230", "4168": "\u5065\u8eab", "4169": "\u7edd", "4170": "\u77ed\u6682", "4171": "\u4e50\u89c2", "4172": "\u4e0d\u6562\u76f8\u4fe1", "4173": "D", "4174": "38", "4175": "\u4f53\u73b0", "4176": "\u8f66\u7978", "4177": "\u8bd5", "4178": "\u70b9\u513f", "4179": "\u8ba4\u8bc1", "4180": "\u54ea\u6837", "4181": "\u773c\u955c", "4182": "\u56de\u5e94", "4183": "\u96be\u602a", "4184": "\u6d41\u7a0b", "4185": "\u5835\u8f66", "4186": "\u4fee\u6539", "4187": "\u6bcf\u665a", "4188": "\u6797", "4189": "\u4f34\u968f", "4190": "\u6e90\u5934", "4191": "\u5403\u706b\u9505", "4192": "\u770b\u51fa", "4193": "\u6708\u4efd", "4194": "\u9ad8\u7ea7", "4195": "\u8eab\u4e3a", "4196": "\u4f55\u65f6", "4197": "\u6652\u592a\u9633", "4198": "\u72af\u7f6a", "4199": "\u5224", "4200": "\u4e27\u5c38", "4201": "\u5634\u91cc", "4202": "\u73a9\u6e38\u620f", "4203": "\u4e3e\u884c", "4204": "\u5927\u591a", "4205": "\u4e0d\u8bba", "4206": "\u591c\u73ed", "4207": "\u5371\u5bb3", "4208": "\u5e7c\u513f\u56ed", "4209": "\u8f6c\u8eab", "4210": "\u811a\u6b65", "4211": "\u6d17\u8863\u673a", "4212": "\u618b\u5c48", "4213": "\u5c42", "4214": "\u5589\u5499\u75db", "4215": "\u634f", "4216": "\u534f\u8c03", "4217": "\u203c", "4218": "\u660e\u65e9", "4219": "\u4f9d\u7a00\u8bb0\u5f97", "4220": "\u4ece\u4e0d", "4221": "\u4ea4\u8b66", "4222": "\u5976\u8336", "4223": "\u8fd4\u56de", "4224": "\u6311\u8845", "4225": "\u54c8\u5c14\u6ee8", "4226": "\u529b\u6c14", "4227": "\u6a21\u578b", "4228": "\u53d4\u53d4", "4229": "\u5584\u610f", "4230": "\u5efa\u7b51", "4231": "\u6fb3\u5927\u5229\u4e9a", "4232": "\u5148\u540e", "4233": "\u4fdd\u9669", "4234": ".......", "4235": "\u87f9", "4236": "\u7ea7\u522b", "4237": "\u5fae\u98ce", "4238": "\u83ab", "4239": "\u5e7f\u4e1c\u7701", "4240": "\u8db3\u534f", "4241": "\u611a\u8822", "4242": "\u548b\u529e", "4243": "\u8def\u53e3", "4244": "\u4e00\u652f", "4245": "\u516b\u4e5d\u70b9\u949f", "4246": "wuli", "4247": "\u8f7b", "4248": "\u6253\u4eba", "4249": "\u5371\u673a", "4250": "007", "4251": "\u5306\u5306", "4252": "\u4e92\u8054\u7f51", "4253": "\u65e0\u79c1", "4254": "\u7535\u5546", "4255": "\u7389\u7c73", "4256": "\u6c14\u6124", "4257": "\u5c0f\u5c0f", "4258": "\u79d1", "4259": "\u5618", "4260": "450", "4261": "\u5c3d\u91cf\u51cf\u5c11", "4262": "\u4e0a\u534a\u5e74", "4263": "\u5c3f\u5e03", "4264": "\u5954\u8d74", "4265": "\u8f7b\u75c7", "4266": "\u552e\u4ef7", "4267": "\u4e0d\u6234", "4268": "\u9996\u6b21", "4269": "\u5c0f\u59d1\u5a18", "4270": "\u4e09\u89c2", "4271": "\u7ed3\u5c3e", "4272": "\u5168\u7a0b", "4273": "\u53d1\u7ed9", "4274": "\u9760\u8fd1", "4275": "\u84b8", "4276": "\u5b89\u68c0", "4277": "\u622a\u56fe", "4278": "\u5e73\u51e1", "4279": "\u751f\u5b58", "4280": "\u5bbd", "4281": "\u597d\u610f\u601d", "4282": "\u56fd\u6c11", "4283": "\u5e73\u65b9\u7c73", "4284": "\u4f7f\u5f97", "4285": "\u76f8\u5e94", "4286": "\u55d3\u5b50", "4287": "\u5316\u5b66", "4288": "\u4e3b\u4eba", "4289": "\u8fdb\u5316", "4290": "\u5f53\u6210", "4291": "\u76f8\u4f3c", "4292": "\u4eba\u5747", "4293": "\u80a5", "4294": "\u4e3b\u6301", "4295": "\u597d\u7d2f", "4296": "\u81ea\u5e26", "4297": "\u901a\u5bb5", "4298": "\u6307\u8d23", "4299": "\u5145\u5206", "4300": "\u5e97\u91cc", "4301": "\u89d2\u843d", "4302": "\u8138\u8272", "4303": "\u53d8\u5f02", "4304": "\u4e0a\u7ebf", "4305": "\u7206\u6599", "4306": "\u6781\u9650", "4307": "\u4eb2\u4eec", "4308": "\u524d\u4e24\u5929", "4309": "\u6b8b\u5fcd", "4310": "\u667a\u80fd", "4311": "\u8ba4\u5b9a", "4312": "\u4e5d\u70b9", "4313": "\u516c\u5b50", "4314": "\u516d", "4315": "\u5341\u5206\u949f", "4316": "\u8bc1\u636e", "4317": "\u6fb3\u6d32", "4318": "\u4e0d\u51fa", "4319": "\u516b\u767e", "4320": "\u62b5\u8fbe", "4321": "\u5bfb\u627e", "4322": "\u7259\u9f7f", "4323": "\u773c\u5149", "4324": "\u94bb", "4325": "\u8868\u767d", "4326": "\u53d9\u5229\u4e9a", "4327": "\u53d1\u58f0", "4328": "\u5c0f\u54e5", "4329": "\u714e\u71ac", "4330": "\u5c0f\u53f7", "4331": "\u7814\u53d1", "4332": "\u5f3a\u8feb\u75c7", "4333": "\u9178\u5976", "4334": "\u5e38\u8bc6", "4335": "\u6253\u9488", "4336": "\u6b7b\u53bb", "4337": "\u770b\u4e2a", "4338": "\u900f", "4339": "\u5e72\u6d3b", "4340": "\u603b\u80fd", "4341": "\u6765\u4e2a", "4342": "\u7761\u610f", "4343": "\u6ce1\u9762", "4344": "\u90a3\u4f4d", "4345": "\u62ff\u51fa", "4346": "\u4e0d\u5728\u4e4e", "4347": "\u591a\u5927", "4348": "\u4ebf", "4349": "\u70ed\u95e8", "4350": "\u8fdb\u5c55", "4351": "\u4fdd\u6696", "4352": "\u5efa", "4353": "\u6606\u660e", "4354": "\u8d1f\u9762", "4355": "\u94f6\u6cb3", "4356": "\u7fa4\u4f53", "4357": "\u5317\u4eac\u5e02", "4358": "\u9ec4\u74dc", "4359": "\u98df\u7528", "4360": "\u5c31\u4e1a", "4361": "\u5206\u5e03", "4362": "\u6b22\u4e50", "4363": "\u20e3", "4364": "\u5948\u4f55", "4365": "\u4f9d\u6cd5", "4366": "\u5954\u8dd1", "4367": "\u949f", "4368": "\u665a\u70b9", "4369": "\u5341\u516b", "4370": "\u4f1a\u513f", "4371": "\u6321", "4372": "\u5c97\u4f4d", "4373": "\u5927\u95e8", "4374": "\u70eb", "4375": "\u7709\u6bdb", "4376": "\u4e0d\u53d1", "4377": "\u591c", "4378": "\u4e0b\u697c", "4379": "\u5e76\u975e", "4380": "\u7bc7", "4381": "\u53e3\u5473", "4382": "\u8d70\u5411", "4383": "\u7535\u6e90", "4384": "\u4e0d\u4f46", "4385": "\u9017\u6211", "4386": "2007", "4387": "\u529b\u5ea6", "4388": "\u54a8\u8be2", "4389": "\u8bd5\u5242\u76d2", "4390": "\u61e6\u5f31", "4391": "\u9996\u6b3e", "4392": "\u6cea\u76ee", "4393": "\u522b\u6765", "4394": "\u6765\u6e90\u4e8e", "4395": "\u65f6\u4e0d\u65f6", "4396": "\u786c\u662f", "4397": "\u590d\u751f", "4398": "56", "4399": "\u575a\u5b88", "4400": "\u5b89\u5fbd\u7701", "4401": "\u6367", "4402": "\u5e02\u957f", "4403": "\u591a\u5bb6", "4404": "\u6015\u6b7b", "4405": "\u4e00\u7b49", "4406": "\u9886\u7a7a", "4407": "\u8001\u5e74\u4eba", "4408": "\u656c\u4f69", "4409": "\u8981\u70b9", "4410": "\u4e2d\u5174", "4411": "\u61a8\u6279", "4412": "\u5189\u5189", "4413": "\u761f\u75ab", "4414": "\u5927\u8fc7\u5e74", "4415": "\u4e07\u4f17\u4e00\u5fc3", "4416": "\u8bc1\u5b9e", "4417": "\u6751\u6c11", "4418": "\u65e0\u6570\u6b21", "4419": "\u73af\u8282", "4420": "\u63a5\u6536", "4421": "\u5305\u88f9", "4422": "\u4e8b\u540e", "4423": "\u5316", "4424": "\u624b\u4e2d", "4425": "\u53ef\u4e0d\u53ef\u4ee5", "4426": "\u7535\u6c60", "4427": "\u82cf\u5dde", "4428": "\u9000\u8d27", "4429": "\u9690\u85cf", "4430": "\u9010\u6e10", "4431": "\u63d0\u5fc3\u540a\u80c6", "4432": "\u5c40", "4433": "\u7259\u75bc", "4434": "\u5411\u524d", "4435": "\u773c\u4e2d", "4436": "\u6545\u969c", "4437": "\u6ca1\u60f3", "4438": "\u6311", "4439": "\u65e0\u5173", "4440": "\u7cae", "4441": "\u676f", "4442": "\u6211\u64cd", "4443": "\u641c\u7d22", "4444": "\u7edf\u8ba1", "4445": "\u738b\u516b\u86cb", "4446": "\u690d\u7269", "4447": "\u5927\u81ea\u7136", "4448": "\u5076", "4449": "\u740a", "4450": "\u8fdc\u65b9", "4451": "\u56fa\u5b9a", "4452": "\u60ca\u614c", "4453": "\u8d70\u8fdb", "4454": "\u8111\u63a7", "4455": "\u798f\u5dde", "4456": "\u5899", "4457": "\u5341\u5929", "4458": "\u5c0d", "4459": "\u840c", "4460": "\u5fd0\u5fd1", "4461": "\u5730\u72f1", "4462": "\u7f51\u8d2d", "4463": "\u306e", "4464": "\u51e0\u5206\u949f", "4465": "\u9ad8\u8ddf\u978b", "4466": "\u5c0f\u5b66\u751f", "4467": "\u70b9\u591a", "4468": "\u574f\u4e8b", "4469": "ps", "4470": "\u9646\u7eed", "4471": "\u4e22\u4eba", "4472": "\u63a8\u51fa", "4473": "\u81ea\u4e60\u5ba4", "4474": "\u767e\u59d3", "4475": "\u547c\u5438\u56f0\u96be", "4476": "\u501f\u94b1", "4477": "\u8d3c", "4478": "\u6ce8\u518c", "4479": "\u6563\u6b65", "4480": "\u4ff1\u4e50\u90e8", "4481": "\u53e8\u53e8", "4482": "\u7f3a\u4e4f", "4483": "\u6291\u5236", "4484": "\u819d\u76d6", "4485": "\u6027\u80fd", "4486": "\u667a\u6167", "4487": "\u5a4a\u5b50", "4488": "\u7537\u4e3b", "4489": "\u7f51\u9875", "4490": "\u5bb6\u65cf", "4491": "\u9884\u8ba1", "4492": "\u533b\u836f", "4493": "\u8ffd\u661f", "4494": "\u72ec\u81ea", "4495": "\u4e00\u8d9f", "4496": "\u519c\u6c11", "4497": "\u826f", "4498": "\u6765\u5f97\u53ca", "4499": "\u83ab\u8fc7\u4e8e", "4500": "\u6307\u671b", "4501": "\u4e0e\u5176", "4502": "\u529e\u7406", "4503": "\u6218\u7565", "4504": "\u51b3\u7b56", "4505": "\u6d17\u51c0", "4506": "\u6362\u6765", "4507": "\u6536\u5165", "4508": "\u5e73\u5e38", "4509": "\u65bc", "4510": "\u64cd\u5fc3", "4511": "\u8fd9\u513f", "4512": "\u6307\u5357", "4513": "\u5237\u5c4f", "4514": "\u810f", "4515": "\u5973\u4e3b", "4516": "\u5c3d\u529b", "4517": "\u6700\u65e9", "4518": "\u905b\u72d7", "4519": "\u4e0d\u4ec5\u4ec5", "4520": "\u8c46\u8150", "4521": "\u5413\u6b7b\u4eba", "4522": "\u52a8\u4e0d\u52a8", "4523": "\u5404\u9879", "4524": "\u67aa", "4525": "\u552f\u6709", "4526": "2011", "4527": "\u4e56", "4528": "\u4e00\u53e3\u6c14", "4529": "\u7b56\u7565", "4530": "\u03c9", "4531": "\u516b", "4532": "\u77f3\u5934", "4533": "\u51c6\u786e", "4534": "\u5fc3\u4e8b", "4535": "\u6211\u5e02", "4536": "\u6c14\u6c1b", "4537": "\u9009\u9879", "4538": "\u5fc3\u5934", "4539": "\u9093\u80af", "4540": "\u9178\u75db", "4541": "\u4e0d\u600e\u4e48", "4542": "__", "4543": "\u6ce8\u610f\u4e8b\u9879", "4544": "\u65af\u79d1\u7279", "4545": "\u75c5\u623f", "4546": "\u4e0d\u8bed", "4547": "\u80e1\u6b4c", "4548": "230", "4549": "\u4e25\u6b63", "4550": "\u4e0a\u699c", "4551": "\u8868\u6001", "4552": "\u533b\u7597\u961f", "4553": "\u6cd5\u5b9a", "4554": "\u98de\u6cab", "4555": "Dear", "4556": "\u6f0f\u62a5", "4557": "1.23", "4558": "5G", "4559": "\u8fdb\u53e3\u8d27", "4560": "\u524d\u5217", "4561": "\u8ba4\u94b1", "4562": "A6vd7HC4", "4563": "A6vnCYr9", "4564": "\u9093\u4f26", "4565": "\u7f57\u4e91\u7199", "4566": "\u6211\u7528", "4567": "\u571f\u8c6a", "4568": "\u5b9e\u8df5", "4569": "\u8054\u5408", "4570": "\u989d\u5934", "4571": "\u8fc7\u4e8e", "4572": "\u751f\u6b7b", "4573": "\u7231\u8fc7", "4574": "\u6342", "4575": "\u80a9\u8180", "4576": "\u4e00\u5df4\u638c", "4577": "\u597d\u6b79", "4578": "\u4eca\u5929\u4e0b\u5348", "4579": "\u63ea\u5fc3", "4580": "\u5173\u952e\u65f6\u523b", "4581": "\u6c49\u5b50", "4582": "\u7a92\u606f", "4583": "\u6211\u5011", "4584": "\u8d39\u52b2", "4585": "\u5f55\u5236", "4586": "\u53d1\u5de5\u8d44", "4587": "\u597d\u75db", "4588": "\u53d1\u98d9", "4589": "\u83e0\u841d", "4590": "\u6ce8\u610f\u529b", "4591": "\u6d88\u9664", "4592": "\u73a9\u7b11", "4593": "\u5b89\u7a33", "4594": "\ud83d\ude1e", "4595": "\u5b85", "4596": "\u5927\u5199", "4597": "\u5973\u53cb", "4598": "\u7b49\u4e8e", "4599": "\u4f86", "4600": "\u8d70\u8d70", "4601": "\u6ca1\u7761", "4602": "\u5929\u7136", "4603": "\u6328", "4604": "\u8c03\u914d", "4605": "\u6bcf\u5f53", "4606": "150", "4607": "\u7edd\u4e0d", "4608": "\u65e0\u6240\u754f\u60e7", "4609": "\u4e0d\u50cf", "4610": "\u53cd\u601d", "4611": "\u5927\u8111", "4612": "\u597d\u96be", "4613": "\u79c1\u4eba", "4614": "\u4fe1\u4ef0", "4615": "\u2463", "4616": "\u8214", "4617": "\u9165", "4618": "\ud83d\ude37", "4619": "\u96c6\u4f53", "4620": "\u4e89\u5435", "4621": "\u660e\u4eae", "4622": "\u997a\u5b50", "4623": "\u4e00\u5c42", "4624": "\u8d76\u811a", "4625": "\u53ef\u4e50", "4626": "get", "4627": "\u5a01\u80c1", "4628": "\u9ed1\u773c\u5708", "4629": "\u5fc5\u7136", "4630": "\u7aef", "4631": "\u64ad\u51fa", "4632": "\u603b\u7b97", "4633": "\u65e9\u65e5\u5eb7\u590d", "4634": "\u6c61\u67d3", "4635": "\u76f8\u518c", "4636": "\u8eab\u540e", "4637": "\u70b9\u534a", "4638": "\u73cd\u8d35", "4639": "\u521b\u4f5c", "4640": "\u5b9a\u4e49", "4641": "\u673a\u5173", "4642": "\u4e94\u5929", "4643": "\u7b2c\u4e00\u4f4d", "4644": "\u6709\u6bd2", "4645": "\u65e0\u60c5", "4646": "\u82cf", "4647": "\u5b88", "4648": "\u5341\u4e00\u6708", "4649": "\u5468\u4e94", "4650": "\u4eae", "4651": "\u53cc\u624b", "4652": "\u597d\u89c9", "4653": "\u5f80\u4e8b", "4654": "\u626b", "4655": "\u7ef4\u6301", "4656": "\u6dfb\u4e71", "4657": "\u6253\u9ebb\u5c06", "4658": "\u63a8\u7279", "4659": "\u4e3b\u6301\u4eba", "4660": "\u5b8c\u5584", "4661": "\u53a8\u623f", "4662": "\u6700\u6700", "4663": "\u597d\u60f3\u54ed", "4664": "\u6c5f\u5357", "4665": "\u5ffd\u89c6", "4666": "\u9080\u8bf7", "4667": "\u7b11\u8bdd", "4668": "\u5bf9\u6297", "4669": "\u8fce\u6765", "4670": "\u6d88\u706d", "4671": "\u4e0d\u5e78", "4672": "\u4ece\u6ca1", "4673": "\u4e2d\u9014", "4674": "\u7ed9\u94b1", "4675": "\u58f3", "4676": "\u4eba\u80fd", "4677": "\u5dee\u8ddd", "4678": "\u6551\u63f4", "4679": "\u5982\u540c", "4680": "\u7814\u7a76\u6240", "4681": "\u80bf\u7624", "4682": "\u63d2", "4683": "\u4e0a\u7f51", "4684": "\u8fd1\u8ddd\u79bb", "4685": "\u540c\u80de", "4686": "\u5b66\u79d1", "4687": "\u751f\u547d\u5b89\u5168", "4688": "\u5c01\u95ed", "4689": "\u54ea\u5929", "4690": "\u5bf9\u624b", "4691": "\u6765\u4e34", "4692": "\u89c4\u8303", "4693": "\u94a2\u7434", "4694": "\u8bbd\u523a", "4695": "\u5a18", "4696": "\u8bca\u65ad", "4697": "\u4e0d\u66fe", "4698": "\u57fa\u4e8e", "4699": "\u8863", "4700": "\u8349\u8393", "4701": "\u5b9a\u70b9", "4702": "\u559c\u4e50", "4703": "\u4e24\u5468", "4704": "\u91ca\u653e", "4705": "\u5e08", "4706": "\u51fb\u843d", "4707": "\u4e4b\u529b", "4708": "\u715e\u7b14", "4709": "\u5357\u660c", "4710": "\u4f8b\u5982", "4711": "\u672c\u5730", "4712": "\u6279", "4713": "\u673a\u5236", "4714": "\u8fd0\u8425", "4715": "\u764c\u75c7", "4716": "\u4e0b\u5df4", "4717": "\u955c", "4718": "\u5f62\u52bf", "4719": "\u9a70\u63f4", "4720": "\u674e\u5170\u5a1f", "4721": "4999", "4722": "\u7ea6\u7ff0\u900a", "4723": "\u9996\u76f8", "4724": "\u7d27\u6025\u72b6\u6001", "4725": "\u503c\u8d85", "4726": "\u8fdb\u53e3\u91cf", "4727": "\u56de\u9f99\u89c2", "4728": "\u5b59\u5b87\u6668", "4729": "\u5348\u9910\u4f1a", "4730": "\u643a\u53f7", "4731": "\u8f6c\u7f51", "4732": "\u6e38\u56ed", "4733": "\u8d85\u58f0", "4734": "\u6bdb\u5766\u5382", "4735": "\u6559\u80b2\u90e8\u95e8", "4736": "\u53eb\u505c", "4737": "\u9752\u74e6\u53f0", "4738": "Musical", "4739": "217", "4740": "\u8bed\u6587", "4741": "\u8eb2\u907f", "4742": "\u968f\u624b", "4743": "\u72ec\u7279", "4744": "\u5730\u4e0b", "4745": "\u77f3\u5bb6\u5e84", "4746": "\u7537\u5973", "4747": "\u72e0\u72e0", "4748": "\u7a81\u5982\u5176\u6765", "4749": "\u7259", "4750": "\u54fc\u54fc", "4751": "\u75af\u5b50", "4752": "\u5f55", "4753": "\u597d\u8fd0", "4754": "\u592a\u51b7", "4755": "\u723d", "4756": "\u66b4\u813e\u6c14", "4757": "\u626f", "4758": "\u6253\u67b6", "4759": "\u597d\u597d\u5b66\u4e60", "4760": "\u4fdd\u7559", "4761": "\u4f3a\u5019", "4762": "\u5947\u5999", "4763": "\u7f8e\u5473", "4764": "\u5458", "4765": "\u4e07\u4eba", "4766": "\u852c\u83dc", "4767": "\u4ea4\u7ed9", "4768": "\u6076\u9b54", "4769": "\u72d7\u5c41", "4770": "\u8ddf\u4e0d\u4e0a", "4771": "\u9019\u6a23", "4772": "\u80c6\u5c0f", "4773": "\u6362\u6210", "4774": "\u571f\u5730", "4775": "\u53d1\u578b", "4776": "\u4e09\u70b9", "4777": "\u81ea\u6740", "4778": "\u53eb\u9192", "4779": "\u4eba\u6765", "4780": "\u5fc3\u673a", "4781": "\u5bf9\u5f97\u8d77", "4782": "\u5b66\u7740", "4783": "\ud83d\ude18", "4784": "\u5403\u571f", "4785": "\u8eab\u6750", "4786": "\u5632\u7b11", "4787": "\u6574\u6574", "4788": "\u62ff\u6765", "4789": "\ufeff", "4790": "\u7535\u5f71\u9662", "4791": "\u4e0a\u8f66", "4792": "\u5dee\u522b", "4793": "\u5f00\u4e2a", "4794": "\u997f\u6b7b", "4795": "\u51b3\u5fc3", "4796": "\u7559\u8a00", "4797": "\u8d1f\u62c5", "4798": "\u6218\u58eb", "4799": "\u51ac\u5b63", "4800": "K", "4801": "\u6b32", "4802": "\u4ea7\u4e1a", "4803": "2004", "4804": "\u63a8\u5e7f", "4805": "\u7ec6\u83cc", "4806": "110", "4807": "\u5916\u754c", "4808": "3000", "4809": "\u9662\u957f", "4810": "\u5f00\u7740", "4811": "\u6211\u4fe9", "4812": "\u54cd", "4813": "\u628a\u624b", "4814": "\u8c22", "4815": "\u4f53\u80b2", "4816": "\u70ed\u5e72\u9762", "4817": "\u6bd4\u4f8b", "4818": "\u6821\u957f", "4819": "\u4e00\u5e2e", "4820": "\u884c\u7a0b", "4821": "\u6e29\u5dde", "4822": "\u505a\u6cd5", "4823": "\u4e0d\u95ee", "4824": "\u65e9\u65e9", "4825": "\u76f8\u4f34", "4826": "\u8001\u4eba\u5bb6", "4827": "\ud83d\udc47", "4828": "\u56f0\u6b7b", "4829": "\u4e00\u540c", "4830": "\u6d88\u505c", "4831": "\u4e13\u7528", "4832": "\u89e3\u8bfb", "4833": "\u4f11\u5047", "4834": "31", "4835": "\ud83d\ude0c", "4836": "\u57fa\u5c42", "4837": "\u897f\u74dc", "4838": "\u7eff", "4839": "\u8fd9\u5f20", "4840": "\u521b\u65b0", "4841": "\u5c16\u53eb", "4842": "\u7834\u4e8b", "4843": "baby", "4844": "\u8fd9\u5ea7", "4845": "\u5c0f\u7ec4", "4846": "\u4f9b", "4847": "\u54b3", "4848": "\u5f97\u6765", "4849": "\u6bd2", "4850": "\u8001\u5934", "4851": "\u5fc3\u601d", "4852": "\u56de\u8001\u5bb6", "4853": "\u804c\u8d23", "4854": "\u808c\u8089", "4855": "Leo", "4856": "\u5f53\u56de\u4e8b", "4857": "\u8206\u8bba", "4858": "\u65e5\u8d77", "4859": "\u7f16\u8f91", "4860": "\u652f\u4ed8\u5b9d", "4861": "\u5973\u5b69\u513f", "4862": "\u5c0f\u53ef\u7231", "4863": "\u7ec4\u957f", "4864": "\u8c0e\u8a00", "4865": "\u5d3d", "4866": "136", "4867": "\u4e36", "4868": "\u79e6\u7687\u5c9b", "4869": "\u8d70\u4eb2\u621a", "4870": "Kun", "4871": "\u843d\u751f", "4872": "\u75c5\u60a3", "4873": "\u9ad8\u53d1", "4874": "\u75be\u63a7\u4e2d\u5fc3", "4875": "\u5076\u9047", "4876": "\u89c1\u8fc7", "4877": "\u5317\u4e0a", "4878": "\u6d6e\u4e91", "4879": "\u8fc7\u4e0d\u53bb", "4880": "\u72b9\u8c6b", "4881": "\u628a\u63e1", "4882": "\u55bd", "4883": "---", "4884": "\u566a\u97f3", "4885": "\u89c2\u5ff5", "4886": "\u987a\u4fbf", "4887": "\u4ee3\u4ef7", "4888": "\u4eba\u6c11\u5e01", "4889": "\u9a6c\u8def", "4890": "\u5237\u65b0", "4891": "\u63f4\u52a9", "4892": "\u62db", "4893": "\u6bdb\u7ebf", "4894": "\u4e3b\u7ba1", "4895": "\u52a0\u901f", "4896": "\u8f6e", "4897": "\u5468\u671f", "4898": "\u5b8c\u86cb", "4899": "\u5316\u5986", "4900": "\u80cc\u666f", "4901": "\u5b98", "4902": "\u8f9b\u8f9b\u82e6\u82e6", "4903": "\u96be\u542c", "4904": "\u6d88\u8d39", "4905": "\u7d27", "4906": "\u4fc4", "4907": "\u60ca\u4eba", "4908": "\u653e\u4e0d\u4e0b", "4909": "\u8d8a\u60f3", "4910": "\u8eab\u9ad8", "4911": "\u53d7\u591f\u4e86", "4912": "\u95ed\u773c", "4913": "\u5c4f\u853d", "4914": "\u597d\u70b9", "4915": "\u62a0", "4916": "\u7136", "4917": "\u5bd2\u5047", "4918": "\u78b0\u4e0a", "4919": "\u4f18", "4920": "\u523b\u610f", "4921": "\u53d1\u6765", "4922": "\u4e00\u5730", "4923": "\u5b89\u88c5", "4924": "\u542c\u4e0d\u61c2", "4925": "\u6e38\u5ba2", "4926": "\u6211\u54e5", "4927": "\u516d\u4e2a", "4928": "\u773c\u770b", "4929": "\u714e", "4930": "\u8d8a\u53d1", "4931": "\u5fcd\u53d7", "4932": "\u6000\u91cc", "4933": "\u809d", "4934": "\u5ffd\u7565", "4935": "\u724c", "4936": "\u5de5\u5177", "4937": "\u66f4\u8981", "4938": "\u7f3a\u5fb7", "4939": "\u60ca\u9b42", "4940": "\u6cb9\u9505", "4941": "\u968f", "4942": "\u5916\u8868", "4943": "\u7eaf\u7cb9", "4944": "\u751f\u6d3b\u8d39", "4945": "\u7f3a\u70b9", "4946": "\u7406\u76f4\u6c14\u58ee", "4947": "\u597d\u6015", "4948": "\u65e0\u826f", "4949": "\u997c\u5e72", "4950": "\u4e0d\u53ca", "4951": "\u770b\u91cd", "4952": "\u5413\u50bb", "4953": "\u8001\u5929\u7237", "4954": "\u64cd\u86cb", "4955": "\u8fd9\u5929", "4956": "\u516c\u5143", "4957": "\u57fa\u56e0", "4958": "\u683c\u5916", "4959": "\u8fd1\u65e5", "4960": "\u8611\u83c7", "4961": "\u5927\u9053", "4962": "\u7535\u89c6\u53f0", "4963": "\u5751\u7239", "4964": "\u6811", "4965": "\u5730\u57df", "4966": "\u6b6a", "4967": "\u514d\u75ab\u529b", "4968": "\u63a8\u8fdb", "4969": "\u9886", "4970": "\u652f\u4ed8", "4971": "\u5ffd\u60a0", "4972": "\u52ff", "4973": "\u56fd\u5bb6\u961f", "4974": "\u51f6", "4975": "\u8f83\u5927", "4976": "\u63d0\u5230", "4977": "\u5904\u5904", "4978": "\u8fc7\u8282", "4979": "\u76f4", "4980": "\u64ad", "4981": "\u4e0d\u901a", "4982": "\u4e00\u4e2a\u591a\u6708", "4983": "fuck", "4984": "\u7533\u901a", "4985": "\u5546\u573a", "4986": "\u4eca\u513f", "4987": "\u6c5f\u82cf\u7701", "4988": "\u666e\u901a\u8bdd", "4989": "\u4e00\u9996", "4990": "\u4e00\u9762", "4991": "\u80cc\u7740", "4992": "\ud83d\ude16", "4993": "\u79d1\u7814", "4994": "\u9ad8\u6e29", "4995": "\u5565\u5b50", "4996": "\u4fc3\u8fdb", "4997": "\u5237\u7259", "4998": "\u8111\u6d77", "4999": "\u5b89", "5000": "\u88c5\u7f6e", "5001": "\u548c\u5e73", "5002": "\u666e\u53ca", "5003": "\u4e00\u6b21\u6b21", "5004": "\u505a\u4e9b", "5005": "\u592a\u665a", "5006": "\u5ba2\u4eba", "5007": "\u6ca1\u94b1", "5008": "\u7559\u7ed9", "5009": "\u9752\u6d77", "5010": "\u76f8\u4eb2", "5011": "\u79cd\u7c7b", "5012": "\u5934\u6761", "5013": "\u5fd7\u613f\u8005", "5014": "\u65e0\u89c6", "5015": "\u6743\u5229", "5016": "\u5e86\u795d", "5017": "\u505c\u6c34", "5018": "\u6863", "5019": "\u679c\u65ad", "5020": "\u603b\u7406", "5021": "\u4f9d\u8d56", "5022": "\u5c41\u4e8b", "5023": "\u5e7f", "5024": "\u5356\u5bb6", "5025": "\u5076\u7136", "5026": "\u7ba1\u7ba1", "5027": "\u2614", "5028": "\u5b66\u672f", "5029": "\u5c4b\u5b50", "5030": "\u67e5\u770b", "5031": "\u4e0d\u5fc5\u8981", "5032": "\u4e00\u8def\u4e0a", "5033": "\u4f73\u4eba", "5034": "\u539f\u5730", "5035": "\u957f\u4e45", "5036": "\u8e0f\u9a6c", "5037": "\u6307\u5b9a", "5038": "\u82b1\u513f", "5039": "\u5f00\u5c55", "5040": "\u52a0\u5927", "5041": "\u5077\u7b11", "5042": "\u6469\u767b", "5043": "\u5404\u5927", "5044": "\u6218\u5f79", "5045": "\u5e74\u591c\u996d", "5046": "\u6768\u5e42", "5047": "\u5165\u9662", "5048": "\u901a\u544a", "5049": "\u4e25\u5cfb", "5050": "\u5bbf\u4e3b", "5051": "\u4e2d\u8001\u5e74\u4eba", "5052": "\u7ba1\u63a7", "5053": "73", "5054": "\u9ad8\u4e09", "5055": "\u6781\u81f4", "5056": "\u56de\u56fd", "5057": "\u918b", "5058": "\u89ba\u5f97", "5059": "\u800c\u8a00", "5060": "\u544a\u767d", "5061": "\u5929\u732b", "5062": "\u5927\u4f1a", "5063": "\u4e00\u665a", "5064": "\u63a2\u7d22", "5065": "\u9898\u76ee", "5066": "\u5e3d\u5b50", "5067": "\u5403\u4e0d\u4e0b", "5068": "\u8d39\u7528", "5069": "md", "5070": "\u540d\u4e49", "5071": "\u8e39", "5072": "\u6b23\u8d4f", "5073": "\u5173\u706f", "5074": "\u63a7", "5075": "\u8d34\u5fc3", "5076": "\u878d\u5316", "5077": "\u8d39", "5078": "\u804a\u5230", "5079": "\u6d17\u8863\u670d", "5080": "\u5011", "5081": "\u6539\u9769", "5082": "\u6765\u5f97", "5083": "\u4f5c\u6587", "5084": "\u8fd9\u4e0b", "5085": "\u53ea\u6c42", "5086": "600", "5087": "\u7f8e\u989c", "5088": "\u7269\u4e1a", "5089": "\u603b\u88c1", "5090": "\u4e50\u961f", "5091": "\u8fd0\u8f6c", "5092": "\u4e4b\u6240\u4ee5", "5093": "\u5230\u8d27", "5094": "\u8fd9\u4eba", "5095": "\u4e0d\u5b9c", "5096": "\u4e3b\u89d2", "5097": "\u8bf4\u771f\u7684", "5098": "\u9664", "5099": "\u6389\u4e0b\u6765", "5100": "\u6025\u6027", "5101": "\u547c", "5102": "\u4f55", "5103": "\u7518\u5fc3", "5104": "cp", "5105": "\u884c\u4e0d\u884c", "5106": "\u52a8\u624b", "5107": "\u5f00\u5934", "5108": "\u4f17\u591a", "5109": "\u7ecf\u5178", "5110": "\u8bb2\u89e3", "5111": "\u9aa8\u5934", "5112": "\u4e00\u96c6", "5113": "\u4e00\u9879", "5114": "\u4f17\u4eba", "5115": "\u4f5c\u51fa", "5116": "\u5185\u6db5", "5117": "\u6848\u4ef6", "5118": "\u4e8c\u5341", "5119": "\u80c3\u53e3", "5120": "\u6028", "5121": "\u4e0d\u5e72", "5122": "\u81f3\u6781", "5123": "\u7406\u6240\u5f53\u7136", "5124": "\u9093\u8d85", "5125": "\u8212\u9002", "5126": "\u8f6c\u8f6c", "5127": "\u56f4\u8116", "5128": "\u4e70\u4e70", "5129": "\u7b2c\u4e8c\u4e2a", "5130": "\u4e09\u5c81", "5131": "\u5747\u5300", "5132": "\ud83d\ude01", "5133": "\u4eba\u58eb", "5134": "\u5730\u9762", "5135": "\u560e\u560e", "5136": "\u5934\u6655", "5137": "\u90a3\u6bb5", "5138": "\u6d1b\u9633", "5139": "\u8bbe\u65bd", "5140": "\u4e00\u811a", "5141": "\u540c\u5fd7", "5142": "\u767b\u5f55", "5143": "\u4eb2\u81ea", "5144": "\u7785", "5145": "\u60ef", "5146": "\u6291\u90c1", "5147": "\u4e49\u52a1", "5148": "\u602a\u4e0d\u5f97", "5149": "\u642d", "5150": "\u55b7\u568f", "5151": "\u8346\u95e8", "5152": "\u7687\u5e1d", "5153": "\u6587\u827a", "5154": "\u4f24\u4e0d\u8d77", "5155": "\u8292\u679c", "5156": "\u6ca1\u5fc3\u6ca1\u80ba", "5157": "\u5676", "5158": "\u96be\u770b", "5159": "\u544a\u522b", "5160": "\u642d\u914d", "5161": "\u800c\u540e", "5162": "\u62b1\u6b49", "5163": "\u7ec8", "5164": "\u987a\u987a\u5229\u5229", "5165": "\u8bbe\u5b9a", "5166": "\u6b67\u89c6", "5167": "\u5904\u5728", "5168": "\u76f8\u6bd4", "5169": "\u73ed\u7ea7", "5170": "\u6297\u62d2", "5171": "\u5728\u5916", "5172": "\u8e72", "5173": "\u5305\u542b", "5174": "\u5403\u6389", "5175": "\u529f\u592b", "5176": "\u5c06\u519b", "5177": "\u6536\u8d39", "5178": "\u9648", "5179": "\u987a\u4e30", "5180": "\u51f3\u5b50", "5181": "\u5e2e\u5e2e", "5182": "\u6df7", "5183": "\u5fc3\u613f", "5184": "\u5218", "5185": "\u5f8c", "5186": "\u7248\u672c", "5187": "\u7d2b", "5188": "\u5e08\u5085", "5189": "\u52a8\u753b", "5190": "\u6709\u8fc7", "5191": "\u73af\u4fdd", "5192": "5000", "5193": "\u5438\u6536", "5194": "\u4e8c\u4ee3", "5195": "\u542b", "5196": "\u90d1", "5197": "\u9e21\u6c64", "5198": "\u6709\u6240", "5199": "\u60f3\u6765", "5200": "\u505a\u70b9", "5201": "\u72e0", "5202": "\u57ce\u533a", "5203": "\u5730\u4f4d", "5204": "\u6e7f", "5205": "\u5c0f\u767d", "5206": "\u591c\u5bb5", "5207": "\u7b7e\u6536", "5208": "\u4f24\u611f", "5209": "\u4eba\u54c1", "5210": "\u5206\u7c7b", "5211": "\u70eb\u4f24", "5212": "\u8df3\u821e", "5213": "\u5408\u683c", "5214": "\u803d\u8bef", "5215": "\u50f5\u5c38", "5216": "\u95e8\u67f1", "5217": "\u6458", "5218": "\u53c2\u8003", "5219": "\u8471", "5220": "\u8001\u8001\u5b9e\u5b9e", "5221": "\u8d77\u4e0d\u6765", "5222": "\u4f53\u8d28", "5223": "\u4e4f\u529b", "5224": "\u9996\u53d1", "5225": "\u8fd9\u7bc7", "5226": "\u540c\u4e00", "5227": "\u5929\u751f", "5228": "\u4e07\u7269", "5229": "\u96be\u5403", "5230": "48", "5231": "\u53f3\u8fb9", "5232": "\u5c55\u793a", "5233": "\u516c\u5171\u573a\u6240", "5234": "\u6ca1\u5f97", "5235": "\u843d\u540e", "5236": "\u5168\u53bf", "5237": "\u575a\u5b88\u5c97\u4f4d", "5238": "\u8f6c\u7ed9", "5239": "\u59d4", "5240": "\u5468\u77e5", "5241": "\u5168\u529b", "5242": "\u63a7\u5236\u4e2d\u5fc3", "5243": "R2WxQOQ", "5244": "830", "5245": "\u6342\u4f4f", "5246": "\u4e2a\u4eba\u536b\u751f", "5247": "\u8bf7\u6218", "5248": "\u674e\u6625\u59ec", "5249": "\u53d1\u89c9", "5250": "\u597d\u597d\u770b", "5251": "\u4e24\u5f20", "5252": "APP", "5253": "\u73a9\u5177", "5254": "\u8bbf\u95ee", "5255": "\u8fc7\u65e5\u5b50", "5256": "\u90e8\u7f72", "5257": "\u7d27\u7d27", "5258": "\u51b7\u6c34", "5259": "\u820d\u5f97", "5260": "\u653e\u624b", "5261": "\u4e61\u6751", "5262": "\u6f47\u6d12", "5263": "\u4e16\u95f4", "5264": "\u5bfc\u6f14", "5265": "\u7814\u5236", "5266": "\u697c\u68af", "5267": "\u6b7b\u6d3b", "5268": "\u9b45\u529b", "5269": "\u641e\u5b9a", "5270": "\u8ba4\u53ef", "5271": "\u80c6\u6218\u5fc3\u60ca", "5272": "\u718f", "5273": "\u65e9\u671f", "5274": "\u7269\u54c1", "5275": "\u4e00\u662f", "5276": "\u5bf9\u5916", "5277": "\u54c1\u79cd", "5278": "\u4e8f", "5279": "\u5168\u5458", "5280": "\u4e0d\u79bb", "5281": "PPT", "5282": "\u51b2\u7a81", "5283": "\u5bd2", "5284": "\u52b2", "5285": "\u9b54", "5286": "\u6253\u5305", "5287": "\u91cd\u8981\u6027", "5288": "\uff05", "5289": "\u256f", "5290": "\u6492\u5a07", "5291": "\u542c\u6b4c", "5292": "\u9664\u975e", "5293": "\u51d1", "5294": "\u5f02\u5730", "5295": "\u7d2f\u6210", "5296": "\u5883\u754c", "5297": "\u518d\u4e5f\u4e0d\u4f1a", "5298": "\u5527\u5527", "5299": "\u8ba1\u7b97\u673a", "5300": "\u77e5", "5301": "\u563f", "5302": "\u59b3", "5303": "\u5927\u7247", "5304": "\u5e73\u5747", "5305": "\u4f4e\u8c03", "5306": "\u8fd8\u6562", "5307": "\u6446\u8131", "5308": "\u7406\u5ff5", "5309": "\u5965", "5310": "\u5f3a\u6c42", "5311": "\u8bc4\u4e3a", "5312": "\u5bd2\u51b7", "5313": "\u4e27\u5fc3\u75c5\u72c2", "5314": "\u597d\u559d", "5315": "\u5b66\u9738", "5316": "\u89c4\u683c", "5317": "\u914d\u5957", "5318": "\u522b\u53bb", "5319": "\u5c06\u4f1a", "5320": "\u4e0b\u96ea\u5929", "5321": "\u5a5a\u7eb1", "5322": "\u81ea\u4e60", "5323": "\u4ece\u4e8b", "5324": "\u517c", "5325": "\ud83d\ude1d", "5326": "\u5956\u52b1", "5327": "2016", "5328": "\u9014\u4e2d", "5329": "\u7adf\u662f", "5330": "\u589e\u957f", "5331": "\u8f7b\u8f7b", "5332": "\u94f6\u884c\u5361", "5333": "\u79bb\u4e0d\u5f00", "5334": "33", "5335": "\u9762\u6761", "5336": "\ud83d\ude23", "5337": "\u603b\u5171", "5338": "\u770b\u4e0d\u8d77", "5339": "\u9769\u547d", "5340": "\u8db3\u4ee5", "5341": "\u968f\u540e", "5342": "\u5e78\u4e8f", "5343": "\u4fdd\u5b9a", "5344": "\u975e\u6d32", "5345": "\ud83d\ude48", "5346": "\u8bdd\u8bed", "5347": "\u6d6a\u8d39\u65f6\u95f4", "5348": "\u4e22\u5931", "5349": "\u6539\u7248", "5350": "\u4e1c\u4eac", "5351": "\u5b89\u7136", "5352": "\u53f7\u7801", "5353": "\u867d\u8bf4", "5354": "\u821e\u8e48", "5355": "\u6d88\u8017", "5356": "\u5e05\u54e5", "5357": "\u5494", "5358": "\u6307\u6325", "5359": "\u8f90\u5c04", "5360": "\u5ea7", "5361": "\u9ad8\u6548", "5362": "\u8fd9\u4e00\u89c9", "5363": "2013", "5364": "\u6309\u65f6", "5365": "\u4eba\u6d41", "5366": "\u52a0\u91cd", "5367": "\u4e0d\u8d1f\u8d23\u4efb", "5368": "\u4eba\u548c\u4e8b", "5369": "\u6ca1\u6536", "5370": "180", "5371": "\u96ea\u82b1", "5372": "\u4e0d\u4e0a", "5373": "\u591a\u70b9", "5374": "\u963b\u6321", "5375": "\u611f\u53f9", "5376": "\u516c\u5b89", "5377": "2012", "5378": "\u6691\u5047", "5379": "\ud83d\ude32", "5380": "\u6ed1", "5381": "\u60a3\u75c5", "5382": "\u8282\u65e5", "5383": "\uff02", "5384": "\u5927\u89c4\u6a21", "5385": "\u4f19\u4f34", "5386": "\u5403\u5b8c\u996d", "5387": "\u6751\u91cc", "5388": "\u96c6\u9526", "5389": "\u5ba0", "5390": "\u65e9\u665a", "5391": "\u54ea\u6709", "5392": "\u6539\u5584", "5393": "\u968f\u7f18", "5394": "quot", "5395": "\u822c", "5396": "\u76d1\u6d4b", "5397": "\u9886\u609f", "5398": "\u5988\u54aa", "5399": "\u5413\u4e00\u8df3", "5400": "\u53e4\u4ee3", "5401": "\u8111\u6b8b", "5402": "\u6d41\u884c", "5403": "\u6027\u547d", "5404": "\u4eba\u8981", "5405": "\u90a3\u5e74", "5406": "\u540c\u6d4e", "5407": "\u5bf9\u6b64", "5408": "\u90d1\u607a", "5409": "\u4e0a\u6d77\u5e02", "5410": "\u653e\u5b66", "5411": "\u95ea\u7535", "5412": "\u5c31\u522b", "5413": "\u9a97\u4eba", "5414": "\u95ed\u9986", "5415": "\u4e00\u7b14", "5416": "\u8b66\u65b9", "5417": "\u8d35\u9633", "5418": "\u5706", "5419": "\u516c\u8def", "5420": "\u90a3\u513f", "5421": "250", "5422": "\u5b9a\u4f4d", "5423": "\u8001\u677f\u5a18", "5424": "\u53d1\u77ed\u4fe1", "5425": "\u7ed3\u819c", "5426": "\u70ed\u70b9", "5427": "\u6d77\u5357\u7701", "5428": "\u8d30", "5429": "\u5185\u8499", "5430": "\u53d1\u56fd\u96be\u8d22", "5431": "\u5168\u6c11", "5432": "\u6170\u95ee", "5433": "\u5df4\u65af", "5434": "75%", "5435": "\u8f7b\u89c6", "5436": "\u56fd\u58eb\u65e0\u53cc", "5437": "\u9b54\u5bfc", "5438": "\u79d1\u7814\u673a\u6784", "5439": "\u6295\u7ed9", "5440": "\u96ea\u5b9d", "5441": "\u5021\u8bae", "5442": "\u8c2d", "5443": "\u5f04\u6b7b", "5444": "\u8d38\u6613", "5445": "\u6a58\u5b50", "5446": "\u6700\u957f", "5447": "\u7237\u7237\u5976\u5976", "5448": "\u517b\u6210", "5449": "\u8a00", "5450": "\u5168\u7701", "5451": "\u7701\u653f\u5e9c", "5452": "\u97e9\u5267", "5453": "\u9f20\u6807", "5454": "\u6700\u6015", "5455": "\u786e\u4fdd", "5456": "2002", "5457": "\ud83c\udf19", "5458": "\u5f00\u68ee", "5459": "\u5c45\u4f4f", "5460": "\u90ae\u4ef6", "5461": "\u4e22\u8138", "5462": "\u79ef\u7d2f", "5463": "\u7f3a\u5c11", "5464": "\u8981\u4e0d\u7136", "5465": "\u4e0d\u53d8", "5466": "\u8f66\u91cc", "5467": "\u5e38\u7528", "5468": "\u5929\u771f", "5469": "\u60f3\u50cf", "5470": "\u56de\u60f3", "5471": "jb", "5472": "\u5929\u624d", "5473": "\u9884\u7ea6", "5474": "\u751c\u751c", "5475": "\u4e0d\u5f03", "5476": "\u592a\u597d", "5477": "\u70ab\u8000", "5478": "\u591a\u6570", "5479": "\u66b4\u9732", "5480": "\u8fd0\u7528", "5481": "\u5fc3\u8df3", "5482": "\u5168\u6751", "5483": "\u5178\u578b", "5484": "\u91d1\u5c5e", "5485": "\u4f5b", "5486": "\u6ee1\u8138", "5487": "\u9891\u7e41", "5488": "\u4e00\u756a", "5489": "\u5171\u5ea6", "5490": "\u6563", "5491": "\u5510", "5492": "\u996e\u98df", "5493": "\u793e\u4ea4", "5494": "\u591a\u4e8b", "5495": "\u8fde\u63a5", "5496": "54", "5497": "\u9ed1\u5fc3", "5498": "\u5f3a\u884c", "5499": "S", "5500": "\u540e\u7eed", "5501": "\u4e00\u53d1", "5502": "\u7cbe", "5503": "\u521a\u770b", "5504": "bb", "5505": "\u64c5\u957f", "5506": "\u7b2c\u4e09", "5507": "\u5730\u8bf4", "5508": "\u906d\u9047", "5509": "\u9009\u62e9\u6027", "5510": "\u6e05\u6d17", "5511": "\u5927\u6d77", "5512": "\u5927\u7ea6", "5513": "\u7b7e", "5514": "\u6c14\u6e29", "5515": "\u4e60", "5516": "\u7ed5", "5517": "\u8f66\u5b50", "5518": "\u5b9e\u62cd", "5519": "\u6709\u70b9\u513f", "5520": "\u5750\u5730\u94c1", "5521": "\u4e0a\u4e0b\u73ed", "5522": "\u4e2a\u4f53", "5523": "\u70ed\u6c34", "5524": "\u8bb2\u8ff0", "5525": "\u6545", "5526": "\u6597\u4e89", "5527": "\u4e0d\u5149", "5528": "\u653e\u5230", "5529": "\u54c1\u8d28", "5530": "\u7a9d\u706b", "5531": "\u6295\u5165", "5532": "\u4e00\u65e5", "5533": "\u540e\u5929", "5534": "\u53f2\u4e0a", "5535": "\u62b5\u6297", "5536": "\u7565", "5537": "\u4e0d\u7ecf\u610f", "5538": "\u6ca1\u6765", "5539": "\u6905\u5b50", "5540": "\u79bb\u522b", "5541": "\u795e\u70e6", "5542": "\u7b11\u7b11", "5543": "\u543b", "5544": "........", "5545": "\u5230\u624b", "5546": "\u70b9\u5f00", "5547": "\u7a81\u51fa", "5548": "\u5267\u672c", "5549": "\u7172", "5550": "\u4e88\u4ee5", "5551": "\u4e0b\u624b", "5552": "<", "5553": "boss", "5554": "\u8944\u9633", "5555": "\u5730\u677f", "5556": "\u4eba\u53bb", "5557": "\u5341", "5558": "\u6b21\u6570", "5559": "\u516c", "5560": "\u597d\u7b11", "5561": "\u4f9b\u5e94", "5562": "\u5bfc\u5e08", "5563": "\u5404\u7ea7", "5564": "\u8fd9\u4e8b", "5565": "\u7eaf", "5566": "\u73bb\u7483\u5fc3", "5567": "\u2464", "5568": "\u53ef\u7b11", "5569": "\u9759", "5570": "\u7528\u529b", "5571": "\u5367\u5ba4", "5572": "\u65e0\u6761\u4ef6", "5573": "\u59d3", "5574": "\u505a\u4f5c\u4e1a", "5575": "\u9a9a\u6270", "5576": "\u9999\u6e2f\u961f", "5577": "\u672c\u80fd", "5578": "\u91ce\u751f", "5579": "\u4e8c\u4eba", "5580": "\u547d\u4ee4", "5581": "\u884c\u8d70", "5582": "\u6b8b\u9177", "5583": "\u89c2\u70b9", "5584": "\u8a00\u8bba", "5585": "\u80e1\u601d\u4e71\u60f3", "5586": "\u505a\u9898", "5587": "\u8b93", "5588": "\u4e8b\u6545", "5589": "\u6781\u54c1", "5590": "\u5c3d\u91cf\u5c11", "5591": "\u6c89\u6d78", "5592": "\u5bb6\u95e8\u53e3", "5593": "\u6c11\u95f4", "5594": "\u63a5\u7535\u8bdd", "5595": "\u4e00\u5fc3", "5596": "\u592a\u5e73", "5597": "\u63a2\u4eb2", "5598": "\u603b\u90e8", "5599": "\u62a5\u540d", "5600": "G", "5601": "\u59ff\u52bf", "5602": "\u8fc7\u5934", "5603": "\u8fd9\u4f1a", "5604": "\u79e6", "5605": "\u524d\u4e00\u5929", "5606": "\u7f51\u6613", "5607": "\u56a3\u5f20", "5608": "\u7b14\u8bb0", "5609": "EMS", "5610": "\u5c40\u90e8", "5611": "\u5370\u5ea6", "5612": "\u5728\u5185", "5613": "\u6218\u573a", "5614": "\u89e3\u9664", "5615": "\u836f\u54c1", "5616": "\u6015\u6015", "5617": "\u653b\u7565", "5618": "\u827a\u4eba", "5619": "\u51ef\u6587", "5620": "\u5468\u516d", "5621": "\u5f81\u670d", "5622": "\u653e\u8840", "5623": "\u9633\u6027", "5624": "\u836f\u5242", "5625": "\u6307\u51fa", "5626": "po", "5627": "\u5b9e", "5628": "\u70e4\u8089", "5629": "\u7ea2\u5305", "5630": "\u9ec4\u4eba", "5631": "\u63a5\u9001", "5632": "\u957f\u53d1", "5633": "\u521b\u4f24", "5634": "\u6613\u611f", "5635": "\u5931\u804c", "5636": "\u63a8\u6d4b", "5637": "\u4fe1\u9633", "5638": "\u4e16\u754c\u536b\u751f\u7ec4\u7ec7", "5639": "\u4eba\u7978", "5640": "\u7701\u4efd", "5641": "\u5927\u592b", "5642": "\u5f97\u75c5", "5643": "\u5750\u6807", "5644": "\u518d\u6218", "5645": "\u8bca\u7597", "5646": "\u4e09\u8054", "5647": "DADA", "5648": "\u56e2\u805a", "5649": "UNINE", "5650": "\u9648\u8fea", "5651": "Winston", "5652": "\u4fa0", "5653": "\u6d6a\u91cc", "5654": "\u8d64\u6761", "5655": "\u7c97\u6797", "5656": "199501", "5657": "\u8d56\u51a0\u9716", "5658": "nCoV", "5659": "\u63a5\u8bca", "5660": "\u738b\u4fca\u51ef\u76ca", "5661": "\u592a\u7d2f", "5662": "\u53d1\u5149", "5663": "\u77e5\u4e0d\u77e5\u9053", "5664": "\u51cc\u4e71", "5665": "\u6781\u4e86", "5666": "\u8d76\u5230", "5667": "\u96be\u71ac", "5668": "\u8d8b\u52bf", "5669": "\u5766\u7136", "5670": "\u559c\u60a6", "5671": "\u8363\u8000", "5672": "\u51e0\u70b9", "5673": "\u62ce", "5674": "\u4e8c\u6b21", "5675": "\u591a\u597d", "5676": "1998", "5677": "\u6253\u96ea\u4ed7", "5678": "\u4e4b\u5185", "5679": "\u4f4e\u4e8e", "5680": "\u53ef\u89c1", "5681": "\u753b\u98ce", "5682": "\u6309\u6469", "5683": "\u90e8\u4f4d", "5684": "\ud83d\udc94", "5685": "\u540c\u684c", "5686": "\u8003\u5b8c", "5687": "\u57fa\u672c\u4e0a", "5688": "\u5468\u56db", "5689": "\u73e0\u6d77", "5690": "\u4e8b\u6001", "5691": "\u54ce\u54df", "5692": "\u4e8c\u80ce", "5693": "\u5b50\u5973", "5694": "\u90a3\u573a", "5695": "\u4e5f\u7f62", "5696": "\u673a\u5668", "5697": "\u8c03\u8282", "5698": "\u65e0\u6570\u4e2a", "5699": "\u95fb", "5700": "\u5f88\u5c0f", "5701": "\u5012\u8ba1\u65f6", "5702": "\u9752", "5703": "\u5341\u4e03\u5e74", "5704": "\u6253\u9020", "5705": "\u679c\u771f", "5706": "\u666e\u4eac", "5707": "\u5b97\u6559", "5708": "\u4e00\u6ce2", "5709": "\u665a\u81ea\u4e60", "5710": "\u627e\u56de", "5711": "\u6ca1\u7535", "5712": "\u53ef\u6068", "5713": "\u547c\u547c", "5714": "\u5b66\u8005", "5715": "\u73ed\u957f", "5716": "\u6781", "5717": "\u6539\u4e0d\u4e86", "5718": "\u4e00\u53f0", "5719": "\u961f\u957f", "5720": "39", "5721": "\u5927\u4e8e", "5722": "\u5f53\u4ee3", "5723": "\u5f20\u56fe", "5724": "\u5170\u5dde", "5725": "\u751a", "5726": "\u6211\u521a", "5727": "\u6b7b\u5211", "5728": "\u70ed\u95f9", "5729": "\u9884\u671f", "5730": "\u540c\u60c5", "5731": "\u6c38\u8fdc\u90fd\u662f", "5732": "\u6559\u4f1a", "5733": "\u707f\u70c2", "5734": "\u96e8\u5929", "5735": "\u67dc\u5b50", "5736": "\u591a\u4e00\u70b9", "5737": "\u6d41\u6d6a", "5738": "\u4ee5\u5916", "5739": "\u7ee7\u627f", "5740": "\u5949\u732e", "5741": "shi", "5742": "\u4f10", "5743": "\u6838\u9178", "5744": "\u6d17\u8138", "5745": "\u5916\u52a0", "5746": "\u6ce8\u91cd", "5747": "\u6e05\u6c34", "5748": "\u8c28\u614e", "5749": "\u7acb\u6cd5", "5750": "\u96f6\u4e0b", "5751": "\u987a\u5176\u81ea\u7136", "5752": "\u8fd8\u7279", "5753": "\u538c\u6076", "5754": "\u536b\u751f\u95f4", "5755": "\u4e00\u5343", "5756": "\u571f\u8c46", "5757": "\u591a\u79cd", "5758": "\u597d\u813e\u6c14", "5759": "\u5927\u57ce\u5e02", "5760": "\u5b66\u5386", "5761": "\u4e0d\u77e5\u6240\u63aa", "5762": "\u5e9f\u7269", "5763": "\u4e00\u6b65\u6b65", "5764": "\u6eda\u6eda", "5765": "\u65f6\u800c", "5766": "\u8fa3\u6912", "5767": "\u6d17\u6d17", "5768": "\u4e3b\u4f53", "5769": "\u5341\u516b\u5c81", "5770": "\u53d1\u7968", "5771": "\u9006\u884c", "5772": "\u9019", "5773": "\u53f6\u5b50", "5774": "\u4eba\u529b", "5775": "\u4eba\u529b\u8d44\u6e90", "5776": "\u5ac1", "5777": "\u82b1\u56ed", "5778": "\u75db\u5fc3", "5779": "\u591a\u6708", "5780": "\u5954\u6ce2", "5781": "\u97e9", "5782": "\u6587", "5783": "\u4eb2\u5bc6", "5784": "\u5783\u573e\u6876", "5785": "\u8377\u5170", "5786": "\u8f93\u6db2", "5787": "\u5e73\u65b9\u516c\u91cc", "5788": "\u9662", "5789": "\u5448\u73b0", "5790": "\u51e0\u5f20", "5791": "\u8bd5\u56fe", "5792": "\u9a6c\u6765\u897f\u4e9a", "5793": "\u5f00\u82b1", "5794": "\u87d1\u8782", "5795": "\u522e", "5796": "\u5916\u89c2", "5797": "\u4e00\u74f6", "5798": "\u8bed\u6c14", "5799": "\u534e\u4e3a", "5800": "\u89e3\u6563", "5801": "\u53d4", "5802": "\u6dd8\u6c70", "5803": "\u8d2a\u5a6a", "5804": "\u5927\u849c", "5805": "\u5c3a\u5bf8", "5806": "\u541e", "5807": "\u80e1\u841d\u535c", "5808": "\u665a\u7761", "5809": "\u6208\u58c1", "5810": "\u5c38\u4f53", "5811": "\u6211\u957f", "5812": "\u53f6", "5813": "\u5fc5\u6709", "5814": "\u59d4\u5458", "5815": "\u4e8b\u9879", "5816": "\u5e8a\u5355", "5817": "\u5348\u9910", "5818": "\u4eba\u591a", "5819": "\u5251", "5820": "\u5355\u66f2", "5821": "\u5199\u4f5c", "5822": "\u5f88\u7d2f", "5823": "\u8868\u683c", "5824": "\u4e0d\u592a\u597d", "5825": "\u81ea\u4ee5\u4e3a\u662f", "5826": "\u6d41", "5827": "\u53cd\u9988", "5828": "E", "5829": "\u9002\u7528", "5830": "\u642d\u7406", "5831": "120", "5832": "\u62b9", "5833": "\u6e2f", "5834": "\u4e1c\u65b9", "5835": "\u9738\u6c14", "5836": "\u8eab\u5fc3", "5837": "\u51b0", "5838": "\u76ee\u5149", "5839": "\u7b2c\u4e00\u6761", "5840": "\u6027\u522b", "5841": "\u68c0\u9a8c", "5842": "\u9ebb\u8fa3", "5843": "\u5e74\u5ea6", "5844": "\u6751\u59d4\u4f1a", "5845": "\u7c97\u66b4", "5846": "\u4ece\u5c0f\u5230\u5927", "5847": "\u4e00\u4e00", "5848": "\u6dfb\u5835", "5849": "\u62d4", "5850": "\u6709\u7a7a", "5851": "\u6454\u5012", "5852": "\u6307\u6807", "5853": "\u7c73\u996d", "5854": "\u7ea6\u4f1a", "5855": "\u8461\u8404", "5856": "\u6765\u88ad", "5857": "\u70b9\u540d", "5858": "\u7ee7", "5859": "\u524d\u63d0", "5860": "\u597d\u51e0\u5e74", "5861": "\u53d1\u653e", "5862": "\u4e0d\u53ef\u601d\u8bae", "5863": "\u5565\u4e8b", "5864": "\u4e4b\u5fc3", "5865": "\u604b", "5866": "\u997c", "5867": "\u8fc7\u5f80", "5868": "\u6709\u673a", "5869": "\u89c1\u8bc6", "5870": "\u914d", "5871": "\u4e13\u8f91", "5872": "\u4e0a\u4e0b", "5873": "\u8ff7\u5931", "5874": "\u4e1d\u6beb", "5875": "\u4e8c\u7ea7", "5876": "\u7eb7\u7eb7", "5877": "\u9e21\u5df4", "5878": "\u5e78\u798f\u611f", "5879": "\u989c", "5880": "\u7cbd", "5881": "\u829d\u58eb", "5882": "\u4f20\u67d3\u6e90", "5883": "\u6d17\u4e2a", "5884": "\u8346\u5dde", "5885": "\u8bd5\u7740", "5886": "\u6635\u79f0", "5887": "\u5c0f\u5c9b", "5888": "\u788e\u89c9", "5889": "\u6599", "5890": "\u7ef4\u4fee", "5891": "\u5916\u56fd", "5892": "\u611f\u6fc0", "5893": "\u5de6\u624b", "5894": "\u76d1\u7ba1", "5895": "\u8981\u7d27", "5896": "\u4ed7", "5897": "\ud83d\ude20", "5898": "\u827a\u8003", "5899": "\u5343\u5343\u4e07\u4e07", "5900": "\u4e70\u83dc", "5901": "\u63a8\u8fdf", "5902": "\u504f", "5903": "01", "5904": "\u975e\u6cd5", "5905": "\u5bd2\u5fc3", "5906": "\u5927\u5b9d", "5907": "\u7518\u8083", "5908": "\u4f20\u7ed9", "5909": "\u5415\u8d1d\u514b", "5910": "\u737e", "5911": "\u9648\u7acb\u519c", "5912": "\u767d\u8863\u6218\u58eb", "5913": "\u5de5\u4fe1\u90e8", "5914": "\u52a8\u5458", "5915": "\u4fdd\u5b9a\u5e02", "5916": "\u5965\u6b21", "5917": "\u754c", "5918": "\u7761\u68a6\u4e2d", "5919": "\u5c3d\u5934", "5920": "\u5927\u98ce", "5921": "\u4e00\u76d2", "5922": "\u603b\u6709\u4e00\u5929", "5923": "\u6253\u724c", "5924": "\u679c\u5b9e", "5925": "\u62a5\u9500", "5926": "\u4eba\u6d3b", "5927": "\u56f4\u5dfe", "5928": "\u4e0d\u63a5", "5929": "\u9ad8\u51b7", "5930": "\u5b9d\u8d1d\u513f", "5931": "\u4e07\u80fd", "5932": "\u5b59\u5b50", "5933": "\u4e00\u76c6", "5934": "\u8001\u592a\u592a", "5935": "1.5", "5936": "\u7231\u662f", "5937": "\u9ebb\u6728", "5938": "\u5b9a\u4ef7", "5939": "\u7ae5\u5e74", "5940": "\u989c\u503c", "5941": "\u62c5\u5f53", "5942": "\u5220\u6389", "5943": "\u91d1\u94b1", "5944": "\u6253\u8f66", "5945": "\u8d1f\u8d23\u4eba", "5946": "\u5e74\u95f4", "5947": "\u599e", "5948": "\u65e0\u80fd", "5949": "\u5c45", "5950": "\u56e2\u7ed3", "5951": "\u6709\u5fc3", "5952": "\u529f\u6548", "5953": "\u9884\u6848", "5954": "\u591a\u540d", "5955": "\u4e00\u6a21\u4e00\u6837", "5956": "\u8c61", "5957": "\u6062\u590d\u6b63\u5e38", "5958": "\u67d4\u8f6f", "5959": "\u767e", "5960": "\u610f\u5927\u5229", "5961": "\u5c82", "5962": "\u7405", "5963": "\u6211\u6d3b", "5964": "\u4f18\u8d28", "5965": "\u5206\u4e0d\u6e05", "5966": "\u8ff7\u60d1", "5967": "\u8bb2\u9053\u7406", "5968": "\u662f\u975e", "5969": "\u8bb0\u8f7d", "5970": "\u4e0d\u73a9", "5971": "\u5375", "5972": "\u53e3\u8bed", "5973": "\u7b56\u5212", "5974": "\u80fd\u5e72", "5975": "\u5708\u5708", "5976": "\u5bb5\u591c", "5977": "\u822c\u7684", "5978": "\u8fdd\u6cd5", "5979": "\u8be5\u6751", "5980": "\u5fc5", "5981": "\u70e6\u4e0d\u70e6", "5982": "\u53cc\u773c\u76ae", "5983": "\u505a\u9519", "5984": "\u5927\u706b", "5985": "\u90a3\u6761", "5986": "\u5355\u8bcd", "5987": "\u4e4b\u4e0b", "5988": "\u4e00\u95f4", "5989": "\u5750\u4e0b", "5990": "\u6d88\u8d39\u8005", "5991": "\u5f25\u8865", "5992": "\u8bc6\u522b", "5993": "\u770b\u4e00\u770b", "5994": "OMG", "5995": "\u51fa\u4e8b", "5996": "\u559c\u6b61", "5997": "\u4e0d\u81f3\u4e8e", "5998": "\u25bd", "5999": "\u4e0a\u6620", "6000": "\u864e", "6001": "\u6839", "6002": "\u5e72\u6270", "6003": "\u6ca1\u610f\u601d", "6004": "\u51fa\u4e2a", "6005": "\u8054\u901a", "6006": "\u754f\u7f29", "6007": "\u76d1\u72f1", "6008": "cnm", "6009": "\u798f\u5229", "6010": "\u6b63\u89c4", "6011": "\u65e0\u8bba\u5982\u4f55", "6012": "\u4e00\u70b9\u513f", "6013": "\u521b\u5efa", "6014": "\u9762\u4e34", "6015": "80%", "6016": "\u8ff7\u8ff7\u7cca\u7cca", "6017": "\u7559\u610f", "6018": "\ud83d\udc7b", "6019": "\u65e0\u7f18\u65e0\u6545", "6020": "low", "6021": "\u6210\u5206", "6022": "\u5982\u56fe", "6023": "\u53cd\u7701", "6024": "\u80a0\u80c3", "6025": "\u6b22\u559c", "6026": "xx", "6027": "\u5768", "6028": "\u4e00\u5473", "6029": "\u8fd9\u65f6", "6030": "\u7747", "6031": "\u8bbe\u7acb", "6032": "\u7f8a\u6c34", "6033": "\u5c3d\u53ef\u80fd", "6034": "\u51cf\u8f7b", "6035": "\u52a8\u6f2b", "6036": "\u5730\u94c1\u7ad9", "6037": "\u4f38\u624b", "6038": "\u514d\u75ab", "6039": "\u5404\u79cd\u5404\u6837", "6040": "\u57ab", "6041": "\u6c6a", "6042": "\u8bbe", "6043": "\u7f8a\u8089", "6044": "\u8bc9\u8bf4", "6045": "\u5413\u574f", "6046": "sei", "6047": "\u4e00\u6765", "6048": "\u5fc3\u60ca\u80c6\u6218", "6049": "\u7d27\u7f3a", "6050": "\u5b98\u50da", "6051": "\u4e00\u624b", "6052": "\u8fd9\u9996", "6053": "\u9065\u8fdc", "6054": "\u56de\u4e8b", "6055": "\u624b\u518c", "6056": "\u5403\u70b9", "6057": "\u7b2c\u4e94", "6058": "\u8fb9\u4e0a", "6059": "\u624b\u5957", "6060": "\u7b77\u5b50", "6061": "\u706b\u6c14", "6062": "2005", "6063": "\u4e92\u52a8", "6064": "\u9001\u6765", "6065": "\u5a74\u513f", "6066": "\u65bd\u5de5", "6067": "\u8bbe\u6709", "6068": "\u5982\u4e0b", "6069": "\u6700\u5c0f", "6070": "high", "6071": "\u75d8", "6072": "\u4e00\u7ec4", "6073": "\u65f6\u5e38", "6074": "\u539f\u59cb", "6075": "\u9762\u5b50", "6076": "\u5e72\u90e8", "6077": "\u6bcf\u6bcf", "6078": "\u5f3a\u8feb", "6079": "\u4e0d\u7981", "6080": "\u624b\u8868", "6081": "\u5929\u5730", "6082": "\u51e0\u628a", "6083": "\u516c\u65a4", "6084": "\u54a6", "6085": "\u5b89\u9038", "6086": "\u7269\u79cd", "6087": "\u5408\u7167", "6088": "\u70b9\u70b9", "6089": "\u53ef\u60b2", "6090": "\u9b3c\u7247", "6091": "\u4e09\u4e9a", "6092": "\u65b0\u4eba", "6093": "\u673a\u5668\u4eba", "6094": "\u7ec4\u6210\u5458", "6095": "\u6ce2\u52a8", "6096": "\u5bbd\u5bb9", "6097": "\u70ed\u7231", "6098": "\u590f", "6099": "\u8bd7\u4eba", "6100": "\u6253\u5370", "6101": "\u706b\u661f", "6102": "\u5e26\u6709", "6103": "\u751c\u871c", "6104": "\u6f6e\u6e7f", "6105": "\u770b\u6cd5", "6106": "\u67da\u5b50", "6107": "\u575a\u4fe1", "6108": "\u5bbd\u5e26", "6109": "\u793e\u4f1a\u4e3b\u4e49", "6110": "\ud83d\udc49", "6111": "\u8054\u60f3", "6112": "\u8d26\u6237", "6113": "\u62b5\u6297\u529b", "6114": "\u5916\u56fd\u4eba", "6115": "\u70b9\u51fb", "6116": "\u5408\u540c", "6117": "\u770b\u6e05", "6118": "\u5634\u89d2", "6119": "\u8de8", "6120": "\u732a\u8089", "6121": "\u903c\u771f", "6122": "\u731b", "6123": "\u4e2d\u6709", "6124": "\u6d45", "6125": "\u5927\u817f", "6126": "\u7b11\u5bb9", "6127": "\u4e38\u5b50", "6128": "\u59dc", "6129": "\u7259\u9f88", "6130": "\u624b\u5fc3", "6131": "\u4fca\u6770", "6132": "\u5ba2", "6133": "\u5986", "6134": "\u4e0d\u4fbf", "6135": "\u4e45\u8fdd", "6136": "\u57fa\u91d1", "6137": "\u5207\u65ad", "6138": "\u53cd\u5bf9", "6139": "\u8138\u7ea2", "6140": "\u6df7\u4e71", "6141": "\u53ef\u9760", "6142": "\u6587\u7269", "6143": "\u80a1\u5e02", "6144": "\u90e8\u957f", "6145": "\u8d85\u60f3", "6146": "\u9996\u6b4c", "6147": "\u9644\u5c5e", "6148": "\u3044", "6149": "\u4f53\u5f81", "6150": "\u5e7f\u7535", "6151": "\u8d23\u4efb\u611f", "6152": "\u958b\u5fc3", "6153": "\u5ba4", "6154": "\u6d41\u8840", "6155": "\u65b0\u751f", "6156": "\u8f66\u7968", "6157": "\u52df\u6350", "6158": "\u6709\u5e8f", "6159": "\u4e61\u9547", "6160": "\u5409\u7965", "6161": "\u8f6c\u8fd0", "6162": "\u7ebd\u7ea6", "6163": "\u62a4\u536b\u961f", "6164": "\u53ef\u80fd\u6027", "6165": "\u95e8\u7968", "6166": "\u4eb2\u53cb", "6167": "\u8fdb\u51fa", "6168": "\u5ba1\u6838", "6169": "\u505a\u8d77", "6170": "\u6743\u5a01", "6171": "\u6cbb\u75c5", "6172": "\u51ef\u65cb", "6173": "\u8fd4\u4e61", "6174": "CDC", "6175": "\u7af9\u9f20", "6176": "\u5c01\u57ce\u540e", "6177": "\u8d1f\u91cd", "6178": "\u738b\u5609\u5c14", "6179": "\u53f7\u53ec", "6180": "\u5ea6\u8fc7\u96be\u5173", "6181": "473", "6182": "\u67e5\u8bc1", "6183": "n95", "6184": "\u674e\u5b50", "6185": "\u7269\u7406", "6186": "\u5546\u4e1a", "6187": "\u9e21\u8840", "6188": "\u6069", "6189": "\u89e3\u8bf4", "6190": "\u8bdd\u8d39", "6191": "\u7269", "6192": "\u5ba2\u89c2", "6193": "\u5065\u8eab\u623f", "6194": "\u5341\u4e00\u70b9", "6195": "\u592a\u8fc7", "6196": "\u72d7\u65e5", "6197": "\u521b\u529e", "6198": "\u79d1\u76ee", "6199": "\u597d\u5e05", "6200": "\u79cb\u5929", "6201": "\u8c46", "6202": "\u90a3\u53e5\u8bdd", "6203": "\u81ea\u5351", "6204": "\u4f60\u5011", "6205": "\u5f62\u72b6", "6206": "\u6b4c\u66f2", "6207": "\u6d12", "6208": "\u9a7e\u9a76", "6209": "\u665a\u9910", "6210": "100%", "6211": "\u706f\u5149", "6212": "\u6700\u6df1", "6213": "\u53e4\u4eba", "6214": "\u7cbe\u795e\u75c5", "6215": "\u4f53\u8c05", "6216": "\u7bb1\u5b50", "6217": "\u897f\u5357", "6218": "\u98d8", "6219": "\u4e2d\u901a", "6220": "\u5fc3\u5b89", "6221": "\u672c\u8d28", "6222": "\u72af\u8d31", "6223": "\u632b\u6298", "6224": "\u6211\u59d0", "6225": "\u70df\u82b1", "6226": "\u523a", "6227": "\u50bb\u74dc", "6228": "\u5929\u5802", "6229": "\u597d\u6bd4", "6230": "\u7ae0", "6231": "\u514b\u5236", "6232": "\u8bb8\u4e45", "6233": "\u5c4b", "6234": "\u5e26\u9886", "6235": "\u672b", "6236": "\u4e4b\u65c5", "6237": "\u7740\u60f3", "6238": "\u56fa\u6267", "6239": "\u5f53\u573a", "6240": "\u8783\u87f9", "6241": "\u77f3\u6cb9", "6242": "\u4e94\u5341", "6243": "\u667a\u9f7f", "6244": "\u5f53\u505a", "6245": "\u751f\u6015", "6246": "130", "6247": "\u7f62\u5de5", "6248": "\u53fc", "6249": "\u6253\u7740", "6250": "\u4fdd\u4fee", "6251": "\u559d\u5b8c", "6252": "\u5c0a\u4e25", "6253": "\u72d7\u5e26", "6254": "\u5564\u9152", "6255": "\u6349", "6256": "\u9ad8\u5cf0", "6257": "\u65e0\u7ebf", "6258": "\u6b27\u5df4", "6259": "\u4e0b\u5468", "6260": "\u770b\u96ea", "6261": "\u5f00\u6c34", "6262": "\u5230\u65f6\u5019", "6263": "\u62c9\u5c4e", "6264": "\u77e5\u540d", "6265": "\u72ee\u5b50", "6266": "\u573a\u9762", "6267": "\u6c89\u6dc0", "6268": "\u9ad8\u5c42", "6269": "\u706b\u8f66\u7968", "6270": "\u4e03\u5e74", "6271": "OK", "6272": "\u4fbf\u5229", "6273": "\u4e00\u5206", "6274": "\u6696\u548c", "6275": "\u4e54", "6276": "\u666f\u8272", "6277": "\u5341\u4e2a", "6278": "\u5976\u6cb9", "6279": "\u4e50\u8da3", "6280": "\u8d70\u51fa", "6281": "\u5413\u9192", "6282": "\u762b\u75ea", "6283": "\u6c14\u5f97", "6284": "\u5f69\u6392", "6285": "\u90a3\u70b9", "6286": "\u96e8\u58f0", "6287": "\u60f3\u5bb6", "6288": "\u8fa3\u9e21", "6289": "\u6b63\u7ecf", "6290": "\u5c42\u9762", "6291": "\u6253\u62db\u547c", "6292": "\u5ff5\u5934", "6293": "\u6050\u6015", "6294": "\u767d\u83dc", "6295": "\u661f\u5149", "6296": "w", "6297": "\u4e8c\u5e74", "6298": "\u867e", "6299": "\u8ba8\u597d", "6300": "\u7535\u4fe1", "6301": "\u996e\u6599", "6302": "\u9000\u51fa", "6303": "\u6ca1\u5b8c", "6304": "\u4e94\u5206\u949f", "6305": "\u7eff\u5316", "6306": "\u63a8\u9500", "6307": "\u4e0d\u820d", "6308": "\u82cd\u8747", "6309": "\u5b8c\u540e", "6310": "\u5806", "6311": "\u95e8\u524d", "6312": "\u8650\u5fc3", "6313": "\u771f\u6709", "6314": "\u6708\u5e95", "6315": "\u53e3\u8154\u6e83\u75a1", "6316": "\u5c11\u6570", "6317": "\u79cd\u79cd", "6318": "\u6076\u52a3", "6319": "\u8e22\u7403", "6320": "\u5145\u7535\u5668", "6321": "\u500b", "6322": "\u5fc3\u610f", "6323": "\u6279\u8bc4", "6324": "\u4f53\u5236", "6325": "\u6247", "6326": "\u5341\u4e8c", "6327": "\u4e00\u809a\u5b50", "6328": "\u8fd9\u4f1a\u513f", "6329": "\u7f51\u901f", "6330": "\u5410\u8840", "6331": "\u6050\u60e7\u611f", "6332": "\u7f18", "6333": "\u9003\u8bfe", "6334": "\u8c08\u8bdd", "6335": "\u6703", "6336": "\u5927\u7c73", "6337": "\u771f\u591f", "6338": "\u7f57", "6339": "\u53d8\u66f4", "6340": "\u96be\u5fd8", "6341": "\u4e2d\u6587", "6342": "\u8bc1\u4e66", "6343": "\u524d\u671f", "6344": "\u5b89\u5b89", "6345": "\u8702\u871c", "6346": "\u600e", "6347": "\u80fd\u5426", "6348": "\u5de7\u5408", "6349": "\u5927\u4e0d\u4e86", "6350": "\u4e0d\u670d", "6351": "\u6253\u626b", "6352": "\u8981\u94b1", "6353": "\u6c14\u8d28", "6354": "\u6253\u626e", "6355": "\u534f\u52a9", "6356": "\u7eff\u8272", "6357": "\u4e70\u56de\u6765", "6358": "\u9ad8\u6821", "6359": "\u5145", "6360": "\u9879", "6361": "\u98df\u6b32", "6362": "\u521d\u5fc3", "6363": "PS", "6364": "\u7f51\u6c11", "6365": "\u6559\u80b2\u90e8", "6366": "\u756a\u8304", "6367": "\u9f3b\u585e", "6368": "\u805a", "6369": "\u6b63\u9762", "6370": "\u8d70\u5f00", "6371": "\u8d27\u8f66", "6372": "\u5927\u4e09", "6373": "\u4e54\u6cbb", "6374": "\u9102\u5dde", "6375": "\u4e9a\u6d32", "6376": "\u6d3e\u51fa\u6240", "6377": "360", "6378": "\u5931\u8e2a", "6379": "\u6ca1\u4eba\u7ba1", "6380": "\u81ea\u5bb6", "6381": "\u652f\u6491", "6382": "\u5723\u8bde", "6383": "\u4e00\u4e07\u53ea", "6384": "\u4f18\u5148", "6385": "\u5f15\u5bfc", "6386": "\u9996\u90fd", "6387": "\u914d\u5907", "6388": "\u5706\u6ee1", "6389": "\u4e8c\u697c", "6390": "\u51b0\u96ea", "6391": "\u7e41\u534e", "6392": "\u6295", "6393": "\u897f\u836f", "6394": "\u81ea\u613f", "6395": "\u6881", "6396": "\u9ed8\u9ed8\u5730", "6397": "\u67d0\u67d0", "6398": "\u540e\u671f", "6399": "\u884c\u8f66", "6400": "\u5976", "6401": "\u5c31\u884c", "6402": "\u4e2d\u90e8", "6403": "\u7f6a", "6404": "\u6628\u5929\u4e0b\u5348", "6405": "\u8111\u58f3", "6406": "\u5168\u9760", "6407": "\u5bb3\u4eba", "6408": "\u6df1\u60c5", "6409": "\u4ee3\u7801", "6410": "\u673a\u52a8\u8f66", "6411": "O", "6412": "\u5e26\u6211\u53bb", "6413": "37", "6414": "\u0ca5", "6415": "\u4e43", "6416": "\u6c5f\u897f\u7701", "6417": "\u73b0\u72b6", "6418": "l", "6419": "`", "6420": "\u59d4\u6258", "6421": "\u9632\u5fa1", "6422": "i", "6423": "\u7b2c\u4e00\u90e8", "6424": "\u51e0\u53e5", "6425": "\u9003\u8dd1", "6426": "\u667a\u969c", "6427": "\u5927\u81f4", "6428": "51", "6429": "\u5176\u4f59", "6430": "\u60c5\u666f", "6431": "\u535a\u5ba2", "6432": "\u5f53\u4f5c", "6433": "\u76f4\u547c", "6434": "\u63d0\u5021", "6435": "\u7ef4\u751f\u7d20", "6436": "\u9020", "6437": "\u6253\u4e0d\u5f00", "6438": "\u8dea\u6c42", "6439": "\u64ad\u62a5", "6440": "\u51b7\u98ce", "6441": "\u6025\u9700", "6442": "\u5bb9", "6443": "\u53ef\u8d35", "6444": "\u538b\u6839", "6445": "\u656c\u754f", "6446": "\u624b\u7eed\u8d39", "6447": "\u6fc0\u7d20", "6448": "\u6fb3\u95e8", "6449": "\u57fa\u5efa", "6450": "\u63d0\u9ad8\u8b66\u60d5", "6451": "SZ", "6452": "\u56fd\u6cf0\u6c11\u5b89", "6453": "\u516c\u5171\u4ea4\u901a", "6454": "bot", "6455": "\u5957\u73b0", "6456": "\u7ba1\u946b", "6457": "Sam", "6458": "\u6e21\u8fc7\u96be\u5173", "6459": "\u75be\u63a7", "6460": "\u79bb\u6c49", "6461": "\u5171\u514b", "6462": "\u64a4\u6863", "6463": "\u72c2\u7761", "6464": "\u7403\u8ff7", "6465": "\u5e01", "6466": "\u53ef\u7528", "6467": "\u73b0\u91d1", "6468": "\u521d\u6b65", "6469": "\u5b89\u5b9a", "6470": "\u706b\u5927", "6471": "\u5e73\u7b49", "6472": "\u661f\u671f\u4e00", "6473": "\u6390\u6b7b", "6474": "90%", "6475": "\u65b0\u4e61", "6476": "\u8270\u8f9b", "6477": "\u5143\u7d20", "6478": "\u671f\u9650", "6479": "\u84dd\u5929", "6480": "\u5b81\u9759", "6481": "\u9887", "6482": "\u6df1\u5165", "6483": "\u809a\u5b50\u997f", "6484": "\u6210\u5e74", "6485": "\u7741\u4e0d\u5f00", "6486": "\u6d41\u9f3b\u6d95", "6487": "\u536b\u89c6", "6488": "\u7acb", "6489": "\u7275\u624b", "6490": "\u5c9b", "6491": "\u996d\u5e97", "6492": "\u90ae\u7bb1", "6493": "\u8d85\u4eba", "6494": "\u521b\u4e1a", "6495": "\u5176\u6b21", "6496": "\u4ea7\u91cf", "6497": "\u62e7", "6498": "\u4e00\u56e2", "6499": "\u6743\u529b", "6500": "\u63d2\u961f", "6501": "\u73ed\u4e0a", "6502": "MLGB", "6503": "\u7792", "6504": "\u5c0f\u5929\u4f7f", "6505": "\u5de6\u8fb9", "6506": "\u79cd\u5b50", "6507": "\u7b54", "6508": "\u519b\u4e8b", "6509": "\u4e66\u7c4d", "6510": "\u7a97\u53e3", "6511": "\u51fa\u58f0", "6512": "k", "6513": "\u6b23\u6170", "6514": "\u6b63\u5982", "6515": "\u6c14\u6b7b\u6211", "6516": "\u5f3a\u5ea6", "6517": "\u542c\u8bfe", "6518": "\u521d\u604b", "6519": "\u521d\u671f", "6520": "\u9884\u544a", "6521": "\u81ea\u8d23", "6522": "\u9192\u8fc7\u6765", "6523": "\u4e4b\u4e0a", "6524": "\u9006\u5929", "6525": "\u9189\u9189", "6526": "\u772f", "6527": "\u96a7\u9053", "6528": "\u6f0f", "6529": "\u697c\u9053", "6530": "\u516d\u70b9\u534a", "6531": "\u53d1\u9709", "6532": "\u7f8e\u5143", "6533": "\u4e2d\u4ecb", "6534": "\u53d1\u5446", "6535": "\u4e0d\u5f53", "6536": "\u91c7\u96c6", "6537": "\u542c\u5f97", "6538": "\u65c5\u9014", "6539": "\u6c1b\u56f4", "6540": "\u751f\u7269\u949f", "6541": "\u51c6\u65f6", "6542": "\u6e05\u65b0", "6543": "\u6d47", "6544": "\u4f20\u6765", "6545": "\u6bdb\u6bdb", "6546": "\u8001\u864e", "6547": "\u68a6\u4e2d", "6548": "\u88ab\u8f66\u649e", "6549": "\u672a\u66fe", "6550": "\u998b", "6551": "\u5c4f", "6552": "\u94fa", "6553": "\u508d\u665a", "6554": "\u516c\u4e3e", "6555": "\u8fdf\u65e9", "6556": "\u662f\u6211\u592a", "6557": "\u5c0f\u72d7", "6558": "ID", "6559": "\u5e08\u5144", "6560": "\u9f3b\u6d95", "6561": "\u591a\u559d\u6c34", "6562": "\u7cdf", "6563": "\ud83d\udc4d", "6564": "\u6728", "6565": "\u597d\u65e5\u5b50", "6566": "\u7ffb\u8eab", "6567": "\u91cd\u91cf", "6568": "\u4e2d\u5171", "6569": "\u6708\u5149", "6570": "\u4e00\u4e07\u4e2a", "6571": "\u7535\u53f0", "6572": "\u68a8", "6573": "\u68ee", "6574": "\u6d17\u7897", "6575": "\u5fc3\u529b\u4ea4\u7601", "6576": "\u88c5\u5907", "6577": "\u5df4", "6578": "\u8001\u5b9e", "6579": "\u5435\u5435", "6580": "\u5b89\u5b81", "6581": "\u5654", "6582": "\u4f59", "6583": "\u771f\u8ba9\u4eba", "6584": "\u8f6f", "6585": "\u6a21\u4eff", "6586": "\u78d5", "6587": "\u4e0d\u8fdc", "6588": "\u9084\u662f", "6589": "\u7231\u62a4", "6590": "\u505c\u8fd0", "6591": "\u79cd\u690d", "6592": "\u7b2c\u56db", "6593": "\u968f\u5373", "6594": "\u5168\u65b0", "6595": "\u901a\u4fe1", "6596": "\u545b", "6597": "\u6765\u5f80", "6598": "\u5355\u5b50", "6599": "\u6f5c\u5728", "6600": "\u5510\u5c71", "6601": "\u6bd5\u4e1a\u751f", "6602": "\u4e09\u661f", "6603": "\u90aa\u6559", "6604": "\u96ea\u666f", "6605": "\u6253\u7403", "6606": "\u5426\u5b9a", "6607": "\u8bef\u4f1a", "6608": "\u5c0f\u5403", "6609": "\u964d", "6610": "\u65e0\u7f18", "6611": "\u5e97\u94fa", "6612": "NND", "6613": "\u84dd\u8272", "6614": "\u534e\u5357", "6615": "\u4e70\u7968", "6616": "\u4e00\u5206\u94b1", "6617": "\u98ce\u96e8", "6618": "\u5bd2\u98ce", "6619": "\u8fc7\u6ee4", "6620": "\u4e00\u671f", "6621": "\u957f\u957f\u7684", "6622": "\u5c0f\u738b\u5b50", "6623": "\u6863\u6848", "6624": "\u63c9", "6625": "\u586b", "6626": "\u96ea\u5730", "6627": "\u4e00\u7ad9", "6628": "\u5360\u7528", "6629": "\u4e00\u81f4", "6630": "\u79e9\u5e8f", "6631": "\u8700\u9ecd", "6632": "98", "6633": "\u505c\u4e0b", "6634": "\u4e00\u52a8\u4e0d\u52a8", "6635": "\u5c31\u591f", "6636": "\u8dcc", "6637": "\u83b7\u53d6", "6638": "\u51a0\u519b", "6639": "\u8c03\u76ae", "6640": "\u2220", "6641": "\u4e09\u79cd", "6642": "\u6211\u53d1", "6643": "\u8be1\u5f02", "6644": "\u5e26\u5230", "6645": "\u5bb6\u95e8", "6646": "\u8f93\u51fa", "6647": "\u5fe7\u8651", "6648": "\u53d1\u52a8\u673a", "6649": "\u7a00\u996d", "6650": "\u76f8\u805a", "6651": "\u5bfa", "6652": "\u4e00\u6708", "6653": "\u5b9e\u7528", "6654": "\u4e1d\u5e26", "6655": "\u4e00\u95e8", "6656": "F", "6657": "\u4e3e\u63aa", "6658": "\u60c5\u6000", "6659": "\u4f7f\u52b2", "6660": "\u8d50", "6661": "\u7ae5\u8bdd", "6662": "\u9f99", "6663": "\ud83d\udca4", "6664": "\u6e9c", "6665": "\u76f8\u7ee7", "6666": "\u6253\u547c\u565c", "6667": "\u8336\u53f6", "6668": "\u4e07\u8fbe", "6669": "\u98de\u884c", "6670": "\u4ed6\u4f1a", "6671": "\u8d27\u5e01", "6672": "\u5ab3\u5987", "6673": "\u5962\u671b", "6674": "\u8ffd\u5c3e", "6675": "\u5c0f\u578b", "6676": "\u5ba0\u7269", "6677": "\u4e0a\u5468", "6678": "\u8ff7\u7cca", "6679": "\u7a7a\u4e2d", "6680": "\u534e\u4e3d", "6681": "\u5145\u65a5", "6682": "\u5815\u843d", "6683": "\u6709\u592a\u591a", "6684": "\u5351\u5fae", "6685": "\u7559\u4e0b\u6765", "6686": "\u592a\u5c0f", "6687": "\u6252", "6688": "\u4e3b\u4e49", "6689": "\u5192\u51fa\u6765", "6690": "\u5ef6\u7eed", "6691": "\u5c71\u4e1c\u7701", "6692": "\u9996\u6279", "6693": "\u72c2\u72ac\u75c5", "6694": "\u524d\u9014", "6695": "\u5e03\u7f6e", "6696": "\u907f\u5f00", "6697": "\u5e95", "6698": "\u7a7f\u8fc7", "6699": "\u6253\u8d25", "6700": "\u6076\u6bd2", "6701": "\u542b\u6709", "6702": "\u5fc3\u5f62", "6703": "\u51e0", "6704": "\u80c6\u5b50", "6705": "\u4ed6\u4fe9", "6706": "\u5587\u53ed", "6707": "\u5eb7\u590d", "6708": "\u565c", "6709": "\ud83c\udf3b", "6710": "\u66a7\u6627", "6711": "\u89e3\u51b3\u95ee\u9898", "6712": "\u51ac\u65e5", "6713": "\u4e58\u5750", "6714": "\u5b8b", "6715": "\u6c47\u62a5", "6716": "\u7528\u624b", "6717": "\u671f\u76fc", "6718": "\u666e\u904d", "6719": "\u6b27\u9633", "6720": "\u6b65\u884c", "6721": "\u6d59\u6c5f\u7701", "6722": "\u6469\u6258\u8f66", "6723": "53", "6724": "\u610f", "6725": "\u820c\u5934", "6726": "\u4e1d", "6727": "\u5375\u7528", "6728": "\u5f3a\u5316", "6729": "\u56e2\u5706", "6730": "\u8868\u626c", "6731": "\u67e5\u8be2", "6732": "\u514d\u75ab\u7cfb\u7edf", "6733": "\u6392\u7ec3", "6734": "\u672c\u60f3", "6735": "\u552f\u72ec", "6736": "\u65f6\u5c1a", "6737": "\u4e2d\u4e1c", "6738": "\u706d", "6739": "\u503e\u8bc9", "6740": "\u72af\u9519", "6741": "\u5e7f\u7535\u603b\u5c40", "6742": "\u51fa\u4e8e", "6743": "\u7855\u58eb", "6744": "\u4e0d\u582a", "6745": "\u5934\u9876", "6746": "\u5f00\u5de5", "6747": "\u4e0a\u6da8", "6748": "\u5e02\u533a", "6749": "\u9ebd", "6750": "\u5927\u56fd", "6751": "08", "6752": "\u53d7\u60ca\u5413", "6753": "\u4e09\u53e3", "6754": "\u6bdb\u9aa8\u609a\u7136", "6755": "\u4f9d\u636e", "6756": "\u5fc3\u5e73\u6c14\u548c", "6757": "\u4e61\u4e0b", "6758": "\u79c1\u5bb6\u8f66", "6759": "\u8fd0\u52a8\u4f1a", "6760": "\u82b1\u82b1", "6761": "\u675c\u7edd", "6762": "\u6811\u4e0a", "6763": "\u5996", "6764": "\u5a92\u4f53\u62a5\u9053", "6765": "\u6015\u51b7", "6766": "\u4e07\u4e07", "6767": "\u957f\u6625", "6768": "\u53f3\u624b", "6769": "\u5e8a\u57ab", "6770": "\u6211\u5f1f", "6771": "\u6210\u90fd\u5e02", "6772": "\u819c", "6773": "\u9e7f", "6774": "\u6c14\u5019", "6775": "\u505c\u6b47", "6776": "\u5f85\u9047", "6777": "\u540a", "6778": "\u5230\u5904\u8dd1", "6779": "\u95ee\u8d23", "6780": "\u6df1\u5ea6", "6781": "\uff65", "6782": "\u728a\u5b50", "6783": "\u5f20\u5634", "6784": "\u6350\u52a9", "6785": "\u4f7f\u8005", "6786": "\u5b66\u533b", "6787": "\u9f50\u5fc3\u534f\u529b", "6788": "\u5b5d\u611f", "6789": "Cr", "6790": "\u6d88\u89c9", "6791": "\u786c\u6838", "6792": "\u6e0e\u804c", "6793": "ACFC", "6794": "\u75ab\u75c5", "6795": "\u8ffd\u8d23", "6796": "\u52a1\u5fc5", "6797": "\u8f7b\u91cf\u5316", "6798": "CALL", "6799": "\u66f4\u591a\u4eba", "6800": "\u785d\u70df", "6801": "PizzaForLai", "6802": "\u539f\u6709", "6803": "\u98de\u884c\u5458", "6804": "\u5c3d\u5168\u529b", "6805": "\u9a91\u7740", "6806": "\u5411\u5f80", "6807": "\u4e0d\u987a\u5fc3", "6808": "\u7559\u7740", "6809": "\u9ad8\u79d1\u6280", "6810": "\u5c45\u591a", "6811": "\u54c7\u585e", "6812": "\u4fae\u8fb1", "6813": "\u88ab\u52a8", "6814": "\u5f98\u5f8a", "6815": "\u4fee\u517b", "6816": "\u8d29\u5356", "6817": "\u8bf1\u60d1", "6818": "\u5708\u91cc", "6819": "\u4e66\u6cd5", "6820": "\u57cb", "6821": "MV", "6822": "\u6574\u5bb9", "6823": "\u5377\u5b50", "6824": "\u603c", "6825": "\u7ed3\u8bba", "6826": "\u52a8\u7269\u56ed", "6827": "\u767d\u4e91", "6828": "\u5c0f\u96e8", "6829": "\u5f88\u56f0", "6830": "\u55a7\u56a3", "6831": "\u5bbe\u9986", "6832": "\u6bcf\u4e00\u4ef6", "6833": "\u672a\u89c1", "6834": "\u6676\u4f53", "6835": "\u8003\u751f", "6836": "\u5f80\u524d\u8d70", "6837": "\u65b0\u7248", "6838": "\u79bb\u5a5a", "6839": "\u6bcf\u6708", "6840": "\u6d3b\u4e0b\u53bb", "6841": "\u538b\u60ca", "6842": "\u8be2\u95ee", "6843": "\u256e", "6844": "\u8d62\u5f97", "6845": "\u75d2", "6846": "\u4ef7\u503c\u89c2", "6847": "\u4e3b\u6f14", "6848": "\u9a6c\u6876", "6849": "\u51cf", "6850": "\u4f1a\u60f3", "6851": "\ud83c\udf43", "6852": "\u5b66\u4e1a", "6853": "\u6ee1\u8111\u5b50", "6854": "\u9a74", "6855": "\u5904\u7f6e", "6856": "\u5973\u58eb", "6857": "\u4e00\u5904", "6858": "\u52a0\u5feb", "6859": "\u5e74\u521d", "6860": "\u6c11\u56fd", "6861": "\u65e0\u8bdd\u53ef\u8bf4", "6862": "\u4e00\u5e26", "6863": "\u6574\u665a", "6864": "\u7269\u4f53", "6865": "\u72b6", "6866": "\u540e\u4eba", "6867": "\u52a8\u9759", "6868": "\u884c\u674e", "6869": "\u98df", "6870": "\u548c\u5c1a", "6871": "\u4f5c\u5bb6", "6872": "\u6709\u529b", "6873": "\u6162\u6027", "6874": "\u4e5d\u6c5f", "6875": "\u8363\u8a89", "6876": "\u6ce1\u6cab", "6877": "\u5b8c\u4e8b", "6878": "\u5750\u8f66", "6879": "\u672c\u79d1", "6880": "\u90a3\u53e5", "6881": "\u5347", "6882": "\u771f\u5f97", "6883": "\u95ed", "6884": "\u5f88\u4e45", "6885": "\u8179\u6cfb", "6886": "\u59a5\u534f", "6887": "\u8bf4\u670d", "6888": "\u987a\u5e8f", "6889": "\u53e8", "6890": "\u559d\u9189", "6891": "\u7801", "6892": "\u6d17\u6f31", "6893": "\u7f8e\u5bb9", "6894": "\u60b2\u60e8", "6895": "\u75db\u6068", "6896": "\u661f", "6897": "\u5473\u513f", "6898": "\u7eaa\u5f55\u7247", "6899": "\u767b", "6900": "\u9a9a", "6901": "\u9732\u51fa", "6902": "\u7816", "6903": "\u591a\u60f3", "6904": "\u505c\u4e0b\u6765", "6905": "\u542c\u542c", "6906": "\u7ea2\u706f", "6907": "\u524d\u4efb", "6908": "\u9ebb\u5c06", "6909": "1992", "6910": "\u6ca1\u4e8b\u513f", "6911": "\u7387", "6912": "\u623f\u4ef7", "6913": "\u624b\u81c2", "6914": "\u6539\u6210", "6915": "\u5fd2", "6916": "\u5c3e\u5df4", "6917": "\u6539\u9020", "6918": "\u4e0b\u573a", "6919": "\u8fc7\u763e", "6920": "\u4e0d\u7ba1\u600e\u6837", "6921": "\u72e0\u5fc3", "6922": "\u505c\u8f66\u573a", "6923": "\u56e4", "6924": "\u8bba\u575b", "6925": "\u88ad\u51fb", "6926": "\u4e0a\u7ea7", "6927": "\u540e\u53f0", "6928": "\u4e0d\u4e89\u6c14", "6929": "\u821e", "6930": "\u5f97\u4ee5", "6931": "\ud83c\udf38", "6932": "\u809a\u5b50\u75db", "6933": "\u5012\u4e0b", "6934": "\u6148\u5584", "6935": "\u58f0\u660e", "6936": "\u6643", "6937": "\u77a7", "6938": "\u4e4c\u9f9f", "6939": "\u96be\u6c11", "6940": "\u5973\u738b", "6941": "\u7b49\u7ea7", "6942": "\u663e\u7136", "6943": "\u8fc8\u51fa", "6944": "\u5c01\u9501", "6945": "\u6000\u7740", "6946": "\u901a", "6947": "\u6587\u5b66", "6948": "\u9171\u6cb9", "6949": "\u6291\u90c1\u75c7", "6950": "\u771f\u7231", "6951": "\u5c31\u884c\u4e86", "6952": "\u65e0\u5fc3", "6953": "\u4e0d\u591a", "6954": "\u4e00\u679a", "6955": "\u7814\u7a76\u9662", "6956": "\u53f0\u8bcd", "6957": "\u6caa", "6958": "\ud83d\ude03", "6959": "\u4e00\u65b9\u9762", "6960": "\u60c5\u613f", "6961": "\u53cb\u8c0a", "6962": "\u670d\u52a1\u5458", "6963": "\u597d\u6000\u5ff5", "6964": "\u517b\u6b96", "6965": "\u5c0f\u9898\u5927\u505a", "6966": "\u5f71\u89c6", "6967": "\u6d3e\u4ef6", "6968": "\u5bfc\u822a", "6969": "\u9a7e\u7167", "6970": "\u8db4", "6971": "\u8fde\u73af", "6972": "\u6c41", "6973": "\u5feb\u6765", "6974": "\u771f\u7406", "6975": "\u539f\u521b", "6976": "\u541e\u566c", "6977": "\u70e7\u70e4", "6978": "\u6237", "6979": "\u897f\u7ea2\u67ff", "6980": "\u5c0f\u54c1", "6981": "\u56f0\u6270", "6982": "\u9986", "6983": "\u4e8b\u5b9e\u4e0a", "6984": "\u6d77", "6985": "\u6599\u9152", "6986": "\u8a00\u8bed", "6987": "\u8fbe\u6210", "6988": "\u5217\u8f66", "6989": "\u5987\u5973", "6990": "\u591a\u4f59", "6991": "\u5408\u5e76", "6992": "\u7231\u8c46", "6993": "\u5e94\u63f4", "6994": "\u51fa\u8eab", "6995": "\u7cae\u98df", "6996": "\u5047\u5982", "6997": "\u4e27\u5c3d\u5929\u826f", "6998": "\u6ce1\u83dc", "6999": "\u5bb9\u5668", "7000": "\u6e3a\u5c0f", "7001": "\u8bf4\u4e9b", "7002": "\u9047", "7003": "\u70ed\u6b7b", "7004": "\u7237", "7005": "\u56bc", "7006": "\u5348\u591c", "7007": "\u76ee\u7684\u5730", "7008": "\u6821\u53cb", "7009": "\u4e3a\u96be", "7010": "\u65e9\u7761\u65e9\u8d77", "7011": "\u7801\u5934", "7012": "\u6d53\u5ea6", "7013": "\u62d2\u6536", "7014": "\u2570", "7015": "\u73a9\u5bb6", "7016": "\u7761\u89c9\u65f6", "7017": "\u4f11\u95f2", "7018": "\u7ade\u4e89", "7019": "\u79bb\u5f97", "7020": "\u6536\u96c6", "7021": "via", "7022": "\u5f88\u591a\u5f88\u591a", "7023": "\u773c\u76ae", "7024": "\u5c71\u533a", "7025": "\u7b14", "7026": "\u7f5a", "7027": "\u623f\u79df", "7028": "\u9a6c\u52d2", "7029": "\u90a3\u4efd", "7030": "\u665a\u671f", "7031": "\u65cb\u8f6c", "7032": "\u4e8b\u4e8b", "7033": "\u7126\u8e81", "7034": "\u4e07\u5206", "7035": "\u6bcf\u5230", "7036": "\u54c1\u5473", "7037": "\u5e38\u5e74", "7038": "\u5c0f\u4f19\u5b50", "7039": "\u65e5\u540e", "7040": "\u8d70\u5230", "7041": "\u6211\u8349", "7042": "\u8bde\u751f", "7043": "\u672a\u5fc5", "7044": "\u4e0a\u5e02", "7045": "\u6a21\u62df", "7046": "\u70b9\u4e2a", "7047": "\u6655\u8f66", "7048": "\u7cca\u6d82", "7049": "\u6240\u8bf4", "7050": "\u60c6\u6005", "7051": "\u5e73\u7c73", "7052": "\u7ec4\u5efa", "7053": "\u8f86", "7054": "\u5b9c\u660c", "7055": "\u53e3\u7ea2", "7056": "\u5956\u5b66\u91d1", "7057": "\u5feb\u5230", "7058": "\u6b64\u524d", "7059": "\u9e2d\u5b50", "7060": "\u9aa8\u5b50\u91cc", "7061": "\u795e\u4ed9", "7062": "\u6df7\u86cb", "7063": "\u7535\u5668", "7064": "\u71c3\u70e7", "7065": "\u76f4\u81f3", "7066": "\u8bf8\u4e8b", "7067": "\u8272\u5f69", "7068": "\u6307\u5f15", "7069": "\u4e70\u6765", "7070": "\u6d3b\u751f\u751f", "7071": "\u5236\u6210", "7072": "\u6307\u793a", "7073": "\u7a7a\u7a7a", "7074": "\u91cd\u751f", "7075": "\u516b\u4e2a", "7076": "\u53d1\u708e", "7077": "\u5546\u91cf", "7078": "\u8fd9\u7279", "7079": "\u52b3\u52a8", "7080": "\u6280\u5de7", "7081": "\u684c\u9762", "7082": "\u63a5\u53e3", "7083": "\u574e", "7084": "\u4e13\u9879", "7085": "\u7f5a\u6b3e", "7086": "\u849c", "7087": "\u5468\u4e09", "7088": "\u8003\u5b8c\u8bd5", "7089": "\u8863\u67dc", "7090": "\u5bd2\u51ac", "7091": "\u6cb3\u5317\u7701", "7092": "\u660e\u76ee\u5f20\u80c6", "7093": "\u65ad\u7f51", "7094": "\u5f88\u5f3a", "7095": "\u590d\u6d3b", "7096": "\u663e\u8457", "7097": "\u8f7f\u8f66", "7098": "\u4f24\u4eba", "7099": "\u7559\u4f4f", "7100": "\u8425\u4e1a", "7101": "\u6ce1\u811a", "7102": "\u62a2\u6551", "7103": "09", "7104": "\u653e\u5f00", "7105": "\u80a1", "7106": "\u4ed6\u5bb6", "7107": "\u5a25", "7108": "\u52a0\u70ed", "7109": "\u4e2a\u6027", "7110": "\u597d\u957f\u65f6\u95f4", "7111": "\u51fa\u5e2d", "7112": "\u6eda\u52a8", "7113": "\u8111\u6d1e", "7114": "\u7b2c\u4e09\u4e2a", "7115": "\u4e1c\u4e1c", "7116": "\u6c14\u6b7b\u4eba", "7117": "\u6269\u5927", "7118": "\u5f00\u5173", "7119": "\u4ea4\u4ee3", "7120": "\ud83d\ude1c", "7121": "\u6b7b\u795e", "7122": "\u9634\u5929", "7123": "\u5f80\u524d", "7124": "\u534a\u6b7b", "7125": "\u4e24\u6761", "7126": "\u6bd4\u8d77", "7127": "\u8089\u8089", "7128": "\u5916\u516c", "7129": "\u60f3\u4e0d\u8d77\u6765", "7130": "\u5355\u72ec", "7131": "\u5c0f\u5b9d", "7132": "\u5efa\u7b51\u9762\u79ef", "7133": "\u8033\u8fb9", "7134": "\u5341\u4e8c\u6708", "7135": "\u523b", "7136": "\u670d\u7528", "7137": "\u4e3a\u51c6", "7138": "\u4ee5\u5f80", "7139": "\u841d\u535c", "7140": "\u5c01\u6740", "7141": "\u529e\u4e8b\u5904", "7142": "\u7248\u6743", "7143": "\u79f0\u4e4b\u4e3a", "7144": "\u5b66\u4e86", "7145": "\u6838\u7535\u7ad9", "7146": "\u53e3\u4e2d", "7147": "\u5fae\u8584", "7148": "\u6218\u673a", "7149": "\u6c49\u53e3", "7150": "\u7a00\u91cc\u54d7\u5566", "7151": "\u6307\u7740", "7152": "\u614c\u5f20", "7153": "\u5c55", "7154": "\u51fa\u56fd", "7155": "\u597d\u4e45\u597d\u4e45", "7156": "\u8c37", "7157": "\u51c0", "7158": "\u76f8\u89c1", "7159": "\u89c6\u4e3a", "7160": "\u8033\u5149", "7161": "\u52a8\u8109", "7162": "\u73b0\u5df2", "7163": "\u4f20\u67d3\u7ed9", "7164": "\u53d8\u597d", "7165": "\u5927\u6865", "7166": "\u6d17\u5934", "7167": "\u4eba\u6d41\u91cf", "7168": "\u53d6\u51b3\u4e8e", "7169": "\u8349\u8349", "7170": "\u63ea", "7171": "\u4e0b\u8f7d", "7172": "\u4e0d\u56de", "7173": "\u6027\u8d28", "7174": "\u6ca1\u80fd", "7175": "\u73ed\u8f66", "7176": "m", "7177": "\u5598", "7178": "\u52a8\u5de5", "7179": "\u4e0d\u5feb", "7180": "\u83dc\u5e02\u573a", "7181": "\u654c\u4eba", "7182": "\u80e1", "7183": "\u8fd9\u56de", "7184": "\u4ec1\u5fc3", "7185": "word", "7186": "\u6563\u64ad", "7187": "135", "7188": "\u4e8b\u5b9e\u8bc1\u660e", "7189": "\u4e00\u535a", "7190": "\u8d8a\u5357", "7191": "\u51b2\u51fb", "7192": "\u5341\u4e07", "7193": "\u6563\u5e03", "7194": "\u4e0d\u6127", "7195": "\u7ba1\u5236", "7196": "\u8086\u8650", "7197": "\u6625\u6696\u82b1\u5f00", "7198": "\u5e73\u7a33", "7199": "\u9c81\u8fc5", "7200": "\u773c\u79d1", "7201": "\u533b\u95f9", "7202": "\u75c5\u9b54", "7203": "\u5f80\u5e74", "7204": "\u5c40\u957f", "7205": "\u6076\u6027", "7206": "\u9884\u6d4b", "7207": "\u5657", "7208": "\u53ed", "7209": "\u6297\u4e89", "7210": "\u7b5b\u9009", "7211": "\u5730\u7ea7", "7212": "\u4e2d\u56fd\u5de5\u7a0b\u9662", "7213": "Only", "7214": "For", "7215": "\u552f\u7c89", "7216": "\u4e07\u4e8b", "7217": "\u6491\u4f4f", "7218": "\u6731\u6b63\u5ef7", "7219": "\u5e72\u54b3", "7220": "\u5371\u91cd\u75c7", "7221": "\u6025\u8bca\u79d1", "7222": "\u65f6\u8270", "7223": "\u8c03\u5ea6", "7224": "\u674e\u6dd1\u82ac", "7225": "\u53f0\u5f53\u5c40", "7226": "\u5730\u7406", "7227": "\u88ab\u8feb", "7228": "\u6478\u6478", "7229": "\u542b\u4e49", "7230": "\u897f\u5317", "7231": "\u5f71", "7232": "\u591c\u6df1\u4eba\u9759", "7233": "\u5413\u54ed", "7234": "\u5455\u5410", "7235": "\u592a\u5dee", "7236": "\u8d37\u6b3e", "7237": "\u5fd8\u6389", "7238": "\u65e0\u803b", "7239": "\u6211\u60f3", "7240": "\u7761\u61d2\u89c9", "7241": "\u53d1\u4f5c", "7242": "\u5f97\u610f", "7243": "\u9ad8\u538b", "7244": "\u6b65\u4f10", "7245": "\u556a", "7246": "2001", "7247": "\u7c97\u5361", "7248": "\u731d\u6b7b", "7249": "\u5934\u8111", "7250": "\u9759\u9759\u7684", "7251": "\u624b\u8d31", "7252": "\u9a6c\u8def\u4e0a", "7253": "\u5df2\u7136", "7254": "\u592a\u5b50", "7255": "\u5de5\u827a", "7256": "\u5404\u56fd", "7257": "\u5168\u573a", "7258": "\u683c\u5f0f", "7259": "\u8d77\u6e90", "7260": "\u6b4c\u8bcd", "7261": "\u66f4\u5e74\u671f", "7262": "\u256d", "7263": "\u6253\u626b\u536b\u751f", "7264": "\u601d\u8def", "7265": "\u4e24\u8fb9", "7266": "\u6e9c\u8fbe", "7267": "\u5fc3\u7406\u5b66", "7268": "\u4e03\u4e2a", "7269": "\u4e00\u4f53", "7270": "ppt", "7271": "\ud83d\udc3b", "7272": "\u5341\u5757\u94b1", "7273": "\u4e0d\u5728\u610f", "7274": "\u5f3a\u52bf", "7275": "\u5e94\u6709", "7276": "\u585e\u585e", "7277": "\u9ad8\u7aef", "7278": "\u4e0a\u65b9", "7279": "52", "7280": "\u5b66\u59d0", "7281": "\u4e00\u5e74\u7ea7", "7282": "\u8ba2", "7283": "\u505a\u4f5c", "7284": "\u4e2d\u610f", "7285": "\u6454\u788e", "7286": "\u6253\u5de5", "7287": "\u8d9f", "7288": "\u6253\u6e38\u620f", "7289": "\u5077\u62cd", "7290": "\u4e0d\u61c2\u4e8b", "7291": "\u6cae\u4e27", "7292": "\u5f88\u4e45\u5f88\u4e45", "7293": "\u4ee5\u514d", "7294": "\u4ea4\u5f80", "7295": "\u65ad\u7535", "7296": "\u9a8c\u8bc1", "7297": "\u52a0\u62ff\u5927", "7298": "ing", "7299": "\u574e\u5777", "7300": "\u65f6\u8282", "7301": "\u6628\u65e5", "7302": "\u56db\u6708", "7303": "\u89c1\u9b3c", "7304": "\u72fc", "7305": "\u4e0d\u653e", "7306": "\u94c1", "7307": "\u524d\u6240\u672a\u6709", "7308": "\u53cd\u53cd\u590d\u590d", "7309": "\u6ca1\u8fc7", "7310": "\u7b14\u8bd5", "7311": "\u66f4\u5927", "7312": "\u53c2\u89c2", "7313": "\u516c\u516c", "7314": "\u7fc5\u8180", "7315": "\u63a9\u76d6", "7316": "\u5708\u5b50", "7317": "\u66f4\u6539", "7318": "s", "7319": "\u6709\u70b9\u50cf", "7320": "\u80cc\u9505", "7321": "\u6bcf\u5468", "7322": "\u4ec7", "7323": "\u559d\u5496\u5561", "7324": "\u80e1\u6912\u7c89", "7325": "\u67e0\u6aac", "7326": "\u6c14\u606f", "7327": "IS", "7328": "\u4e07\u5428", "7329": "\u6211\u6ef4", "7330": "\u4f4f\u623f", "7331": "\u80be", "7332": "\u5317\u90e8", "7333": "\u5927\u6d0b", "7334": "\u9501", "7335": "\u4eb2\u5988", "7336": "\u6574\u5408", "7337": "\u5267\u70c8", "7338": "\u8d77\u8eab", "7339": "\u778c\u7761", "7340": "\u7275", "7341": "\u4e00\u4e2a\u534a", "7342": "\u70ed\u6c34\u888b", "7343": "\u53d1\u5c04", "7344": "\u5927\u80c6", "7345": "\u65e0\u610f\u95f4", "7346": "\u4e00\u4ee3", "7347": "\u6df7\u5408", "7348": "\u7fd8", "7349": "\u4e1c\u5357", "7350": "\u8d1f\u8377", "7351": "\u98ce\u5439", "7352": "\u6807\u5fd7", "7353": "\u623f", "7354": "\u7406\u4f1a", "7355": "\u6cea\u70b9", "7356": "\u6e56", "7357": "\u9042", "7358": "\u4e2d\u5e74", "7359": "\u4e0d\u6ee1", "7360": "\u5de5\u4f5c\u65e5", "7361": "\u4e00\u8f6e", "7362": "\u5927\u65b9", "7363": "\u6d3e\u9001", "7364": "\u6539\u4e3a", "7365": "\u68a6\u5883", "7366": "\u62cd\u62cd", "7367": "\u5f00\u706f", "7368": "\u6cb3", "7369": "\u819c\u62dc", "7370": "\u732b\u54aa", "7371": "\u623f\u4e1c", "7372": "\u4e70\u70b9", "7373": "\u6012\u706b", "7374": "\u5927\u6c14", "7375": "\u8bd5\u5377", "7376": "\u9000\u4f11", "7377": "\u624b\u5de5", "7378": "\u4e0d\u5408", "7379": "\u795e\u5668", "7380": "\u643a\u624b", "7381": "\u80c3\u75bc", "7382": "\u4e00\u809a\u5b50\u6c14", "7383": "\u51fb\u5012", "7384": "\u7b14\u8bb0\u672c", "7385": "\u8d23\u4efb\u5fc3", "7386": "\u5434\u4ea6\u51e1", "7387": "\u6ca1\u8111\u5b50", "7388": "\u6839\u672c\u5c31\u662f", "7389": "\u7528\u54c1", "7390": "\u505a\u8fc7", "7391": "\u7ba1\u7406\u5458", "7392": "\u9ad8\u8fbe", "7393": "\u53e6\u4e00\u65b9\u9762", "7394": "12306", "7395": "\u4ee5\u6b64", "7396": "\u5438\u70df", "7397": "\u8fd9\u822c", "7398": "\u8d75", "7399": "\u4e0d\u56f0", "7400": "\u7f51\u70b9", "7401": "\u521a\u5230", "7402": "\u98d9\u5347", "7403": "\u6700\u4f4e", "7404": "\u5fc3\u7231", "7405": "\u7f3a\u9677", "7406": "\u56db\u53f6\u8349", "7407": "\u80f8\u53e3", "7408": "\u534a\u6708", "7409": "\u53ec\u5524", "7410": "\u5927\u90fd", "7411": "\u672c\u547d\u5e74", "7412": "1300", "7413": "\u6253\u7834", "7414": "\u56e0\u800c", "7415": "\u552e\u540e", "7416": "\u5c0f\u6c14", "7417": "\u7ec8\u6b62", "7418": "\u625b", "7419": "\u4e00\u5200", "7420": "\u5cf0\u5cf0", "7421": "\u516c\u5bd3", "7422": "\u597d\u957f", "7423": "\u661f\u7403", "7424": "\u4e09\u4eba", "7425": "\u96c6\u9f50", "7426": "\u4e0d\u653e\u8fc7", "7427": "\u4e00\u5219", "7428": "\u4f11", "7429": "\u624d\u884c", "7430": "\u770b\u4e2d", "7431": "\u8d2d\u7269", "7432": "\u5149\u8292", "7433": "\u2757", "7434": "\u63a8\u52a8", "7435": "\u4e3e\u52a8", "7436": "\u5b66\u5230", "7437": "\u987a\u5e26", "7438": "\u8bf4\u4e0d\u5b9a", "7439": "\u804c\u573a", "7440": "\u60e6\u8bb0", "7441": "\u6ca1\u4eba\u80fd", "7442": "\u8d85\u8d8a", "7443": "\u6ca1\u5403\u8fc7", "7444": "\u63d0\u8d77", "7445": "\u6d77\u8fb9", "7446": "\u8fd9\u5468", "7447": "\u8d56", "7448": "\u5bab", "7449": "\u6c92\u6709", "7450": "\u6599\u7406", "7451": "\u6e38", "7452": "\u7ec6", "7453": "\u4e00\u60f3", "7454": "\u5d07\u62dc", "7455": "\u6267\u6cd5", "7456": "\u8bf4\u8d70\u5c31\u8d70", "7457": "\u8d35\u5dde\u7701", "7458": "\u8ff7", "7459": "\u5e74\u6765", "7460": "\u63a5\u5730", "7461": "\u0437", "7462": "\u597d\u7f8e", "7463": "\u5165\u53e3", "7464": "\u5b8b\u831c", "7465": "1200", "7466": "\u770b\u56fd\u8db3", "7467": "\u518d\u6765", "7468": "\u5410\u51fa\u6765", "7469": "\u5bfb\u6c42", "7470": "\u7a7a\u767d", "7471": "\u53cd\u611f", "7472": "\u4e0d\u8010\u70e6", "7473": "\u5634\u5507", "7474": "\u4e00\u65a4", "7475": "\u5b9d\u9a6c", "7476": "\ud83c\udf89", "7477": "\u4e3b\u7ba1\u90e8\u95e8", "7478": "\u987a\u773c", "7479": "\u961f\u5458", "7480": "\u79d1\u7814\u4eba\u5458", "7481": "\u5f00\u6765", "7482": "\u98ce\u7b5d", "7483": "\u53d1\u884c", "7484": "\u8f93\u7ed9", "7485": "\u54a7", "7486": "\u671d\u7740", "7487": "\u6cd5\u89c4", "7488": "\u75db\u6b7b", "7489": "\u4f1a\u957f", "7490": "\u9634\u9669", "7491": "\u53e3\u6c14", "7492": "\u4e00\u767e", "7493": "\u8fc7\u5173", "7494": "\u8587", "7495": "\u6d3b\u5f97", "7496": "\u987a\u7740", "7497": "\u56fd\u5185\u5916", "7498": "\u65e0\u754f", "7499": "\u72d7\u7537\u5973", "7500": "\u4e09\u4ef6", "7501": "\u6d82", "7502": "\u6f6e", "7503": "\u8386\u7530", "7504": "\u53fd\u53fd\u55b3\u55b3", "7505": "\u5ac1\u7ed9", "7506": "\u5bb9\u5fcd", "7507": "\u6715", "7508": "\u6253\u5b57", "7509": "\u4f38\u51fa", "7510": "\u4eca\u591c", "7511": "\u6109\u60a6", "7512": "\u7239\u5988", "7513": "\u8f6f\u5f31", "7514": "\u4fe1\u5ff5", "7515": "\u9b54\u5e7b", "7516": "\u80dc", "7517": "\u811a\u4e0b", "7518": "\u51b0\u51b7", "7519": "\u8868", "7520": "\u771f\u771f", "7521": "\u770b\u4e0d\u4e0b\u53bb", "7522": "\u4e34\u8fd1", "7523": "\u5199\u5b57", "7524": "\u771f\u60c5", "7525": "\u70e6\u5fc3", "7526": "\u6b27\u7f8e", "7527": "\u6709\u751f\u4e4b\u5e74", "7528": "\u94a2\u7b4b", "7529": "\u4e0d\u5f97\u597d\u6b7b", "7530": "\u86cb\u767d", "7531": "\u4e00\u6b3e", "7532": "\u672c\u8be5", "7533": "\u51e4\u51f0", "7534": "\u0e51", "7535": "\u6ce2", "7536": "\u5df4\u638c", "7537": "2018", "7538": "\u5f71\u9662", "7539": "\u6897", "7540": "\u80af\u5fb7\u57fa", "7541": "\u4e09\u5206", "7542": "\u957f\u76f8", "7543": "\u4e8c\u5341\u5206\u949f", "7544": "\u6302\u6389", "7545": "\u4e24\u8005", "7546": "\u8d35\u5dde", "7547": "\u878d\u5408", "7548": "\u7ae5\u978b", "7549": "\ud83d\udc67", "7550": "\u7f16\u7a0b", "7551": "\u95fb\u5230", "7552": "\u6655\u5012", "7553": "\u8d85\u5927", "7554": "\u8003\u5bdf", "7555": "\u5341\u51e0\u5e74", "7556": "\u8d23\u5907", "7557": "\u7334\u5b50", "7558": "\u65e5\u8bed", "7559": "\u8bef\u89e3", "7560": "\u8584", "7561": "\u969c\u788d", "7562": "\u77ed\u53d1", "7563": "\u5c3d\u91cf\u907f\u514d", "7564": "\u88ad", "7565": "\u7f8e\u5267", "7566": "\u6c38\u4e0d", "7567": "\u7537\u5b69\u5b50", "7568": "\u6276\u8d2b", "7569": "\u5b89\u629a", "7570": "\u51fa\u8f68", "7571": "\u641e\u4e0d\u61c2", "7572": "\u4f3c", "7573": "\u8fd9\u8d27", "7574": "\u51fa\u6e38", "7575": "\u62ff\u8d70", "7576": "\u8fde\u4e2a", "7577": "\u540d\u79f0", "7578": "\u9669\u6076", "7579": "\u6345", "7580": "\u53cb\u597d", "7581": "\u5929\u9ed1", "7582": "\u5dee\u5f02", "7583": "\u5305\u56f4", "7584": "\u5443", "7585": "\u533b\u5e08", "7586": "\u8c01\u77e5", "7587": "\u8db4\u5728", "7588": "\u607c\u706b", "7589": "\u6e83\u75a1", "7590": "\u6276", "7591": "\u770b\u4e0a\u53bb", "7592": "\u6ce1\u6ce1", "7593": "\u76db\u5f00", "7594": "\u6cd5\u5e08", "7595": "\u53f0\u5dde", "7596": "\u57ce\u7ba1", "7597": "\u6000\u62b1", "7598": "\u957f\u6c5f", "7599": "\uff11", "7600": "\u2160", "7601": "\u5efa\u6210", "7602": "\u6577\u884d", "7603": "\u6027\u611f", "7604": "\u7f13\u7f13", "7605": "\u7a46\u65af\u6797", "7606": "34", "7607": "\u644a\u8d29", "7608": "\u8d85\u7231", "7609": "\u54ea\u5412", "7610": "\u4e2d\u62db", "7611": "\u8001\u603b", "7612": "\u5c55\u73b0", "7613": "\u4eca\u5929\u4e0a\u5348", "7614": "\u897f\u73ed\u7259", "7615": "\u4ed9\u5973", "7616": "\u5317\u7ea6", "7617": "\u8d8a\u6765\u8d8a\u8fd1", "7618": "\u76f2\u76ee", "7619": "\u8fd0\u8f93", "7620": "4000", "7621": "\u591a\u94b1", "7622": "\u6d41\u901d", "7623": "\u75c5\u6bd2\u611f\u67d3", "7624": "\u7968\u623f", "7625": "\u5c0f\u59d0\u59d0", "7626": "\u8d4c", "7627": "\u60a3", "7628": "\u516c\u5171\u573a\u5408", "7629": "d", "7630": "\u91ca\u6000", "7631": "\u7f8a", "7632": "\u6293\u7d27", "7633": "\u8fdf", "7634": "\u53d1\u8a00", "7635": "\u89e3\u7b54", "7636": "\u54ea\u6709\u4ec0\u4e48", "7637": "\u5413\u552c", "7638": "\uffe3", "7639": "\u5077\u8d70", "7640": "\u8d22\u5bcc", "7641": "\u738b\u8005", "7642": "\u597d\u8bc4", "7643": "\u5e16\u5b50", "7644": "\u53bb\u53d6", "7645": "\u65e0\u53ef", "7646": "\u5f20\u6770", "7647": "\u56db\u5468", "7648": "\u5e72\u6389", "7649": "\u5468\u65e5", "7650": "\u5173\u95e8", "7651": "\u4e0d\u987e", "7652": "\u8bc1\u5238", "7653": "\u9996\u5e2d", "7654": "\u5fcd\u8010", "7655": "\u4e3b\u89c2", "7656": "\u6551\u62a4\u8f66", "7657": "\u4e2d\u65ec", "7658": "\u6bb4\u6253", "7659": "\u6d88\u6bd2\u6db2", "7660": "\u8fd9\u6bb5", "7661": "\u7b7e\u8bc1", "7662": "\u5495\u5495", "7663": "\u53d7\u4f24\u5bb3", "7664": "\u76f8\u53cd", "7665": "real", "7666": "\u95ea\u9000", "7667": "\u8c61\u5f81", "7668": "\u672a\u7ecf", "7669": "\u4e00\u5207\u987a\u5229", "7670": "\u6d77\u5e95", "7671": "\u7ea2\u85af", "7672": "and", "7673": "\u8f70\u70b8", "7674": "\u83f2\u5f8b\u5bbe", "7675": "\u5404\u65b9", "7676": "\u9886\u5bfc\u73ed\u5b50", "7677": "\u679c\u58f3", "7678": "\u52a0\u6025", "7679": "\u522b\u6015", "7680": "\u4efb\u547d", "7681": "\u963b\u65ad", "7682": "\u9e45", "7683": "\u672c\u6b21", "7684": "\u7ea2\u5341\u5b57\u4f1a", "7685": "\u8d22\u65b0", "7686": "\u5c24\u957f\u9756", "7687": "\u6297\u75c5\u6bd2", "7688": "\u5b9a\u70b9\u533b\u9662", "7689": "\u75c5\u6bd2\u4f20\u64ad", "7690": "\u7ebf\u4e0a", "7691": "101", "7692": "\u98ce\u606f", "7693": "\u795e\u6cea", "7694": "\u4eca\u5e74\u8fc7\u5e74", "7695": "\u6d17\u624b\u6db2", "7696": "\u4e59\u9187", "7697": "\u970d\u5c0a", "7698": "\u9694\u79bb\u75c5\u623f", "7699": "\u5fc5\u770b", "7700": "\u8282\u76ee\u5355", "7701": "\u5e72\u676f", "7702": "\u4e8c\u7ec4", "7703": "\u6821\u8003", "7704": "\u557e", "7705": "\u8ffd\u98ce", "7706": "\u5218\u5168", "7707": "\u540c\u8def", "7708": "\u5fb7\u585e", "7709": "\u4e34\u5371\u53d7\u547d", "7710": "\u9000\u6b3e", "7711": "\u9884\u9632\u63aa\u65bd", "7712": "\u8fd0\u9001", "7713": "\u95ee\u8bca", "7714": "\u4e2a\u8868", "7715": "\u4e00\u584c\u7cca\u6d82", "7716": "\u592a\u5fd9", "7717": "\u751f\u610f", "7718": "\u53cc\u773c", "7719": "\u5fcd\u5fcd", "7720": "\u8ffd\u9010", "7721": "\u574f\u6b7b", "7722": "\ud83c\udf7a", "7723": "\u8be6\u60c5", "7724": "\u8fdb\u53e3", "7725": "\u8d8a\u5927", "7726": "\u6d77\u62d4", "7727": "\u5411\u524d\u8d70", "7728": "\u79cb\u5b63", "7729": "\u61c2\u4e8b", "7730": "\u611f\u6069\u8282", "7731": "\u95f4\u9699", "7732": "\u77e5\u8db3", "7733": "\u4eba\u597d", "7734": "\u6f14\u7ece", "7735": "\u5927\u8d5b", "7736": "\u5f97\u7f6a", "7737": "\u6b23\u559c", "7738": "\u6539\u8fdb", "7739": "\u5171\u4eab", "7740": "\u5168\u5e74", "7741": "\u5fc3\u5fc3\u5ff5\u5ff5", "7742": "\u4e32", "7743": "\u8f85\u52a9", "7744": "\u542c\u529b", "7745": "\u7b54\u8fa9", "7746": "02", "7747": "\u556a\u556a", "7748": "\u53d1\u52a8", "7749": "\u6795", "7750": "\u6dfb\u52a0", "7751": "\u5e05\u5e05", "7752": "\u8bfe\u9898", "7753": "\u56f0\u610f", "7754": "\u597d\u6c14", "7755": "\u5206\u5b50", "7756": "\u8986\u76d6", "7757": "\u5468\u5e74", "7758": "\u6ca1\u6562", "7759": "\u9690\u7ea6", "7760": "\u8d2b\u7a77", "7761": "\u6cb9\u6761", "7762": "\u611f\u6027", "7763": "\u79c1\u5bc6", "7764": "\u5230\u671f", "7765": "\u4e22\u6389", "7766": "\u4e09\u56db\u4e2a", "7767": "\u5927\u96ea\u7eb7\u98de", "7768": "\u6469\u6258", "7769": "\u5982\u5c65\u8584\u51b0", "7770": "\u4e09\u6708", "7771": "\u80e1\u4e71", "7772": "\u547d\u540d", "7773": "\u5907\u6218", "7774": "\u7bb1", "7775": "\u6d6e\u8e81", "7776": "\u4e0d\u7518", "7777": "\u5c45\u59d4\u4f1a", "7778": "\u9ad8\u4e2d\u540c\u5b66", "7779": "\u4ee3\u66ff", "7780": "\u6284\u88ad", "7781": "\u53d1\u6761", "7782": "\u4e0a\u697c", "7783": "\u539f\u7406", "7784": "\u4e24\u5206\u949f", "7785": "\u9634\u6697", "7786": "\u8bd5\u9898", "7787": "\u670d\u52a1\u5668", "7788": "\u5a1c", "7789": "\u8fdb\u5ea6", "7790": "\u64cd\u64cd", "7791": "\u8ffd\u6740", "7792": "\u60ca\u9b42\u672a\u5b9a", "7793": "\u7559\u5b66", "7794": "\u9002\u91cf", "7795": "\u4e0d\u6703", "7796": "\u6700\u60f3", "7797": "\u4f60\u522b", "7798": "\u4e09\u5206\u949f", "7799": "\u56fd\u5bb6\u7ea7", "7800": "\u6c38\u6052", "7801": "\u5149\u660e", "7802": "\u604d\u60da", "7803": "\u770b\u4e00\u904d", "7804": "\u684c\u4e0a", "7805": "\u5c31\u8bfb", "7806": "\u89e3", "7807": "\u7cdf\u5fc3", "7808": "\u9999\u8549", "7809": "\u4e4b\u9645", "7810": "\u6fc0\u70c8", "7811": "1984", "7812": "\u8d26\u5355", "7813": "\u603b\u7edf", "7814": "\u5230\u5934", "7815": "\u8ddf\u4e2a", "7816": "\u81ea\u6709", "7817": "\u4e1a\u7ee9", "7818": "\u771f\u7cfb", "7819": "\u82b1\u75f4", "7820": "\u5931\u63a7", "7821": "\u53d1\u8fbe", "7822": "\u671f\u672b", "7823": "\u5fc3\u52a8", "7824": "\u89c2\u770b", "7825": "\u82f1\u4fca", "7826": "\u89e3\u653e\u519b", "7827": "\ud83d\udc37", "7828": "\u6402", "7829": "\u6392\u9aa8", "7830": "\u7231\u7740", "7831": "\u51e0\u4f4d", "7832": "\u81ea\u52a8\u5316", "7833": "\u51b2\u7740", "7834": "\u8f7b\u5fae", "7835": "\u4eba\u4e8b", "7836": "\u5360\u636e", "7837": "\u4e3b\u610f", "7838": "\u547c\u565c", "7839": "99", "7840": "\u771f\u597d", "7841": "\u6cc4\u9732", "7842": "\u771f\u68d2", "7843": "\u81f4\u547d", "7844": "\u53d1\u9ebb", "7845": "\u5b50\u5bab", "7846": "\u8840\u8165", "7847": "\u5382", "7848": "\u505a\u751f\u610f", "7849": "\u6d77\u5916", "7850": "\u4e8c\u5341\u5e74", "7851": "\u96be\u5ea6", "7852": "\u6b7b\u4eba", "7853": "\u4eb2\u624b", "7854": "\u57ce\u9547", "7855": "\u56db\u7ea7", "7856": "\u8170\u75bc", "7857": "\u5e73\u677f", "7858": "\u51e0\u4e0b", "7859": "\u53f0\u98ce", "7860": "\u53e0", "7861": "\u7ecf\u7406", "7862": "\u4f84\u5b50", "7863": "\u592a\u9ad8", "7864": "\u731c\u6d4b", "7865": "\u7231\u5947\u827a", "7866": "\u8fdc\u89c1", "7867": "\u516b\u6708", "7868": "\u590d\u5236", "7869": "\u52e4\u5feb", "7870": "\u63a9\u9970", "7871": "\u6de1\u7136", "7872": "\u4f18\u5316", "7873": "\u8d44\u8baf", "7874": "\u89c1\u8bc1", "7875": "\u65e5\u671f", "7876": "\u4e38", "7877": "\u516c\u52a1\u5458", "7878": "\u679c", "7879": "\u76f8\u8bc6", "7880": "\u5185\u5fc3\u6df1\u5904", "7881": "\u53ea\u7528", "7882": "\u4f2a\u88c5", "7883": "\u4e8c\u5b57", "7884": "\u7c92", "7885": "\u522b\u95ee", "7886": "\u4e1c\u90e8", "7887": "\u827e\u739b", "7888": "\u770b\u4e0d\u6e05", "7889": "\u8d85\u8f66", "7890": "\u4f53\u529b", "7891": "\u6d41\u773c\u6cea", "7892": "\u4e09\u5927", "7893": "\u53d1\u660e", "7894": "\u6d77\u6d0b", "7895": "\u6d3b\u6cfc", "7896": "\u4e00\u697c", "7897": "\u72c2\u5954", "7898": "1999", "7899": "\u5047\u8bbe", "7900": "\u5931\u4e1a", "7901": "\u745c\u4f3d", "7902": "\ud83d\udc95", "7903": "\u706b\u70e7", "7904": "\u5e7a", "7905": "\u8bbe\u8ba1\u5e08", "7906": "\u6ca1\u6551", "7907": "\u592a\u6162", "7908": "\u996d\u5361", "7909": "\u4e00\u901a", "7910": "\u96ea\u4eba", "7911": "\u5bf9\u63a5", "7912": "\u5fd8\u4e0d\u4e86", "7913": "\u4e0d\u592a", "7914": "\u4eba\u5de5", "7915": "\u660e\u77e5", "7916": "\u8bf4\u9053", "7917": "\u4ece\u6b64\u4ee5\u540e", "7918": "\u706b\u7206", "7919": "\u8272", "7920": "\u866b\u5b50", "7921": "\u5927\u59d0", "7922": "\u82b1\u751f", "7923": "\u7b2c\u516d", "7924": "\u5931\u8bef", "7925": "happy", "7926": "\u6768\u7d2b", "7927": "\u89c6\u7ebf", "7928": "\u6ce5\u7164", "7929": "\u8d77\u843d\u67b6", "7930": "\u5f53\u7740", "7931": "\u5de5\u5730", "7932": "\u54c1", "7933": "girl", "7934": "\u8fdf\u8fdf", "7935": "\u65f6\u65f6\u523b\u523b", "7936": "\u7eb3\u95f7", "7937": "\u521d\u4e00", "7938": "\u5c0f\u732a", "7939": "\u76ee\u6d4b", "7940": "\u8ddf\u968f", "7941": "\u5927\u5e45", "7942": "\u6b64\u751f", "7943": "\u5185\u759a", "7944": "\u8eab\u65c1", "7945": "\u72d7\u5c4e", "7946": "\u574f\u6389", "7947": "\u4e00\u888b", "7948": "\u9b54\u9b3c", "7949": "\u672a\u80fd", "7950": "\u540c\u6b65", "7951": "\u52a1\u5de5", "7952": "\u60a0\u7136", "7953": "\u770b\u5f85", "7954": "\u4e00\u5ea6", "7955": "\u4e24\u8282\u8bfe", "7956": "\u60ca\u614c\u5931\u63aa", "7957": "\u8e0f\u8e0f\u5b9e\u5b9e", "7958": "\u8fdd\u53cd", "7959": "\u8463\u4e8b\u957f", "7960": "\u53d1\u9175", "7961": "\u53e3\u8154", "7962": "\u8c01\u8c01\u8c01", "7963": "\u6253\u6765", "7964": "\u5341\u5c81", "7965": "\u798f\u5efa\u7701", "7966": "\u6210\u5929", "7967": "\u6c38\u65e0\u6b62\u5883", "7968": "\u8c01\u5bb6", "7969": "\u5750\u706b\u8f66", "7970": "\u82f1\u8bed\u8001\u5e08", "7971": "\u8857\u5934", "7972": "\u5b57\u5e55", "7973": "\u795d\u4f60\u4eec", "7974": "\u5f15\u8fdb", "7975": "\u66b4\u8d70", "7976": "\u6c11\u4e3b", "7977": "\u73ed\u91cc", "7978": "\u65c5\u9986", "7979": "\u8db4\u7740", "7980": "\u751f\u6001", "7981": "\u5e9c", "7982": "\u6270\u4e71", "7983": "\u62cc", "7984": "\u4f20\u5947", "7985": "\u56db\u5b63", "7986": "\u98a4\u6296", "7987": "\u53ef\u803b", "7988": "\u53ea\u613f", "7989": "\u6b3e", "7990": "\u5b9d\u8d35", "7991": "\u7535\u8def", "7992": "\u54ed\u95f9", "7993": "\u522b\u8ddf\u6211", "7994": "\u5408\u6210", "7995": "\u971c", "7996": "\u540e\u65b9", "7997": "\u7528\u6c34", "7998": "\u5206\u8fa8", "7999": "\u4e0a\u8ff0", "8000": "\u897f\u65b9", "8001": "\u677e", "8002": "365", "8003": "\u8f89\u714c", "8004": "\u5206\u6570", "8005": "\u77ed\u671f", "8006": "\u5584\u4e8e", "8007": "\u9760\u9760", "8008": "\u8bef\u5224", "8009": "\u516d\u5e74", "8010": "\u95f7", "8011": "\u600e\u9ebc", "8012": "\u60f3\u89c1", "8013": "\u65e0\u8da3", "8014": "\u5c0f\u5b9d\u8d1d", "8015": "\u9ad8\u80fd", "8016": "\u5ae9", "8017": "\u25cf", "8018": "\u73af", "8019": "\u5168\u5bb6\u4eba", "8020": "\u843d\u53f6", "8021": "\u70b9\u5fc3", "8022": "\u575a\u6301\u4e0b\u53bb", "8023": "\ud83d\udc4b", "8024": "\u52a8\u8f66", "8025": "\u5065\u5168", "8026": "\u62a5\u7eb8", "8027": "\u61c2\u4e0d\u61c2", "8028": "\ud83d\ude0d", "8029": "\u6674", "8030": "\u524d\u6bb5\u65f6\u95f4", "8031": "\u539f\u6599", "8032": "\u5c0a\u656c", "8033": "\ue107", "8034": "\u4e70\u4e0d\u8d77", "8035": "\u5f69\u8679", "8036": "\u641e\u6e05\u695a", "8037": "\u4e13\u6ce8", "8038": "\u8f6c\u6362", "8039": "\u540e\u80cc", "8040": "\u767d\u9152", "8041": "\u7edf\u7edf", "8042": "\u5982\u4f55\u662f\u597d", "8043": "\u7f9e\u803b", "8044": "\u94a2\u94c1", "8045": "\u745f", "8046": "\u5341\u4e94", "8047": "\u653e\u6674", "8048": "\u9a7b", "8049": "\u5077\u7aa5", "8050": "\u5927\u597d", "8051": "\u5e73\u5eb8", "8052": "\uff10", "8053": "\u043e", "8054": "\u7f16", "8055": "\u6362\u73ed", "8056": "\u56db\u6d77", "8057": "\u5730\u74dc", "8058": "\u5f62", "8059": "\u6700\u574f", "8060": "\u6270\u6c11", "8061": "\u4eba\u60c5", "8062": "\u5404\u7701", "8063": "\u6781\u7aef", "8064": "\u5fd7\u613f", "8065": "\u6851\u62ff", "8066": "\u4e00\u65c1", "8067": "\u753b\u4e2a", "8068": "\u6700\u5dee", "8069": "\u524d\u65b9", "8070": "\u7f9e\u6127", "8071": "\u9609", "8072": "\u8d27\u7269", "8073": "\u6d2a\u8352", "8074": "\u8354\u679d", "8075": "\u5ac2\u5b50", "8076": "\u7535\u89c6\u673a", "8077": "\u8d85\u51fa", "8078": "1990", "8079": "\u6551\u4eba", "8080": "\u50a8\u5907", "8081": "\u91d1\u94f6", "8082": "\u51e0\u5ea6", "8083": "\u795e\u79d8", "8084": "\u4e1c\u7ad9", "8085": "\u4e4c\u9e26", "8086": "\u533a\u5206", "8087": "\u8bf4\u6765", "8088": "\u55d3\u5b50\u75bc", "8089": "\u5927\u5730", "8090": "\u4e4e", "8091": "\u52b2\u513f", "8092": "\u306a", "8093": "\u6b4c\u624b", "8094": "\u7edd\u975e", "8095": "\u5916\u4eba", "8096": "\u51e0\u6761", "8097": "\u5217\u5165", "8098": "\u9891\u7387", "8099": "\u4f20\u8a00", "8100": "\u8d25\u7c7b", "8101": "\u9891\u9053", "8102": "\u987a", "8103": "kg", "8104": "\u00b4", "8105": "\u529d\u8bf4", "8106": "\u6536\u53d6", "8107": "\u5317\u6d77", "8108": "\u5185\u79d1", "8109": "04", "8110": "\u3046", "8111": "\u4e16\u4eba", "8112": "\u8fb9\u7f18", "8113": "BB", "8114": "\u5fc5\u80dc", "8115": "\u6e5b\u6c5f", "8116": "\u6c99\u6ee9", "8117": "\u5565\u610f\u601d", "8118": "\u6c11", "8119": "\u529e\u516c", "8120": "\u7763\u4fc3", "8121": "\ud83d\ude2a", "8122": "\u4eb2\u751f", "8123": "\u8282", "8124": "\u6539\u7b7e", "8125": "\u96fe\u6c14", "8126": "\u8bf4\u8d77", "8127": "\u635f\u4f24", "8128": "\u6642\u5019", "8129": "\u6b64\u540e", "8130": "\u81ea\u53d1", "8131": "\u98a0\u8986", "8132": "\u5f92\u624b", "8133": "\u5e02\u7ea7", "8134": "\u91d1\u878d", "8135": "\u71d5\u7a9d", "8136": "\u5c0f\u9ed1", "8137": "\ud83d\udd95", "8138": "\u5929\u707e", "8139": "\u8d5e\u540c", "8140": "\u9632\u7ebf", "8141": "\u6717\u8bf5", "8142": "\u68d2\u5b50", "8143": "\u8001\u592a", "8144": "\u7eb8\u5dfe", "8145": "\u83dc\u5200", "8146": "\u6559\u80b2\u5c40", "8147": "\u6545\u5bab", "8148": "\u515c\u91cc", "8149": "\u8ddf\u4e0a", "8150": "NO", "8151": "\u843d\u843d", "8152": "\u60dc\u547d", "8153": "\u77ed\u7f3a", "8154": "\u4fa5\u5e78\u5fc3\u7406", "8155": "\u9f20\u75ab", "8156": "\u4e09\u7ec4", "8157": "\u9e66\u9e49\u87ba", "8158": "\u7279\u6548\u836f", "8159": "\u76f2\u70b9", "8160": "\u6279\u793a", "8161": "\u4e2d\u570b\u8d0a", "8162": "\u9664\u5915\u591c", "8163": "\u65b0\u6625\u5feb\u4e50", "8164": "\u51a0\u72b6", "8165": "MERS", "8166": "\u6d88\u6bd2\u5242", "8167": "\u5e7f\u53d1", "8168": "\u547c\u5438\u79d1", "8169": "\u4e24\u4f8b", "8170": "A6v1xgC0", "8171": "\u4e2d\u5e74\u4eba", "8172": "\u6f5c\u6c5f", "8173": "\u767d\u656c\u4ead", "8174": "\u904f\u5236", "8175": "\u4f55\u6d1b\u6d1b", "8176": "\u60ca\u9e3f", "8177": "\u6218\u65f6", "8178": "\u996d\u5708", "8179": "\u679c\u5b50\u72f8", "8180": "\u4f60\u89c6", "8181": "\u8f7d", "8182": "\u4e0b\u7740\u96e8", "8183": "\u5730\u5904", "8184": "\u53ea\u80fd\u9760", "8185": "\u75d5\u8ff9", "8186": "\u8bc8\u9a97", "8187": "\u82e6\u96be", "8188": "\u4e0a\u4e2a", "8189": "\u4ea7", "8190": "\u4e16\u4fd7", "8191": "\u670d\u52a1\u6001\u5ea6", "8192": "\u8ba4\u771f\u5bf9\u5f85", "8193": "\u00e1", "8194": "\u968f\u4e4b", "8195": "\u814c", "8196": "319", "8197": "\u7247\u6bb5", "8198": "\u53ef\u6cbb", "8199": "\u4e07\u5e78", "8200": "\u81ea\u4e3b", "8201": "\u65e5\u51fa", "8202": "\u2753", "8203": "app", "8204": "\u5c1a\u672a", "8205": "\u4e00\u7b11", "8206": "\u98ce\u6c34", "8207": "\u79ef\u96ea", "8208": "\u8ba8", "8209": "\u5c41\u7528", "8210": "\u793e\u4f1a\u5173\u7cfb", "8211": "\u5927\u9762\u79ef", "8212": "0.5", "8213": "\u5c4a", "8214": "\u8273\u9633", "8215": "\u6625", "8216": "\u53cd\u80c3", "8217": "\u957f\u5ea6", "8218": "\u8bd5\u9a8c", "8219": "900", "8220": "\u6c14\u5230", "8221": "\u62b5\u5fa1", "8222": "\u80f8\u95f7", "8223": "\u5f62\u6001", "8224": "\u4e3e", "8225": "\u4e00\u9996\u6b4c", "8226": "\u51e1\u4e8b", "8227": "\u67d0\u79cd", "8228": "\u5173\u6389", "8229": "\u66f4\u4e3a", "8230": "\u4f0a", "8231": "\u5634\u8138", "8232": "\u6cd5\u9662", "8233": "\u9010\u6b65", "8234": "\u5dee\u4e00\u70b9", "8235": "\u804a\u804a", "8236": "\u4fd7\u8bdd\u8bf4", "8237": "\u9ed1\u54e8", "8238": "\u4f60\u4eec\u597d", "8239": "\u6652\u6652", "8240": "\u6807\u8bb0", "8241": "\u7ba1\u4e0d\u4f4f", "8242": "\u552f", "8243": "\u6b6a\u6b6a", "8244": "\u54ed\u6ce3", "8245": "\u5c0f\u59b9\u59b9", "8246": "\u8ba4\u77e5", "8247": "42", "8248": "\u4fbf\u79d8", "8249": "\u5206\u4f1a", "8250": "\u5217\u4e3a", "8251": "\u6742\u7269", "8252": "\u51f6\u6b8b", "8253": "\u7a3f\u5b50", "8254": "no", "8255": "\u7167\u955c\u5b50", "8256": "\u5ba3\u6cc4", "8257": "\u51f6\u624b", "8258": "\u56ed\u533a", "8259": "\u6559\u6750", "8260": "\u996e", "8261": "\u4eba\u683c", "8262": "\u5207\u6210", "8263": "\u9c9c", "8264": "\u7f16\u5236", "8265": "\u516c\u793e", "8266": "\u66f4\u540d", "8267": "\u9884\u60f3", "8268": "\u7316\u72c2", "8269": "\u5584\u5f85", "8270": "\u62d4\u7259", "8271": "\u60ca\u9669", "8272": "\u52a0\u500d", "8273": "\u618b\u6c14", "8274": "\u56fa\u7136", "8275": "\u8df3\u52a8", "8276": "\u6f5c\u610f\u8bc6", "8277": "\u4e00\u8bf4", "8278": "\u8868\u59b9", "8279": "\u88f9", "8280": "\u656c\u4e1a", "8281": "\u592a\u5929\u771f", "8282": "\u4e09\u5341", "8283": "\u6668", "8284": "\u7ef5\u7ef5", "8285": "\u6ca1\u8bfe", "8286": "\u5c5e\u6027", "8287": "2.5", "8288": "\u526a\u5200", "8289": "\u62bd\u5c49", "8290": "\u592a\u60e8", "8291": "\u8861\u91cf", "8292": "\u7535\u529b", "8293": "\u53ee", "8294": "\u642c\u5bb6", "8295": "\u7ea2\u7eff\u706f", "8296": "\u7a7f\u8863\u670d", "8297": "\u6d77\u7ef5", "8298": "\u5cb3\u7236", "8299": "\u6628\u591c", "8300": "\u60ca\u73b0", "8301": "\u7ffb\u5230", "8302": "\u94f6", "8303": "\u6e05\u5355", "8304": "\u51e0\u904d", "8305": "\u9992\u5934", "8306": "\u786c\u751f\u751f", "8307": "\u7b80\u7b80\u5355\u5355", "8308": "\u54ed\u6b7b\u4e86", "8309": "\u5bb6\u56ed", "8310": "\u603b\u6536\u5165", "8311": "\u67b6", "8312": "\u8d70\u52a8", "8313": "\u6ca1\u51fa\u606f", "8314": "\u622a\u6b62", "8315": "\u6253\u55dd", "8316": "\u626c\u5dde", "8317": "\u521b\u7acb", "8318": "\u5b9e\u8bdd", "8319": "\u5c0f\u4e1c\u897f", "8320": "\u638f\u51fa", "8321": "\u4eb2\u5207", "8322": "\u9893\u5e9f", "8323": "\u660e\u513f", "8324": "\u4e27\u5931", "8325": "\u519c\u5386", "8326": "\u5217", "8327": "\u739b", "8328": "\u7ec6\u81f4", "8329": "\u9057\u4f20", "8330": "\u559c\u7231", "8331": "\u56f0\u5f97", "8332": "\u5bb4\u4f1a", "8333": "\u602a\u517d", "8334": "\u8ffd\u7740", "8335": "\u68a6\u6c57", "8336": "\u68c9\u8884", "8337": "\u9c9c\u8089", "8338": "\u5435\u6b7b", "8339": "\u4e0d\u592a\u4f1a", "8340": "1979", "8341": "\u59cb\u5efa", "8342": "\u80a5\u80d6", "8343": "\u957f\u80d6", "8344": "\u5bf9\u7167", "8345": "07", "8346": "\uff1d", "8347": "\u97f5\u8fbe", "8348": "\u5e38\u5dde", "8349": "\u75db\u5feb", "8350": "\u597d\u60f3", "8351": "\u767b\u9646", "8352": "\u52b1\u5fd7", "8353": "\u5403\u4e8f", "8354": "\u660e\u665a", "8355": "\u626d", "8356": "\u5267\u900f", "8357": "\u6beb\u5347", "8358": "\u9ad8\u901f\u516c\u8def", "8359": "\u7f8e\u666f", "8360": "\u5bfc\u6e38", "8361": "\u901d\u53bb", "8362": "\u17ce", "8363": "\u5370\u5237", "8364": "f", "8365": "\u8fd0\u52a8\u5458", "8366": "\u957f\u5b89", "8367": "\u5413\u4e86\u4e00\u8df3", "8368": "\u903c\u6b7b", "8369": "\ud83d\udc83", "8370": "\u9488", "8371": "\u7261\u4e39\u6c5f", "8372": "\u5360\u5730", "8373": "\u6539\u540d", "8374": "\u4e43\u81f3", "8375": "\u79bd\u517d", "8376": "\u96e8\u4f1e", "8377": "\u54c7\u54c7", "8378": "\u7b80\u79f0", "8379": "\u76f4\u89c6", "8380": "\u6d17\u8111", "8381": "\u4f24\u75a4", "8382": "05", "8383": "\u8db3\u8db3", "8384": "\u5c0f\u7c73\u7ca5", "8385": "\u5c0f\u706b", "8386": "\u4f8b\u5b50", "8387": "\u51fa\u552e", "8388": "\u6307\u7eb9", "8389": "\u62bd\u5230", "8390": "\u5de7\u5999", "8391": "\u75b2\u52b3", "8392": "\u540c\u4f34", "8393": "\u6ce5", "8394": "\u53f7\u7ebf", "8395": "\u8d81\u7740", "8396": "\u4ef7", "8397": "\u4fe1\u4e0d\u4fe1", "8398": "\u5927\u534a\u4e2a", "8399": "\u914d\u7f6e", "8400": "\u6ee1\u5fc3\u6b22\u559c", "8401": "\u5bff\u547d", "8402": "\u8003\u4e0a", "8403": "\u4fee\u70bc", "8404": "\u603b\u4f53", "8405": "\u54aa", "8406": "\u73fe\u5728", "8407": "\u9084\u6709", "8408": "\u6e0d", "8409": "\u6731", "8410": "\u6413", "8411": "\u649e\u6b7b", "8412": "\u73b0\u4efb", "8413": "\u6b63\u5e38\u4eba", "8414": "\u6781\u4e3a", "8415": "\u5984\u60f3", "8416": "\u57fa\u7840\u8bbe\u65bd", "8417": "\u559c\u6012\u54c0\u4e50", "8418": "\u75af\u72d7", "8419": "\u51fa\u53f0", "8420": "\u5c1a", "8421": "\u6ca1\u8bf4", "8422": "\u7279\u6027", "8423": "\u81ea\u8c6a", "8424": "\u6a59\u5b50", "8425": "\u7b2c\u4e00\u773c", "8426": "\u8fd9\u9897", "8427": "\u4e0d\u5931", "8428": "\u4e0a\u763e", "8429": "\u7cbe\u54c1", "8430": "\u9897\u7c92", "8431": "\u653e\u8fdb", "8432": "\u7231\u56fd", "8433": "\u6bc1\u706d", "8434": "\u8def\u7ebf", "8435": "\u5185\u5916", "8436": "\u4ed8\u94b1", "8437": "\u9655\u897f\u7701", "8438": "\u6a2a\u6881", "8439": "\u4f18\u96c5", "8440": "\u8ff7\u604b", "8441": "\u70b9\u524d", "8442": "\u8bf4\u5b8c", "8443": "\u771f\u4eba", "8444": "\u78e8", "8445": "\u8e66", "8446": "\u5f90", "8447": "\u5fb7\u5dde", "8448": "\u4ee3\u8a00\u4eba", "8449": "\u9ebb", "8450": "\u51c6", "8451": "\u4e00\u7f15", "8452": "\u59d3\u540d", "8453": "\u4f01\u4e1a\u5bb6", "8454": "\u9192\u9192", "8455": "\u6d3b\u8dc3", "8456": "\u7070", "8457": "\u5fc3\u773c", "8458": "\u8054\u5408\u56fd", "8459": "\u9910\u684c", "8460": "\u63e1", "8461": "\u60f3\u60f3\u4e5f\u662f", "8462": "\u4e2d\u56fd\u5171\u4ea7\u515a", "8463": "55", "8464": "\u957f\u957f", "8465": "\u4e45\u4e45", "8466": "\u4f26\u6566", "8467": "\u9996\u4e2a", "8468": "\u602a\u7269", "8469": "\u6700\u4e3a", "8470": "\u4e2d\u534e\u4eba\u6c11\u5171\u548c\u56fd", "8471": "\u6dc0\u7c89", "8472": "\u52b3\u52a8\u529b", "8473": "\u7f8e\u5c11\u5973", "8474": "\u70ed\u5ea6", "8475": "\u6781\u5927", "8476": "\u7535\u8bdd\u53f7\u7801", "8477": "\u5403\u918b", "8478": "\u52c7\u58eb", "8479": "\u597d\u6837", "8480": "\u96be\u514d", "8481": "\u521d\u516d", "8482": "\u6321\u4f4f", "8483": "\u4f24\u75db", "8484": "\u9646\u519b", "8485": "\u4f5c\u6218", "8486": "\u542c\u8fc7", "8487": "\u6e23\u6d6a", "8488": "\u5e99\u4f1a", "8489": "\u8001\u738b", "8490": "\u7535\u94bb", "8491": "\u6ca1\u6709\u52c7\u6c14", "8492": "\u4ece\u5bb9", "8493": "\u5b9a\u671f", "8494": "\u9ad8\u5927", "8495": "\u5982\u521d", "8496": "\u5927\u6218", "8497": "\u591a\u52a0", "8498": "\u9178\u75bc", "8499": "\u65b9\u4fbf\u9762", "8500": "\u8d77\u70b9", "8501": "\u5426\u8ba4", "8502": "\u4e0d\u8981\u547d", "8503": "\u5fcd\u65e0\u53ef\u5fcd", "8504": "\u751f\u65e5\u793c\u7269", "8505": "\u91cd\u611f\u5192", "8506": "\u7ba1\u4f4f", "8507": "\u5feb\u7ed9\u6211", "8508": "\u51fa\u9519", "8509": "\u94f2", "8510": "\u8ba2\u5a5a", "8511": "\u6d3b\u529b", "8512": "\u7d20\u6750", "8513": "\u4e00\u70b9\u4e00\u70b9", "8514": "\u58c1\u7eb8", "8515": "\u70ed\u7ebf", "8516": "\u72b9\u5982", "8517": "\u63d0\u95ee", "8518": "\u8d44\u4ea7", "8519": "\u5df2\u77e5", "8520": "\u4e0d\u5c0f", "8521": "\u91ce", "8522": "\u4e00\u51fa", "8523": "\u54ea\u4f4d", "8524": "\u5224\u5211", "8525": "\u79fb\u6c11", "8526": "\u54f2\u5b66", "8527": "\u4e03\u5206", "8528": "\u6cbe", "8529": "\u629b", "8530": "\u7737\u987e", "8531": "\u968f\u673a", "8532": "\u9732", "8533": "\u6ca1\u8f66", "8534": "\u4e0b\u5c5e", "8535": "\u4e00\u8f66", "8536": "\u8d70\u4e0a", "8537": "\u591a\u5c81", "8538": "\u51fa\u8840", "8539": "\u4e09\u53ea", "8540": "\u6b20\u8d39", "8541": "\u65e0\u8a00\u4ee5\u5bf9", "8542": "\u88c5\u903c", "8543": "\u8205\u8205", "8544": "\u7c98", "8545": "\u56de\u6536", "8546": "\u5c40\u9762", "8547": "2022", "8548": "\u6700\u5148", "8549": "\u8111\u6b8b\u7c89", "8550": "\u5c0f\u5c41\u5b69", "8551": "\u8bd5\u5242", "8552": "die", "8553": "\u964d\u843d", "8554": "\u56fd\u5ea6", "8555": "\u9752\u83dc", "8556": "\u5730\u7406\u4f4d\u7f6e", "8557": "\u5c0f\u547d", "8558": "\u9f9f",
[...]
